BBB592F0
3D157474
3D47FB98
3CF0A9FC
BD520D4A
BD9BA3FF
3BFEAB30
3CD02E34
3D52B514
BCD82698
BCB14ED2
BD72B1E6
BD254A25
3CB8F950
3D245C4A
BD876F50
3C8B6AEC
3D365A46
BD148609
BD2F6F6A
3D7E56B8
BD6F7B24
3D0EC914
3D69F1A8
3DA32464
BD4F2A8E
BD1AEC97
3D947C18
3D886FFA
3D3B4FFC
3D6F0DDC
3D1BBD5C
BD43462D
3D74B7AC
BD9556A6
BD3CB93F
3D35C29C
BD4554FB
3D33B108
BD8B89D7
BD7D1248
BD89A926
BD004D07
3D6D954C
3D8B0D2E
BD83FE68
3D16BEB0
3D3AF29C
BD9B6176
BD826810
3D9EA8E6
3D8FAEB2
BD8C8575
BD9848C9
BCDADAA0
3D9D1B42
BD8BC510
BD1A2CBF
BD35E8C8
3CF17C74
BD6C6C2E
BCC2EC98
BD8C5810
BD9DE5E8
BC710678
BBE59DD0
BC194368
BD5141D0
3D9E115C
3CCEEB60
3C692270
BD93A6DF
3D54C6E4
3D35D43E
3C844E04
3D1BADA8
BD9711AE
BCCAF986
BD656048
BB9F35D0
3C127158
3CE7E0E8
BD8BB3CB
BD822FE0
3D777964
BCF09BE8
BD3E1339
BD0942AF
BD2A0C53
3D10694E
BD31F0F0
BC2CC218
BCC63C00
3D50DCC0
BD8ED624
3D62EC80
BCA5141C
3CAAC544
BD76B076
3CD0EC68
3B8A2130
BD069857
BD06C62D
3D8C8AE2
BCFBB8F2
BD886D73
BD86024A
BC6DA520
BD81C1B1
3D1BF1B8
3D8D0C50
BC0380E8
BD012E88
BD1E4EF9
BC8806FC
3C2EBCC8
BD9AE0D6
BCD13FBA
BD6678A4
3C145918
3CB6A0C0
3C244040
3D21E8C4
3D1EAA10
BCF8D5BC
3BDFC1E0
BD8869BD
3D495114
3C116C50
3D968DE2
BD674A24
3D3E8D64
BBA5FCB0
BD07A1D7
BD830864
3D32931E
BD32D86B
3D46B7C8
BD79E84D
3D6D7994
3D81923C
BD473176
BD7D63F6
3D917272
3D70EF8C
BC84983C
BDA41086
BC9602BC
3D6EF718
BD3D10C9
3D415798
3D863CFC
3D5C0DCC
BB785A20
3D814AC4
3D10B750
BD574D8A
3D44D7AC
3D3800EC
3D68C6CC
BD1BFFA3
3DA1D55A
3CF90038
3D5412A4
BCB2DB12
38BCB800
BD0A917D
3D8797C6
3D6494E8
BD32197F
BD0D2491
BD2C7647
BD2C372C
BCA2FD9E
3D92C00A
3BABA560
3D5039CC
3CF9B110
BD66E8F9
3D6D7F2C
BCB8CDFA
3C5C15D8
BC754B80
BD18B0F8
BCC0A4AC
BD799A12
3CA6DC7C
3C701DB0
BD42A107
3CA10EB8
BD73FC2A
BD829984
3D52E318
3D8B743C
BC57BB88
3D90B2C0
3D9C2798
3D74E520
BD86F6E4
3DA261EE
BBC4B700
BD9129B3
3D10361C
B8A79400
3C529270
BD70ADF1
3C423D48
3D64C964
39E44000
3D4F6368
3C2B9948
BC403B70
3D66B79C
3D8854D2
3D74A6BC
BD0DBF0F
BB3EFDC0
3D96A088
BD9A54EA
3C8D2F6C
BC6D4230
39100600
3BC62DD0
3D3DA254
BD5DF812
BAE1D880
3D94D17C
3D01E4A6
BD322689
BCEB8A9E
3D5839E4
3C76A408
BCBBA50A
BCF70DF4
BCBA16E8
3D757D50
3D4D16E4
BB5DC2E0
3D2F9F5A
BC9D2E4A
3D38E9DC
BD659513
BCD4057E
BCE06258
BD2E9094
3BBEFFF0
3D9904E0
3C90D448
3C258D60
BD6551F0
3D909A4E
3D66160C
BCDCF3BA
3D21D52A
3D517EF4
BD8BC97C
BCDB6D4C
BD9A99F7
3D85FBC2
BD646B86
BC9C4CD2
3D9894A8
BCC1657C
BCCFEB48
3C046488
BD78708E
BD0492C8
BCCF678A
3D1DC170
3D5C1104
3C1489B8
BA642280
BD96DCC6
BD8973B8
3C380D10
3D9C767C
BBC77BF0
BC955558
3C98876C
3CAAA878
BD81B5E6
BC50C008
BD5E792B
BD603C3C
3D296776
BD729F10
3C0764F0
3B0ABDC0
BD124625
3D7CD1E4
3D377A34
BC59B518
BD1BA8B9
3C470158
BD73E6AF
3D81CBE2
3D80A930
3CC7F4E4
BC1B5870
BCF06324
3CB4DFC8
BCA32FEC
BCE14A78
3D117522
BD3E0495
3C9EC77C
3D3D280C
3D0FA70E
3D51FD38
3D6CC648
BC2F5258
3D306AB6
BCE6E012
3D42A318
3C38E588
3D4E5A74
3D6C5A54
BDA277F1
BD1BC09D
BD790436
3D93E2CA
3D9C7814
3CA9009C
3C825C50
BDA3CC12
BD5B0810
BC9D3002
BCE580B8
BD5A85F6
3CE56018
3D8E72B2
3D2E7E3A
BD79E33F
BD154235
3CF04D7C
BD4FF3D9
3D9CE642
BD9D5603
3DA33CAE
3D39F50C
BCE0713A
BD6BC018
3D608134
BCF37EAE
3D37C098
BD536940
BCE777EA
BCB18410
3D50ED10
BD2936C1
BD4376B7
BC529A50
3C8DE5E8
3D0086D6
3DA1483C
BBD72AA0
BD6F34EF
3C5F3378
BC7B6BA0
3D3A06B4
BCB6F814
3D0B638C
BD7DE0BF
BCFC7912
3CBFE4D4
3D1CA0D4
BD67A074
3D19C600
BD85E1E8
BC938E72
BD90E818
BD9F39CE
3C88B540
BD831B30
3D0EE1B6
BC253FE0
3C903198
3C8271A8
3D7BAF24
BD8001DE
BD73A1E6
3D39A8DC
3BD4B850
3D87FCDE
BBEBABD0
BD9F1795
3B86E690
BCC51388
3CBB9204
3C955E2C
3C851D78
BD362735
3D4EA6CC
3D25041A
BCE1131A
3D417D78
BCDCF9AA
BC3D7668
BD9C0B5A
3D8E0C44
3CA31A6C
BD889A83
BCB71CCA
BD917072
BB9F7530
3CC95D1C
3DA21B54
BD40585A
3AA30B40
3C219868
3D872EEA
3CD4387C
3A25A800
3D103CEA
BB8FA810
3D85D230
3C0A1F28
BCE08128
BD9CA2ED
3D9147E8
BD2DB2BF
3D094F8C
BC901B24
BD0B59C2
BCA1BC5A
3C076D88
BD96C2E1
BCC393D8
3D6F129C
3D1F0344
BD27B8EF
3D41CD6C
3D8085D8
BCA8D520
BCA3A66E
BD48F18E
3D9DA9A6
BD9B60BE
3D4D3B10
BCE7216C
BD04785D
BD79AF55
BD98D80E
BD7400B3
BCB0E206
BC0C1890
BD8300A4
BD78A3EE
3B993980
3D447AA0
BD0A5ECD
3D147452
BD2698A0
3D9D6374
BC5888B0
BD019E94
3D0164DE
BDA1CCDA
3D60698C
BD8613A4
BCEF968A
BD7844EE
3D8AD21E
3D01ABC2
3CE4B0A0
3B226320
3DA17E56
3BBEB9D0
BC9DD05C
3CE1B2D0
3CB23DCC
BD97DBFC
3D85ED78
3D26C8C0
BD9844A2
BD1E352E
BD6815AE
3D8C0FA0
3B2649E0
BD8E4094
BD935885
BCBB7662
3D4B5D48
BD9EB5F5
BD6D944A
BD22C03C
BCE41536
3D410B60
3D971456
3D1E952A
3D230BC2
3CC63DB8
BC134F98
3C32E168
BBED50E0
3BA73920
3CD8C374
3D4C9590
BC81F5F8
3C52B070
BD3A3D1E
BD8EF208
BCF0718C
BC558468
BCEBBBAE
3D223A48
BD20A967
BD568760
BC6730D0
3D2DE676
BD75BBF1
BCB57E88
3D959040
3BF2B3D0
3D2EC2FC
3D8FA098
3C4F1448
3D93F84A
3B8396A0
BD321069
3C919540
BD615992
BD392E90
3D7AA4AC
3D0D5310
BC22BAD8
3BA544F0
BCF61DC4
3B92FDC0
BC8A98D4
3D99BFF8
BC434470
BC76DEC8
BD1E8479
3D89A15E
3C8EC388
BD3D5CAB
BCC43A36
BD1F4254
BC59A398
3C33CFC8
BC8D9EA8
BD3E283F
BD708EBA
BD84FAFF
BD8146E7
3C6F43F0
3D86CFFE
BD8C55AB
BD2F097A
3D3CC034
3CC78EAC
3D45BEDC
BD00E6E1
BCD907F0
BD5EEE98
3D87B204
3D9F16D4
BD399C2B
BD1FCE67
3D582E48
BCEFFF20
3D46FD90
BC3482F0
3D2BFE02
3D2C063A
3B615B60
BD950988
BD414F2D
3C12B928
BACEF540
3D3492EC
3DA0B458
3C1DBD80
BD91963F
3D650024
3C8F1058
3D27F722
3D3706D2
3D44F560
BC5E8D48
BD3C0D29
BD4E53BA
BC863D70
BD8234C8
3CFAC834
3BBC6490
3D221880
3D05095A
BD09FB3A
BD1F6D32
BCBEB8B6
3CEE493C
BD166F31
BD3883E2
BD18D89B
3D92DBEA
BD3443C9
BCB241A8
BCE20780
BC5F1710
3C33AD38
3D64AD40
BD0ED59E
3D5166E8
BD12F8DE
3D1C5A62
BD960C05
BC452110
BD9FBEF7
3CE24CB4
BCEC89F8
BD0D98CE
BD8892B3
BD782F2F
3D7B6190
3D736FCC
BD8D82AE
3D3C8080
3C9017B0
3D922A7C
BC4DD250
3D9DDE0E
3D350F20
3D9E3626
BD636D60
BD9A50EF
BC01B738
BCC9231A
BD9E15EB
BD00E3B6
3BC0D6D0
BD61CD3C
BD9C7665
3CF098F0
BD64BE44
3B94C880
BCE32B90
BDA24A4A
3C32C070
BD874929
3D837CF4
3C85BF94
BCB5459A
3D515598
BD69DE2E
3CCB3304
BBB73A40
3D4F2648
3D9197A2
BD571454
3C2C9DA8
BD0867DD
BD1D1105
BD08D41F
BCCBE3C6
3CECA420
BCF8CA76
BCF0417C
3D85AE3E
3C6C7318
3D0F20DC
3CC2F588
3CE8C334
3D93FC3C
BD31F6DB
3D11501A
3D6E592C
BD9163F8
3C477BE0
BD68307F
BC62B6F8
3C918C58
BCB930D4
3D40D380
BD981B29
3C762370
BDA2A062
BDA09394
3C9D4F94
3D90A234
BD3ED38D
BD2585BD
3D2052D4
BC3CBA58
3D97D532
3D8084C6
BD44A6CA
BCB2C874
BC9C94B8
3D8F2766
BCC63624
3D26C55C
3D76D2C4
3D8BFBAA
BD143DE2
3D1F3DAC
3D68625C
3BFDD800
3A160F80
3D8CC36E
3D9B174E
BC668428
B8DEBC00
BD330C36
BBDE4FD0
3B404BE0
3D35EF06
BD96BC92
BD0C9073
3D8AD08E
BB81FD70
B9D24500
3D960014
3CB75D74
BC8BC1FC
BC87C2E4
3D8C68E4
3D6AA960
3C0140F8
3D26F918
BCA3DCEA
3D578590
BD178B97
3D478FD0
3CE0FAE8
BD4A84E2
BDA1EB69
3D437F58
BD94A0E0
3D70BA38
BD400BB5
BCDEF902
BD83C5CA
BC5922E8
3D9799D2
BD41770E
3D759134
3D88720E
BD8E2F02
BD20D977
BCC069DC
BD00E1E2
3D863652
BD25EEBF
BD74E9CE
BCE83C0C
BD2FE567
BC89572C
BD393DC0
BD9BFCA6
BD0DACCE
BD83DD0E
3C813334
BD9737D8
3D8726E4
BD8377AE
3AD996C0
BCA8C6D8
BC8A00F0
3C227898
BD2E838B
3D5CEBBC
BD2842D2
BBE9B530
BD4AC604
BCEA4DE2
BB889BE0
BD24EE6F
BC520C60
BCAEA8AC
3D69BCF4
3D8BF43E
3C2399C0
BD07136C
BD8BBA1C
BD76A596
BD10FA54
3D3B5280
3D04E8FE
BCA2BA38
BB047BA0
3CAD1A18
BD6C8E28
3C1A6590
3C873470
3C46F218
BD3732C6
BD554367
3D8E0738
BD321174
BD1CE742
3C3C9F48
3D51D66C
BC302158
BCADA8C2
3D2438D2
BC93839E
3D156E42
BC69BAF8
BD8D5570
BD83802C
3D040ADC
3D1F5FE0
3D48E95C
BC2ACAF0
3CBFD4F0
3D758998
BD1C7DBF
BB575E80
3D413840
BD8826C6
BBE0EB90
BD9BFC82
3C9D79C0
3D8547F2
3CE9CCDC
3CBD7184
3D8F8ABA
BD1D8140
BD689382
3D42C504
3C286988
BD9B3F3B
3D1F5CFC
3A9D4A40
BD0EE3CC
BD87EEED
3D1E792E
BD87D967
3CC9A300
39BEFE00
3D3E96A8
3D79A828
3D02280A
3D33287E
3D14163A
BD81DB75
BD5A327E
3D5C2710
BD70429B
3D82611C
3A26CA00
3D6D0F2C
BD0E07C1
3D330B08
3C387D60
BD0A72CC
BC84981C
3D383FB8
BC158340
3C704AB8
BD748D18
BCDA3796
BC148B68
BD0BC464
3D939C4C
BC2FE8B0
3B95B8C0
BC720910
BBA36520
3D4E6394
BD530D00
3CD5ED48
3D9B81A8
3C74C2F0
BD1FF790
3D82C3F8
3CDA092C
3D6273FC
BD848A44
BD95EF4F
3D09A978
BD04B260
3D6AB6C0
BCE2FAFA
3D2CE078
BD8FC993
3D89DB4C
3B90BB90
BBE78520
3D8B9568
BC5DD6E8
BD328488
BD1888CB
BC26C708
BD6CD17F
3D49805C
3C30FC88
3D254B16
BB9DFDB0
3D008A30
BD6E1E94
3D22760A
BD09BA7A
3D419D30
BD19BF20
BB8A8C10
3D4CEFD4
3CBAF2E8

