BDF09108
BE536786
BAF4A566
3CB42B00
BE2C69F5
BCB0C150
3E7D0179
3E20E996
BD86FF2A
3D963650
BC01C6EB
3DB14B6C
3E979A75
3E185C56
3DD72903
BEC8F529
3E6BBC68
BE5836A4
BD43249A
BF189CB7
BE093412
3DAFEE40
3E6B577C
BE44E6E7
3E4F4BBB
BE10A0AE
BEA6223E
BDD33916
BE366FC5
3DE844A4
BF257E6C
3E9B5F89

