3D39EF50
3C962B20
3B0900A0
BD971EE4
BD9C7A04
BCF88CCC
BC926F20
BB9008A0
BD9F854E
BCDF8E3E
BCF70CD4
BDA232EE
3C99AD9C
3DA10002
BD0ACD68
BD810090
BC641200
BD57B136
BD49A7AC
3D01B928
3CA88334
3D5D6B2C
BD136813
BCCB7CA2
3D9D0E90
BCB6CE8E
3D908DE4
BD3CEC7A
BCB7A2FC
BD4BF400
BBEF7160
3D236E68
3D0F26CC
BD31FD4C
BBB9CE00
3D3EB3A4
BD1C72B7
3BEF1040
BD85ABA8
BD27D308
3C357330
3B5DE400
3AC205C0
3D5B0B30
BD46E6FB
3D2A3782
BD83C64F
BD404ADF
3C876E60
BC3C1658
BD1D6875
BD4A544C
BD9F14A3
3D9AAAD4
3D57308C
BD955195
3D872774
3D81E21C
BD4D59DA
BD96DF62
3CF66D28
BD44B9CE
3C8EC5D8
3A883000
BD5BEA49
BD89A8EA
BC3AF110
3D60DC88
3C9FC7B8
3D129272
3D0B2EF8
BD48346C
3D25E1F4
3D00CFDA
3C4DCF40
3C4B9920
BD693E4A
BD82F85B
BD886779
3C8F10C0
BD9310C2
BC16FF10
3D661FD4
BCC51F52
3D46542C
3C2BD280
BD1643ED
BCD1FEB0
BD8A9D9D
3C9D6768
3C5E2090
3D9C782E
3D4D5BD8
3D446240
BB742BC0
BD59EC06
BC864E7C
BBF8BB60
BD09CC3B
3A3D1F00
BD1B29C5
BD91A375
3D911012
BCBA1E40
BC8A2B24
BC556440
3C9FF6F0
BD058139
3D6F2018
BD65F79A
BD5F003A
BDA067E2
BC012AA8
3D839BD4
BC1BFDF0
BD2489AE
3D5D9524
3CB1FA5C
3BDAB8A0
BB086400
3D765680
BDA1126A
BD3877E8
BD7F3C96
BD4CF15E
3998F800
3B9D8AD0
BD546353
3D6EE2B0
3CF6B574
3CDE6CE8
BD28B84E
BD54ECCF
BD99CD28
BD6C06EC
BB4E2160
3D7CBE94
3CD79D8C
BD2CAAA7
BD927F50
BD3E801B
3D2FF602
BCFE3624
3D2BEAC0
3DA2FD62
BD960F40
BAFC3400
3CF28F54
BD8067F0
3C212920
BD718598
BBCCB9F0
BD03DB00
3C537C68
3D780E58
3B8279F0
3D8453F0
BCB4685A
BB722A40
BBC5DDC0
3D6774B8
3CC6C2C0
BDA141A7
BD905942
3BB21DF0
3D2C0BBE
BD313137
BD8398B7
BD6421AA
BD37BFF8
3D95280E
3D8B1674
BCCBC5B0
3B8D6BD0
BC6FE370
BD452BE1
3C18ED90
3D44B350
3CFD4430
BD086EE2
3D151038
BD3ED2D4
BD9DFD15
3D174B04
3D90641A
3A705200
3CA2E2A8
BD3E022D
BD93F866
3D335ED0
3BA93EA0
BD0524D4
BBA205E0
BDA2B351
3C3238A8
BC04F878
BD1A5D78
3D8EE342
BD93D5E8
3B863630
BD37DD89
BD626D1F
3D18449C
3D3C5334
BD338692
BD16FB86
3D788C60
3D1DC750
3CEF7F1C
3D37442A
3C8AA998
BD9483BD
BD58512E
3B050B20
BD0377E9
3D603E48
3D8FAF14
BCA14350
3D5CFF94
3D127A0E
3C83A5D8
BC301510
3CA468F8
BD52C516
3D24496E
3CC35B28
3C2D4998
3C273E68
BC81AC3C
BC8B673C
3C99F710
3D914B9C
BB836B50
3D3379FA
3C5E52B8
3D932EF0
BD4A1479
BD636B78
3D345B8A
BD8BDBDF
BD47B94D
3CD8F7D8
BD0FA9D7
BD2B4208
3CB0BBE0
BD07AC8D
3D8EA6B8
3CFE7654
BC4A9FF8
BD78B4E6
BD51F130
BCDF8FE4
3C021D10
3CA86308
3C2E1C20
BC9E8202
3CAED67C
BD9521AC
BD36697B
3CBDA798
3D4337E0
BCC4AC96
BD82B376
3CAC6A64
BC92863C
BC2CA770
BC8EC3B0
BC8D01CC
BC96C4E8
3D8FDC02
3D701C18
3D629BFC
BD50391C
BD646222
BD56F58F
3C844750
3D909E04
3D960608
BB99C2D0
BC8B199C
3D92BB70
BD96B050
BD94DE63
3D154858
3D7B4490
BD772D9C
3D236E68
3BB99150
BCC4AFCC
3D17D46C
BD4F1A21
3D1920CC
3D4A7B78
3D7488F4
BD583130
BD3B7498
3D1906D8
BD2CCF9A
3D12A818
BD90DD7C
3D2F579A
3D3943B8
BCEFBF76
3D4B7CF0
BD8D040D
3D410A48
3D7F4084
BD79E866
BA094F00
3D430498
BCBAD8CC
BA23F900
3D9D48D6
3DA1E414
3D262410
3D7234E0
3CF1797C
3D528300
BD795976
BD3C5EEC
BDA18D49
3D896E96
BCD116D8
BD85168C
3CD21294
BD9831F8
3D366008
3C79B8D8
BD9F24B9
BD8C95F0
3D963788
3D484FC4
BD9B7042
BD5DB5CC
BD51983E
BCDF8B28
BC9D4EAA
3D2D5F16
3D2F2872
BD8EC741
BD6ADDE8
3C64CE68
3BC96910
BC9F179A
BDA09024
BC083D40
3D5AE20C
39E2F700
3DA3522C
3D82051C
BD7CF0AE
BD1D665A
BD78901C
BB034260
3CF449C0
3CBA4CB4
BCFCC19A
BD1990F8
BD4A4A02
3D23DBCE
BD49CAD1
BDA04D6C
BD79E056
3D712CC0
BD39164B
3CD40290
3D06F9E8
3CEFEF98
3C755138
BD4797F6
BB823050
BD758998
BD904654
BD63D50A
3D881BC8
3CC28520
3D761720
BD919434
BD751224
3DA01F8A
3CE5FD70
BD9E490C
BD9DB4BE
3D779798
BD37A491
3D23FAA4
BA9DD380
BCC2BA52
3D8FDA62
BDA01475
BD191D7D
3D9F1944
BD9D7D2E
BD360ABE
3B6A99C0
BC952CF2
3D97A5F8
3D0CE96E
BC388BC0
3D222130
3BFFFD00
3D3CAE9C
3D62DA90
3D83441C
3D8FEE78
BD71E4B2
3C5AA480
BCA8DA2E
BD9456B5
BCA86A04
BD1A7DB4
BCD1571C
BD9E7B62
BD9B75B6
BC8CCAB8
3D895DD8
BD396654
3C82EA0C
3C53DBE0
3CFA1010
3D874CE0
3D55DD74
3D86B436
3C8F0448
BD6D88F0
3D136630
3D020B28
BC65FF60
3D1FD69A
BCE1F54A
BCD04FE6
BB1D30C0
3D9C3638
BC8FBA40
BD89A991
BB23A9C0
BC578F10
BC9B0E54
BD203625
BD3C4477
3D32C3FA
3CC38C04
BC557168
BC68F238
BD41C241
BCE1387E
3D16C736
BCFB50A4
3D9A18BA
3D957F56
3D18EBF2
3D78BC6C
3AA10340
3D3C3624
BC802B30
3DA3E144
3C9ADC30
3D47702C
3D495AC8
BC610910
3D3E4FD8
BC121138
3D81CFA4
3D80B0A2
3CD94310
BC9CFC10
3D3D0498
3B745BA0
3B4A5C60
BD1F94AC
3CD68A94
BD65DBF6
BD8F7B3E
BD9E9B16
3B92BE60
3D9790C6
3CB82794
3D82F970
3AD27380
BCCBCA76
3D9CB9A2
BD84B990
BD3180CA
BCECE55A
3BC4C590
BA8B14C0
3D9A455C
3D5200E8
3BBC0700
3D981942
BD91C9CC
3D71A534
3D3A13B4
3C6CA110
3BD63CD0
BD4622B5
BD8BD732
BBE24D40
3D22C4FE
BD80C5EC
BD4ACF7C
3D6B18A8
3D6A2A78
3D582DA4
3D8E6948
BD8F0C78
3CD91B50
BDA1EC43
BC75A680
BB8650E0
3B2CA320
3C6ED198
BD40E7EF
BD93B595
3C94B8B8
BCB0A8E6
BD61D63D
BD9D2D9D
BD9C588A
3D42CDD8
BCA1761A
3C86C7A4
3C330D88
BD0B83B3
3A7FD280
BD0FCA37
BBD463C0
BDA1EC22
3D71F6E4
3A8919C0
3C1569A8
BD05BCD1
BC2BFEC8
BD151E1A
3CD58E68
3D84FB68
BD95F82F
BC48C560
BD9A62ED
3BC589D0
BD8DDFD1
BD03DED0
3D1F980A
3D461AD4
3C8A9F4C
3C358590
3CEB469C
3D75A584
BD8F484B
BC9105B4
3D987660
3D031EDA
3D2CE64A
3D9C0EE0
3D06BD12
BC613508
3CD48580
3D10F3C0
3D9FE4CE
BC485170
BD969088
BD270B77
3D37599C
3D3D4008
3D9524DA
BC995AC4
3D4062E8
3CC9D75C
BD8664B6
BD77E2BE
BD197C73
3D9519F8
BD520490
3D322E24
BC855700
BD8C3A49
3D559D44
BC886354
BD8674B2
BC9DAD1A
BD56D658
3C0A5350
BD8AA357
BD1AA9EF
BD2F1065
3D7B1654
BCD8D93E
BD33EB20
3C124E80
BD385769
3D510624
3CEF5B74
BD664FA0
3CA2A6B0
3DA2ED44
3D635C8C
3D1247FE
3C8B8D6C
3D5111A4
3D3F2310
BD15F12A
BD7E4068
3D5DA5AC
BCF79042
3D9CC8FE
BD047C1D
BD50E010
3CB42BA8
BD95C7B1
BD8534C4
3CAE5B90
BD9FBCF3
3BB12FD0
3B91A1B0
BD4AF335
BCB81CF0
BC487B18
3D98F68C
BBC7F5C0
3D459874
BD772BAE
3D854636
3AF5C1C0
BBFA9DC0
3D34A190
BC88E2B4
3CF31098
BD51495A
3D7C5480
3C621040
BB2093A0
BC6F4B00
BD9526DC
3C88F06C
BC9E9744
3CC4BB50
3B3989E0
BD2B7CFC
3D1C1DE8
3C94CD64
BD86F994
3D8794B2
3C3BC6C0
3C888FC8
BD763E16
3D6C9BAC
BC91F284
BD735C8A
3D89D9B0
BD187518
3D9FD8DC
BD89537C
3C047320
3D3A135C
3D62C940
3D8373C0
3D8B848E
BD0362FD
3CD298F0
BD9B2F44
3D81BA10
3CB907FC
BD8F704B
BD0B234C
BCD90E8E
3D8332F2
3D9986C4
BD5E38DC
3D52CC54
3BA03A70
3D87B564
BD47C509
BC6E7AF0
3CB0582C
3D08D13C
3D52FD28
BC0B92B8
3D81B9BE
BC286DB8
BCDC3A58
BD911C6E
BD36C0C2
3CD7ED98
3C310560
3D26A37A
3D410B08
3D13DED8
3D9BBC6C
BD04B88D
3C84D248
BCA87132
BD4717F2
3C1D1A00
3D8194D2
BCEDC982
3D8C65C6
3C9D3A0C
BD753F56
3D09E9D6
BD8D5DD8
3D3040B6
3D748B54
BD929062
BB95DE20
BD30CC94
3CEAAAA4
BD06386B
BCD6442E
BD45F609
BBE5FC00
3BC11DE0
3C8D9954
3C0A4060
BD463EEE
3CB16EEC
3C4D7008
3BEE4F90
BD755A84
BD817C8A
3DA19980
3D23FDE8
3C8B8904
3D307A3C
BD869A99
BD85AD0A
3D2BC0DE
3D5B18A8
3C39E810
3C947794
3C8184E4
3D9CF288
3D58906C
BD69ACE0
3D55EE6C
BD6AA5A0
BBEDB460
3CDFCFB8
BD807612
BD47576A
3CAC2BCC
BD6B1F76
BD069316
3D8BE4C6
3D66FE74
3C49C1B8
BD94C0F3
BDA1CCE9
3D3F6EF4
3C582DD8
3C51DA20
BD88DE76
3DA2CDFC
BCBE1B0C
BDA183C4
BD7B025A
BD3DBFB8
BD9111D9
3D299EC8
3C07F308
3D8F5FE2
BCAE3354
BD4851CA
BBAC6980
3C92E5E8
BD4C4B99
BBC643D0
B9F1C300
3D8082F4
3C54DA78
BD1F8361
BD9CF688
3C1AF0D8
BCB177AA
3A64C980
BD9AE9E2
BB8A3CC0
BD9A7D12
BD9AF565
BB72F040
3D1A8A48
BC89C794
BD0F89BA
BCF0530E
3D0AFC9A
BD7EE0CC
3D35E7DC
3D285A68
3CB5428C
3D1A7686
BD3A5EB8
BCBB6100
3B276AC0
3D82AB56
3D141C6C
BD41D728
3B5C5D60
3D4943B4
BD359B7A
BC12E7C0
BC2C2870
3D84D7D0
3D3EE984
3DA449D0
BC13ECC0
3CF23F04
3CE6833C
3C90440C
3D3EE9F8
3B0D7080
BC4B9B30
3D71B22C
3B6B4940
3C209E50
3D0F0912
3D87388A
3C9687A4
BD8DD546
BD26A399
3D2D4300
BD914E82
BD58B6E0
BD9C2278
BD8C57F9
3B8B88C0
3DA33A10
BD4358B0
3D803BA6
3958C200
3C810550
3CE1B870
3D597758
BBFFA440
BD958FA0
3D968ADA
3CF77780
3C838A5C
BD2BBA2A
3D85D02A
3D73019C
3D31FBF8
3C68D998
3D4CD0C4
BDA0A7B8
3D8D1B3A
3CC54698
BD974DD6
3D9F7582
3DA36EE0
3C7D6C08
BD909EC3
3D7D8B40
BC4A2BA0
3B828530
BC6A1550
BC0A7500
3CCB6364
BCAA108A
3D9E486A
3C6C7958
3D13AFF2
BD88887D
3C98D288
3A789D80
BD81F3C8
BD898B54
BD5E2F26
BD990701
3B12B080
BD60F7A5
3D109FD2
3D19CC10
3D393EF4
BC27D128
B7E4D000
3D3B9868
BD9B0DEB
BD8F6899
BD7ABD68
BD922664
3CA0DFC0
3D82E38C
BD7B074E
3D7DBCFC
BCD98092
BD9B3EA1
3D04FF38
BD17F2D5
BD3341CF
3C016F58
BD6C259C
3A286F80
3D937896
BD8E7F6C
BD6E982C
3D0538F8
3D57A99C
BD555E95
3D324558
BC4D6088
BC40A6A8

