BC2EB775
3D436B63
BC6447F8
BDA79EC4
3D51DBD3
BD5050F9
BD51179D
3CC877DC
BD9DA745
BD03F015
BD58335B
3CDC6FA4
BCF99CC9
BCF43D24
BD79D7BC
BD8B820F
BD0F8304
3C8A16DF
BD4A2C72
3D47BEBB
3D4947AE
BD72372B
BC7F5FA3
BD92CCC4
3CE6DEAF
3D10D04A
BC2E57F4
BD1BE786
BD80BBB1
3D921D57
3D8F8D25
BDA74B88
3CE179F5
BDAE9FA0
BD3DC5D6
BBC268C4
BDA76E92
BDA0AE4F
BCDE58E5
3D2CCD25
BD54D456
BC849BDE
3C9D04E7
3D3757B1
BCA9C31A
3D8DBD1D
BCE4C38A
BD951091
BCAECF8E
3CA5B1F3
BBEDC826
BD87EFD9
BD40BEB2
BD8A30DF
BDAC36F8
BC0AA30F
BDB07312
BBB4B962
3D7C6229
3D29521A
BD46B737
BD65DCCF
BA50885B
BBB3284C
BD1617A0
3C0E5F46
BDAC8CEE
3D01C521
BCBAAAF1
BDA52C44
BD42E57C
BDAD4989
BC545EBE
BC396A5C
3BC254CC
BC8BD25A
3C3C6151
BD23723C
3D673523
3D8CF44E
3D90BBEA
3BFC9812
BD12311F
BC7EA902
3C0C03E3
BD822001
BD8C865B
3D87AD7C
BC293159
3D55195F
3D0765E3
BB67B42D
3D81E652
BC9B1C1A
3CE05C03
3CEC6AAE
3CB6A07E
3D388B06
3D2765C9
BD8BE776
3CCD5AF4
BCDE7E51
3C9B32BE
BD18041C
BD2ECF67
3D957A60
3CDAA826
BD26F425
BC6A8A1D
3C951F41
3C6E5DB1
BCBB77E1
3D510EAF
3D5FCE67
BBC3AB82
3C1371C7
BD0BECC6
BCA83FFC
3D948BBF
3B8FBC93
BD4BFC69
BC322CD7
BD56EBCF
3D02859A
3CA69568
BD8E27F9
BD090B56
BD38E4FD
BCAE9118
BD6F5123
3D32E9C0
BCAB9291
3D91CF78
3D8778D4
3CAC77FC
BD7D6BB4
BD8390EF
BD9DC3F2
BC50D617
BD064481
BD2E9AD4
3D3CD4E7
3D3E76C4
BC051668
BD7BF3BC
3C22ECBA
3B4313DE
3C0CCA28
BD5527C9
3CB010CB
BDA3420D
3C8078BB
BD2EC511
3C8B66F6
BD53FA3E
BDACCC1F
3D7FE4E0
BDA96847
3D56D20C
BD844894
3D25F7AC
BD9B525B
BC8314F7
3D2FF063
BBCB8B8D
BD884BC2
BD614BAF
BC356800
BB8506A3
3B0EF3E2
BCE5C33B
3CBC608D
3D838FE4
3D837D05
BD81107E
3D525682
BC8DD6A1
BD9A93F9
BD974300
BD9A67F0
3D65CD8B
BCB25E6A
BC67B8C4
3C5E4477
BD866317
BD712A0D
BDA27281
BD4F25A6
3C25085F
3BE3E5FD
BD8E4C03
BD7150B2
3C89AFC5
3A0C3CB6
BD5EBDB1
3D07954B
BCEC9959
BD0060A4
BCDB481A
3D83F893
3D39B456
BD5B10EB
3BB59A73
3D195D00
BD177C34
BD140FDA
BD573440
BCE2E70E
BD95CD27
BD8DDA9C
BC67EFD5
3BBCA7B0
BD7CF1CF
3D89FDF0
BD83BE08
BD4866BF
BC628E9C
3CBF78D9
BD51F015
3D0FFB4D
3D808BD8
3D080049
BDAE3556
BD0C5AB8
3D6598B8
BD8C37DE
3D7539B7
BD4A8028
BD3240E1
BCF782BA
BD10BBA3
BD84470A
3D0E94D9
BB811A7A
3D63BF7F
BC5853F7
BD494AA8
BDA3F420
3D552A09
BD487244
3D94962B
BD583B14
BD5E9702
BD95223C
3CE6A449
3CE69564
3C127E2A
3D2F0776
BDAD361F
3D4BC7BB
BC367B06
BD302313
BD713810
BD8047E8
3D3A93F1
3BE4259E
BCCF08D1
3D895E62
BD5C8E54
3D2F036F
BD3DB7C1
BD512B3E
3D0FD640
3D94BD38
BCCDF31C
BD7C0927
3C8ACBA5
BD95DAF1
BC256389
3D960B58
3C6B6F2F
3D3E6E12
3C5B4B7E
3BBF9637
3B47A418
BD40075C
BD155092
BCB95DE6
BD420A93
BD1CAE83
BD9A4295
BCAFBE31
3D7FED71
3B8272BC
3D27BD5B
BD46155B
BCA36093
3D6BAE3A
BCC3ECC5
BB9D92C9
BD4FE3B2
BD8C078B
BD820181
BD5A2941
BC1DEDDB
3D6F2FE0
3D28AB2F
BC2139D6
BCAFE600
3D8B4DF7
3C351733
BD8193A0
BD0E3413
BCA1303F
BD6D45A6
3C0AFB38
3C94F201
BCFED824
3D96EDCA
3A0E0103
BD045D61
BD0B55A1
3D23E990
BD4817F0
3D698974
BC9A6993
BD16CD97
BD9B769E
3D447B19
BD296840
3D77D3BD
3CB17FDB
BC94EAE8
BBDEF3F8
3CC77B16
3D9642D8
BCA2475E
BC961CD6
BD39C6BA
B97BEC99
3D4319EF
3D923313
BD90315D
BC992A9F
BC2CF8A5
3C27E1C7
3D87B95C
3B7AA87D
BC2997E9
3CBB879D
3D316CB9
BD83909F
3D8B401D
BCDFFD21
3D13A541
3D0F19DC
3CE09C1E
3D96682C
BBCA98BF
3D74D511
3D51FDA7
BAF0F0C9
3D918094
BD86CA14
3D87DDF5
3D4C14BD
3D8A1D70
BC1BA434
BD90863B
BCD6E851
3C31B1E0
3D48B164
BD6CF819
BD6CCF42
3C8C030C
3D6786DA
BCF2F6C1
3CD90619
3BACAEE8
BD7D38E6
BC07AA62
3D6543A8
BCA20917
BDA221F3
BD0F8AF8
3CB3083B
3D4A2283
BCCCAE61
3CC1EB2D
3D5B3538
BD034439
3CA8FA1E
3C87F2A1
BDA6BDE2
BDA004E2
BD0B278B
3BC3730E
BD9BDF72
3CC3AEF3
3D809B21
3CD9CF1F
3D3F4738
BC404B82
BADE6196
3D062672
BD0A3820
BDA7FE95
3D873DCD
BD8436A9
3B86BA16
BBAC0C41
BDA626C1
BDA9E687
BD02AB15
BD1B88C0
BB1B2014
3CDB324B
BD1DF413
3CFFC7DE
3CB7AB2F
3B2C8265
3D5666A4
3D16A72A
BD9CCEC8
BD94585A
BCB2E469
3D48D26C
3C367D81
BB6FA179
3D179D19
3D35E3DC
3D22D4D2
BD501F47
BDA7FDE0
BD28461D
3D27F85D
BD2FA31F
3D41DEB8
3D815CD6
BDA439DD
BD856826
BD50839C
BCE34B9E
BD065465
BD06E55E
3CC21986
3D93CB76
3D0E35ED
BD0CE779
3B2FE75D
BD898857
BD5B8CF1
BC5A668E
BC3FF3D5
3D391459
3CE65D5A
3D8C644A
3BE494A9
3D490526
3C3BCE93
BCCE6AF8
3D8D2C8D
3D81B06D
BDACB341
3C6A2F79
3D192A4D
BD8B18B0
3D820107
3D854F40
BA961A86
BD47FD49
BD05B97E
BC7CC6DB
BCF121CC
BC6682F6
BC27C7FF
3CA2A5B0
3D140E19
3D86982D
BD74D60F
BD43EDB6
3D8F4320
BB163813
3D6E26B2
3D4516E5
3CEB4C4C
3D818EF8
3C4C3058
3D67BFAA
BD03542C
3C7E9A81
BD6798C9
3C0380BC
BC9AB661
BD85AF81
BCB7A8CD
3C90A1B1
3C5A8E08
BD23D0AC
3D87DF5A
BD8A93FC
3CFD615F
BDAB0306
BC58A4F5
BD1518DD
BD21C15F
BD0F3BF0
3A4198B0
3C1E006E
3C9F79DE
BC978439
3BE8B740
BD2021A4
BD98BF0C
3D8D3284
3D8BAE3E
3D50CD72
BBC08F10
3C89EA44
BD69D78A
3C4C9F5F
BD8CF135
BDAC5608
BD876D30
3D5538B3
BD6FFFAF
BD921B32
BCEC221F
3D3B7F09
BD5EBB06
BD20E429
3BB4A7F2
BC98A191
BD1C420A
BD1817C1
3D39C01D
3D8520F6
BD51A018
3D910A2A
3D8FE9E7
3D83C198
3D65B583
BBD11FED
BBAA9876
3D2BBD8E
BCCABA23
3D083C5D
3D09FC86
BBC7640F
BCD26AAF
BC9A7DB3
BC1CD971
3CE67D9B
3D7BA577
BD9AA962
3D68DDEF
BCBEAAA6
3D0B72EC
BCC0B8ED
BD14DD40
BD9A170D
3C9C3FBD
BD8DCDF9
BD5E1FA8
3D7BD729
BBCDD794
BD425B4A
BD9FE9A6
BCA80C67
BCEC7408
BD1404A0
3D8BBF28
3D0F149C
3D8FFFEA
BC2D1EC5
3D176A80
3CE33238
3D6DAFE1
BCCE4450
3C576791
BD7AD59B
3B87BA72
3CB3550E
3C8B4948
BCFCA587
BD9BE05F
BBCAA2F6
3D14BFDC
3D5AC0B8
3D2C9A5F
BDA2985D
3CE1A00D
BD877B5E
BC3A7DA7
3D30A349
BD09A23A
BD0961FC
3D4CA7A6
BD537209
3BF5CDB0
BCD93317
BDAC2234
BD522D95
BD977098
BD177737
BD930879
BD92910E
BC6D4459
3D5C9DBB
BCEB272D
3D8EE027
BCBD75D5
BD96A07F
BD5C1196
3CED6E85
BCAEEDD2
3CE5AF87
BCCB43AC
BD45E60A
3CD5CEAD
3D5E2EB1
3B1D9881
BCB23D13
BBE95E4E
BD99AF49
3D8B0F46
BC0D43FB
3D191A7F
BD0D68FA
3D68DC20
BD645EFC
BCF0F397
3CEA3BD1
3D90A423
BDAA96D7
3D2179C1
3CEF8A37
BD0DEC8A
BD866E24
3BE3E4EC
BB651C64
3D86AC6E
BCC9C089
BD79367D
3D8B894B
3C612C75
3D659E2E
3D59BB24
3B7C4932
BD6EB36E
3CA2E254
3C3EB4CA
BD335AC3
3BE7E411
BC47C120
3C86B09A
BC68FAD8
BC4F42C9
BDA1435F
3C9C0318
3CF175E2
3C159233
3C08ED68
3C9355B4
BD752ED5
BD6F5E19
BCD24310
3B0171B2
3C8214CD
3C326079
3D389FA1
3D8A27BA
3C8B27FE
3C9320C5
BC1FD3B3
BC860474
3D8C0F50
3D7F76D4
BD95FD81
BCA07E5D
3D5DB91D
3D1E6806
3D1EB4AF
BD9D2D6C
3D62A691
BD0A6ABD
BD4BDA25
BD43FBE9
BBD74206
3D72EFD1
3D0A5322
3D60E089
BC081F26
3D7C25CA
BAD1FB30
BD84C3D4
3AA59069
3BA71E5E
3C413A73
BDAE5E39
3D84F2FB
BB48036A
3B41CC0C
BD9999A1
BD73C2FA
BD976E19
3B78942E
BAD607E9
3C99F4A8
3B095B06
3D6E5E2C
3C21929E
3BCC516C
3C00F43C
3C9CBB16
3D84E51C
3B799A15
BBD70D5D
BCFDDB5D
BD0FC95C
BCD74583
BD47FFB7
3C69CF2E
BCA8A68C
3B9B0B33
3D8B990D
BD891B14
BD00AE6C
3D82FDC5
3D626730
BD3A21C0
3BB8A27F
BC7A75B9
3D76F631
3CBF9754
3D7244D8
3C762DFB
BDA48E8A
BD828AC1
BD20D2A1
3D759DF0
BD3E1FDE
3D10CBD6
BC1274E8
BD3BBD78
BD0FF73A
BDAE04C5
B98E95E5
BD0650CE
3C331BD4
BA882F27
3C8FC1BA
BD237A14
3D49F3E0
BD1A10E9
BC8F217E
BC3D1081
BCAEE879
BD229369
BC44DDF5
3C494E1D
3D1756B3
3D197F6B
3BC6B4D5
3C9A4D2D
BD8F9CE1
3D716F0A
BC95E570
3D2BCED9
BC1D05FD
BC49A610
3CDCB328
3C6EA953
BD44ACBA
BB0263E8
BC371963
BD993A2A
BD1C643A
BD57FAE5
39216C37
BD4DF397
BD62D55C
BDA1A81E
BD4449D2
BD8045FF
3D6B4A55
3C837930
3C7A9473
BCE7718D
3C4D081E
BD5A3AE3
3C6B062E
BD937F1F
BD2ECF20
BCD36735
3A027945
BD7C99D5
BC62F70E
3D564070
BC3F85B1
BD47A3A9
BC872C03
3D86EED7
3CD44557
BD23E1BC
BD407661
BD933311
BB9F199A
3C3BA7ED
BD792774
3D33E26D
BDA47A4C
3C7E1185
3CAA07AD
3D0D68DE
3D5ABCCC
BA6FE00B
BD174ED1
3D31BB97
3D082A06
BDA244FD
BB6002BA
3D400031
BD9FBB16
BD22E8D5
BD2567BB
BCEBBDA2
BD39D8C2
BD6428D3
3B836677
BDAD4E09
3D6D7D12
BC9D47E6
BD95B687
BC999E9A
B9692077
BC3AFA92
BD9B32B8
3BC02975
3BD2BAB0
BC88003A
3D7CEBF1
3CA0ADCC
398EF036
BCB20786
BB337BD4
BD8CD48D
BBD79FB9
3D9679E8
3D3562B6
3D91A7A6
3CE730BA
BC5E9239
3A15D873
BC9E091D
3D7AB723
BD6452CA
BC86C87D
3D963773
3CC94055
3CCC4E6B
BD1674FA
3D65EB73
BCD3E785
3D0EAA12
3D304008
3D36471D
BD55B860
BD42E45E
BBEF0067
BD8DA8C6
3C1C4CEB
3D3B07BB
3D7CBB6B
BD7E5A34
BD6962D5
3D7A6A42
BAFD1DE0
BC6002FB
3D8A5993
3CABF820
BD2FD283
BD875BE7
3D54AC03
3D004094
3C3D197B
3D8FEB84
3CAE29ED
BCDB2553
BDA1A892
BD33ACC5
BDA50E00
BC8C6D5B
BD1236B5
3D29F791
BD2A8028
BD7ABF49
3CA2F505
BD049726
3CCC8B1C
3C954B8B
3D7F2B48
3D2A55F7
BDAF6D96
3D8129FA
3BCF0414
3D44B753
BC96257E
BD1B41DE
BC7080F3

