3E405794
3E04FB3D
3E23FD57
3E18DCBC
3D59D86D
3E10A605
3E13C71C
3DE627B7
3E193D69
3E050363
BC48AD24
3DD2EB6A
3DB6F9AA
BD8078EB
BCD027D8
3DA60236
BC910A73
BD0EBFB6
3C316B15
3D9F2D64
3DB05F96
3D5AFC95
3D05D901
3DE8ACBD
3DB8A219
3D593B58
3C8DC6C1
3D73FC2E
BC958B20
BC0085C6
3DC09003
3B133DFA
3D82CF3F
BB85FFDB
BD23E9F9
3D1BC993
3D446324
3CF122AD
BB8EE578
BC238D56
BD7E1BF7
3C1EED2F
3DA8D5D9
3D9A7B7E
3DDE9202
3DDC9C51
3DB7F86D
3D853F91
3D9B6BA2
3DC39539
3DC40A22
3D5F120B
BD303D92
3DB68018
BC86ABAB
3D8D34E4
BC460C24
BD8CB61A
BD2A18BB
3D6391A7
3E71CE52
3E1434B1
3DFD9E5E
3E45DD86
3E0F4287
3D0CD71C
3E119F82
3E13ED30
3D9962CB
3E3E4F09
3D8E8094
3D9C6836
3DA5B85E
BD384442
3CE7B892
BCE50039
BDBCED8D
3D6ECA06
3D769E08
3C3A4DB0
BC9C8A99
3DB44A02
3D4E9609
3D44B565
BCBFAE9F
BD92C14B
3CA0FF84
3D9C4987
BC54CF48
3DB5AE12
BCE9ACFD
BD9F51BD
BD8E9005
BCFF2B04
BDA47CEA
BD52C2CE
3D8AF399
BBCFDA8B
3DD2F4A3
3D63275C
3D8B5C17
3D1F4094
3BFA7335
3D652CE3
3D59122C
3BF46102
3CBDE3E1
3D48F979
BD3C82A3
3D664667
3DA9ECB8
BD90097F
3D4E862B
3DBAE1A1
3D98AAD3
3C410D19
3DD2BB69
BD732B6E
3D6FCDE6
BD078886
3E112BB8
3DF00819
3E3EF085
3DBA80CC
3D40B971
3D6FF8B4
3E3A6CD5
3E05A204
3E019F1B
3E1EFC4C
BC032CB0
3D61555B
3D4AD3CA
BD50DA02
3C8DDC12
3DA21FB2
BCBABF3C
BD0FB56B
BD388457
BD833063
3B65B4D5
3C9F7F12
3D17E1D0
BD077462
3DACBDF0
BD62D60F
BD25AE61
3BCECEFF
3D683E7A
BCEAE6EF
3D526521
BD9F7655
3DB5E56C
BC1564CF
BD901FB4
3D48DD9F
BDB64927
3D25F796
3D92CAED
BD39E67D
BDB92FF2
3D3B0C61
BD373ACB
BCE7723F
B9F580B2
3D4D18C0
BD5BBF28
3C9CD172
BD35B69E
3C226C79
3D59FB91
3CA24CF8
3D653CCE
3DAA1E49
BB058A44
BD815C03
3DC6A708
BD927C08
BC9B51A1
3DA6FEAF
3E04B3BA
3E2A3180
3DEE5E55
3E526569
3E157D88
3DBF4636
3E1E79F1
3C96A2E7
3C4EA0D5
3D2180AD
BD0B57BA
3DC22617
BC1D70F8
3CAE9A87
BA6388E5
BD917645
BC63480B
BB87444D
3D802572
3D58BFE8
3C29C7C3
BBFE0199
BD8282A4
BC83B4CB
BD406CC8
3BCC384C
BD724353
BDAC3924
BD2B6E2C
BDEC5229
BD2655AA
BDE346CA
BD236E50
3D618367
BD43DA90
3AC4D5F9
3A636C41
BDA2010A
BD865BC2
BDC83CE4
3CC5EE27
BDBD1269
3C147D0D
3C90EFD3
BDBFF033
BD761D5C
BD66D936
3D94257E
BC0B7E5D
BD940360
3B15AFF2
BD894F8B
BD395464
3D0E341F
BDAB0A03
BD1DBBD8
BD271D29
BAA1F8D0
BD87D1E0
3D1FEE2C
3E2A54E6
3DE76CB8
3E0D5442
3D1004C9
3C55E397
BC0D30A6
3C6C5CB9
3B49FA1F
BD16E3EC
3DD71570
3C054E2C
3DA87884
BD29A49C
BBC8A9D6
3CE00383
BCB64C87
3C4F23F5
BD86D846
BD830333
BD4AA6B2
BD9EBA8B
3CA3EAB5
BD340DEB
BD7B92D0
BD4653F0
BD83D18E
BD34F5BB
BCAAD08B
BCFBD405
BCEABB11
BD804372
BD317D48
BE1D18E2
BE03B03F
3C42C20E
BD8C1B4B
BD4EB117
BD8B12BD
BDB79AE6
BD0C0D93
BD887AB4
3C655F79
BD9D2123
BDBCC144
BDB2D412
BDB7191C
BDBD4470
BBFB87B9
BD2E9D3B
BD87725D
3D427737
BDCD0B70
BDD6DB5B
3D6ACEB9
3BE3629F
BD0BC218
BD182C7F
BAA2BA2E
3C00C062
3CD18E4E
3DF4D20D
3DA0EF3F
3DAC4305
3CF7A048
3D5A3320
3D72FE83
BD4E97FF
3D593B52
3D8A90AD
3C130382
BC5E6313
BDA19D81
BBEE3AF4
3CADAB5D
BD4529B1
BD95CC03
BC039D1C
BDEAA450
BD4DBA85
3CB6F8F6
3D2A953E
BD4D4EE6
BCD4A208
BD3913FC
BD5CECA1
3D782835
BD22183B
3B711560
BD17E80C
BD232A4F
BCF3FDB2
BD1AFDA8
BD59BAFF
BD109271
BD1EE357
BD5E94F7
3C5EB2AA
BDC34365
BDB3F1A8
BCFFB4F7
BD85BE5C
BDC9513C
BE2EB6F0
BD0388C3
BE3A80D1
BE245E78
BD31EA80
BE13CC5A
BE235199
BCA595E3
BD1393B5
BD87FC88
BE00642A
BD14A7A9
BE014469
BE05396D
3B8AD99D
BE2E5B58
BD990B26
3D00A0DA
3DF8F0AC
3DCAFEB6
3D5BBF84
3C8E1E0F
3DC948BF
BCB04B0B
3CC24604
BC7FADAF
BD3D5C0E
BD27D80D
BD6D00E3
BCF346CB
BE06A857
BDFE0246
3CF304CE
BD330A0A
BD72D8AD
BDE8B8E8
BD574636
BD2DDF2F
BA858DB9
BD7CF813
BDFDB1A8
3B9A4144
BDA5E489
BD3B529C
BD56F21C
BDB427C2
3C585E81
BC983E25
BDEB45DD
BCB15F7A
3C6CD337
BDA2F90A
BD1CB127
3ACC7689
BD182406
BCF0D50F
BE1F1B14
BDA0D425
BE070610
BE04E255
BD6E52D7
BDE24954
BD9CDAFC
BD82D8DE
BDEB7819
BCC590C2
BD206190
BDD3E0C1
BD0D6572
BE1041A5
BDC4E67C
3BA3DCF1
BD950916
BCADB63A
BBF0BA0D
BE2D1CAA
BD05B4D8
BDAA90F1
3DDDBD91
BD931D7D
3D420317
3DA4EBBC
B919D4BF
BC636FFB
BD54C270
BD0253F4
BD6B560D
BDD9455A
BBD91011
3B901B1A
BCCE1906
BC863F84
BDB30D93
BD19225C
BD97D3A1
BD99EA3C
BD7FB737
BDD8ED3D
BDBCF153
BE229EB2
BD433634
BC71309D
BDD68378
BC6EA7F3
BE003ED4
BE1468C5
3D8934C5
BD915C3D
BD8E058F
BD04E0E8
BDA31D83
BDB4748B
BDD6FAA9
BE0172E8
BE40B951
BDB89E7F
BE089A6B
BDD08055
BD64960B
BDE8BA0A
BD7A9323
BDBA5542
BE0372E4
BE534408
BDA0D749
BE0D5C80
BDE2F4C5
BE2630DE
BDFDA1EF
BDFA7864
BD7A0D01
BDCB62BB
BE5BC2CF
BE0BC893
BDC598DA
BE136203
BD84E6C0
BDFBCFF8
3DDE3233
3DACB560
3D8108D2
BD287C71
3CC24412
3D1072ED
3D82441D
3D1CAAFD
3BB6A952
3BF45C84
BD206158
3D9D5DF3
BC975236
BD7A9E8C
BD0D6256
BE09EA1D
BD411D26
3C81A51D
BDE42FA6
BD8EAAF5
BDB7F90B
BE067B8C
BDC7BFBC
BD1FBFEC
BB5DB5EC
3DCAEB74
3D27D805
BC8F0463
BD365FF9
BD98BE8E
BD804FB7
3C82BC60
BD935EEA
BDCD1F9D
BD2B5456
BCD0FCFD
BBF58358
BDB57210
3CAB43FA
BDEA1C4E
BD7A44DD
BCB8575D
BD51C4DB
BCF9E08D
BD099D50
BCC82FDE
3C765810
BD0FA141
BDE4F03B
BCC075A2
3C53E986
BD22769A
BD3ACDF4
BCC05E2E
BD195D6C
BCC06E31
BD926D85
BDD7B615
BD9DA49C
BC561440
3D5D89CE
3D9EC499
3DBCEA7C
3E328449
3D906867
3CC0022E
3E0ABDCD
3E189245
39C0D17C
3D1C2984
3D6AD54D
BC2FF00E
3DDB99B6
3DE313F6
3CEEBDEB
3DBD6A04
3E07F18B
3DAD6009
BCC5E3AE
3D22A3CD
BC91016D
BDB306EF
3E047647
3DA72EF2
BD5A9374
3CBAAF43
3B2D53DD
3BAEE1DA
3DC78B3F
3D85B5A4
3D03C607
3C69608D
3D27FEF3
BCAB83E6
BB969A68
3D1A299B
3D85CA2B
3C844C24
3BE63A80
3C0C358D
3DB17F65
BCE47783
BCB5F21E
3D0AA459
BB9425AA
3DC3C148
3D54B9B4
3D7702AA
BD63FFBB
BC5D4445
3C7FB512
3D6BB51C
3D7C5BFB
3DCE0CBC
BC667159
BD6A0A81
BCBB9481
BDB4A728
3D920463
3D9DBE38
3E24C3E7
3E3B7CA8
3E4A8414
3E4EF2CC
3E234BF2
3D5151B8
3DEAD104
3E3BF43F
3E1F44D0
3DA39809
3E33DDAE
3DD7212C
3DE431D5
3E1C460C
3D3D3C54
BCE8463C
BBAE0B28
BD05D435
BDABB2BD
3DD48F30
3DA65495
3D665474
3DED94A0
3D913647
BC95B837
3DA97FAC
BD3A74E0
3CCE883F
3DDFAAE6
3D43CD86
3DAB7093
3E3E3AA4
3B9E3A6D
BD18FF2E
3DDCE81A
3D3CD928
3CF048FC
3D5E01F4
BD33786F
BCD7B01C
3D35736D
3C3F2AA0
BC3F78A8
3CBDEED5
3D42359A
3D9A720D
3DA8571F
3CAE8CB2
3DBD5827
3D011155
3D693B1C
3D7BAF48
3D10068F
3DB17FBD
3CDF0F3D
3D78FEB2
BC9BE729
3A16328C
3D037A4C
3D17CC3C
3E5963FF
3E9AF9ED
3E7C9631
3E45F54D
3E7BE301
3E666DDF
3E2F9F76
3DF78CDF
3E42CF65
3E343ECC
3DD11CE5
3E24D1BD
3D1E387F
3E522B6C
3DF4036D
BD5687A0
3DA684D9
BCA33828
BC3D98E0
3E5551D7
3E2F6333
3D85E018
3E2E8AB3
3DAD47FA
3CE42258
3D72A7EF
BCD46076
3CE32855
3E602D11
3C212578
BD60741B
3DA42F52
3CCB5C67
BC974834
3C06385F
BC7D4923
3D3AEE76
BC10DC91
BBE8B304
3D07BE80
BC07ACC7
3C5FBAC6
3D2BB7B4
BC899FC8
3D444BFF
3DFB7C36
3DB94019
3C369BC0
BB016C23
3DFCAA50
3E254A3B
3CA2E65F
3D5B2CFA
3E1081F2
BD3365C0
3CB9E979
3DB3CBC5
BDDE16F6
3CC51F9A
3D97D6A1
3E1DFF3E
3E2A56C5
3E0ACA70
3DE46EBB
3E5C6A8C
3DD6ABB3
3DDDB604
3E08C1A6
3DC4B45E
3DF9BC96
3D807B40
3CDC1E36
3D8DA868
3D498136
BCBAA02F
BDA99792
3CE52EEA
BD66FF7C
3CA7A858
3D6DA6FA
BD8091D1
3B833A93
3E06069E
3C93D491
3C5EDA16
3D88FDB7
BD61B4EE
BDE00017
3CA1001F
BDF7C925
BD8ADCCD
3D4237DF
BD9CEF93
BCB5AB86
BD15AA7B
3CEFD3C6
BDD7328B
3C03B260
BD89DA69
3C14B721
3D45652C
3D8BCDD4
3D8DBEF5
BC264F44
BB09960F
BCF0010A
3D32EF43
3DBB0333
3BC5E74A
3DC7D9AE
3DA030BC
BD8EB485
3D09E93C
3D9C3F0F
BD57C2F4
BCB29598
3B80666F
BE01F349
BD442335
3DBCDCFA
3DEEFDA9
3E41A57E
3E24A616
3D84736A
3DAD5B2E
3E2875F2
3D945C05
3E081937
3DB13236
3D498912
3CD8C224
3D85EFC5
BC911C08
3DF12EE0
3D16CD81
BCF73D45
3D3D88FC
BD314A2D
BC3C1598
3D501A82
BE152BC5
BE2BB0CD
BD8CAEC5
BD7CEE45
BE1B7EFF
BCCAA77F
BE03E912
BE03C03D
3D391800
BE1E6962
BD2843F6
3C94D93A
BD696717
BDF8F388
3C00C75D
BD5ADF61
BD01AB71
BDAD29A0
BE173C8E
BCF790B8
BDC63948
BDA6DB6C
BD88EACB
3D8BF22C
BD8650FC
BDD2C477
BD1AAC19
3C01AA2D
3D2114AC
BB0C44F1
3C7875E7
3C42DC05
3B1F375C
3D4C83E8
BE09295A
3D2628F4
BC1C190D
BD66815B
3CE236E9
3DC61832
3E3A9C30
3E90A4FE
3E51A1AA
3E7F9DB3
3E973F27
3DC7E091
3DCC9892
3E4FCF47
3DA6EC45
3DD3EB87
3DE0E5C0
BD0CF836
3D23FF71
3E4E4092
3D0F1C5B
3D082D9B
3D8D8B14
3DB5CD75
BC36CFDE
3B948D31
BDFCDE3B
BDD61673
3D8B56DA
BE2E0DE9
BE150750
BC83CCE3
BC9D29D6
BD782F56
BC978B46
BC4BB3D2
BD9C2BBE
3D6835EF
BDF4B1EA
BCA1AD38
BD9AFA3B
BC916067
BE1C68F9
BDE7A8A0
BE13FA76
BDC14CA3
BD49C0B2
BD57A150
BD01D72D
3D631384
BD82BB0D
BD3CF628
3D2B8FBE
BCD5F434
BB4EA2DC
3DAD8A7C
BD942644
3CD17CB6
3D97EB5C
3CCA06C0
3D60807B
3D6398DB
3D81A1E4
3CBD7AF5
3D73D6EA
3D063E81

