3D3813A5
BCA39C3E
BDA0069F
BCC45CAC
BAECCE87
BCB76086
BC1C2505
3D1A08E6
BCDDB45E
BCFD4208
BCD932D0
3D7861E3
3CBE25FE
BD8BD370
3D2D4155
3D0E5F49
3D7F1A96
3D9233F7
3D5522C5
BDA912AD
BCD1FBB2
3D4FCCDB
3C5C96FD
BCBEF211
3D2884E2
BD5C4499
BBF699DE
BCF95D79
3BF5C334
BC9394A3
3BA3A81D
BDA5634B
3D553766
3CDA4378
BD416D18
BC9419D5
3A95072B
BD3D59EE
3CBDD73B
BCD4C14D
3A4AA2D8
3D8AAC7E
3D920353
BC19857A
3C935626
3CCCFCA2
3CF6D39D
BCC23A01
BCA74211
BDB04C3E
BD0B1FFF
3C5E46E3
BB79D674
3D42710B
3D866B73
BD7AEEA4
3D5C7330
3D398715
3D839CFC
BCC59D4C
BCEB7AF0
3ADE5C57
BD8D6F69
3D6EB524
BDA5B5A8
BD374BFA
BD677537
3D27699A
BD03A75F
3C6B3882
BD8A1F84
39966F2C
BC8B317D
3C080A5F
BD2D4CB9
BD02B471
BD393005
BD2E47DB
BD145C63
3CFCC8FB
3D8C3ED9
3D1E242E
395E7B00
BD804BC6
3D6A64C3
BDAF0626
BBD7A2E0
3D8383B1
BD8BC657
3D396FD5
3D942206
BC09B7A0
BD59612A
BC28CF7D
3D5FAC17
3C766561
3C2186E1
3CE1D350
3C4769DE
BC5F4A41
BC1FE988
BD051538
3D2E13F5
3D779492
BC12F4D5
3B5A0180
3C421CC7
3CC477B1
BD22279D
BD87F94F
3D6A735F
BD48844D
3D0E5061
BD8A5D93
3D01E926
3BF14026
3C7132EF
BD2406A5
3CCEA6CD
BD41A9E4
BD8C9DEC
BDA47BD2
3D5876BA
BD65C153
BD12A585
3C8C6007
BC5BED4C
BD7A89D2
3D45FD9D
3D574D4A
BD264B69
BD98484F
3D3570FD
BC80782A
BD2F24D9
BC83B768
BD80D18D
BD2F79AF
3C936F31
3D4D3C70
BBEF3BF6
BD806AB7
3D75FEEF
BDABC14D
3D90F685
BD81A6B8
BCE202BE
BD317E93
BD979B68
3D038196
BD841DEF
378D4676
BD48DF83
BCC00321
BD198EEE
3D0956A7
3BAEE122
3D0EF689
BD30B795
3BC1A3E3
3D29CD4F
3D7E2A7B
3CFAFC10
3CE13C5B
BD7D2FAB
3CBB5399
3D756D0C
BD9ADAB9
BDACD793
BCE375D7
BD2ADBFF
3D367877
BDA80643
BC4CAF76
3BA348DB
BD591D02
BDA24D2B
BDA749AF
3C876A8E
BCBE94DD
BBE109D3
BDAFD34D
3BFEDFA1
3BD4AD00
BD9DFB79
3C17BFAF
BCE3E44F
3D370B72
BD6E9178
BD78DBB5
3CDBEBB0
3D8B5394
BC14ED47
3D863101
BCDC7060
3D5C1307
BDA1C581
BCA881C7
3D69ABF4
BCF245E3
BB3BE10B
3C481FEB
BC11CCE5
BD94E410
BD344FA5
3BDD94E8
BDA0EEB6
BD4756E0
BCEF8142
3D30C51C
BCC931DA
BD841DC2
BCB1C233
3D58E99A
3D063A4D
BD990C68
BC93278D
3D7BADD4
3CFE67BA
BD94CE1B
3D34E913
BD2152E8
3D654236
BCC5E65C
BCBB490C
BD2888C6
3D6A33D5
3CA5D731
3CF6B97B
BD112D2E
BDAA1742
3D2A51D9
3D30F9CC
3D641CCD
3CEB2FE9
3CF7CBBF
3D521AAE
3D48FC0F
BDA39483
BD464E8E
3B06B2A9
3D073704
3D4458F9
BD9A7B19
3D8A4CF6
BD16E355
3CCBFCCA
BD31A5DC
3D3CD03E
BD940FC1
3D23A186
BD686E76
3D4C7FFF
BCB3F801
BC5F671A
3D560A91
3CC4BCA7
3D7067CD
BBB720C0
BD87C387
3D63DFE6
BD85E142
BD2935FA
BC8BA748
BCE96C62
3BF84B8E
BCB3EE03
3CEB82D8
BD4BADDC
3D0F412B
BD45EBB3
BD733A0C
BDB00BFF
3D6A89B5
BCD8620F
3C915D12
3CA46CCC
3CA64BD2
BD7D9966
BD9D4A28
3CCBAC50
BBB58EF4
BCB9EDBA
3CB06E82
3A97A8D2
BCCB2F00
BD35CA65
3CEED126
3D61C1D4
BD905120
BD6FFEDF
BDA695D9
BC2C5219
3C8C0AB0
BCEA2B12
BD33A134
BB95DAA8
3D881EBA
3D9679A7
3BC5F1DF
BD814C72
BD71F6C6
BD54A675
3D8B5CBD
3D77DAD6
BC909C06
BD9B67CA
BB7FABF7
BD535864
BDB08976
BD8FC845
BD4DB5F4
BCDD09B0
3D4BF743
BDA102B0
BD0C6496
BCC8C1B9
BD2EB225
BD8A4883
3D619A33
3D288997
3D705DE6
3D8DC399
3C884EF2
BD3A6DEC
BD90C9DE
3D9610E9
BC821B6D
3D3D1EB1
BC27E729
3C5FD246
BDA2432E
BD7FDD0C
BD162190
BD75BA99
BD57C708
BD550CE3
3CCEB4DF
3CF39340
BD8BEDD3
BD0A4234
3D31F082
3CAF72F6
BCFEE8CD
3D8DF249
3D8680FD
BDA974E9
BC945CC3
3B2D1B7F
3D279487
3D47D7FF
BDA44E5C
BC4465FF
BDACC14B
BD9D0955
3D3B4E30
BCAD593A
3C66EEA9
3D789381
BD62B6E8
3BB6B687
BCBC5D7C
3D86A397
3C97957C
3CB8D19E
BC252C0A
3D511369
3D4DF729
BC5BA443
BB07F74A
3CBFD269
BD11CBDD
BD010FD5
3D8AEA18
BC735BB2
BDAF777D
BC6FADA3
BD42A74D
3D9595EA
3D8FADF1
BC85A55B
BC941B6D
3D948089
BD9DA91A
3C95696D
BD515EC2
3CC001CE
3CFF1A7D
BC9EBB5E
3B801CE3
3D8D485F
BD25B8A3
3CDF7DFA
3CFD4605
BC450966
3D95D02C
3CE9C6B7
3CE63204
BD359AFB
BD0F1331
3D966F1A
3D13D477
BD9A9E17
3D080978
BDACBF0F
3D202643
3BEDBC3D
3C9F33EA
BD84A1E7
BD20F3B8
BD6679C8
BCB48D28
BC2B8004
3D7D8459
BD70CFB2
BD0763A7
3D37C8EC
3D795A8C
BDA63C1A
BCBEB8ED
3D6C8A98
BD052722
3D3EBBCD
3D1E6F45
BD507A90
3D438E2E
BB907C43
BD754544
BD5644DA
BAB7E06A
3C958047
3D2A6A9F
3BED5EDA
3D50BD24
BD9AF372
BD31D926
3D8243FE
3CEF394E
BD9B896B
BD52E01F
BC76D437
BDA38166
3D2FD4A8
BD4484E6
3D8226FC
BDA99BA1
3CACC896
BCCF2AF4
BD3881A4
BD597C6F
BC24F80C
3C8E8C12
BD96BD08
BD176139
BCBB54A6
BD26061C
3D354869
3D8F5B67
BCEFE62D
BD3E7568
3D1DF48A
BD362F34
3D5C5FB6
BD2A3503
BC8DA24B
3D8D93CB
BD9EA622
BD9CBA13
3D5184E1
BD02B1A2
BB816643
3D90D697
BD740816
BCE021FB
BD4AFC15
BD92ADDB
3CADC62E
BDA3D1B5
38441124
BD13C0BB
BD4548C0
3D5CE09D
BC79FCE7
BC5B5A30
3D11524D
BB51D8C7
BD6D9C21
BD7EBD57
BDA8955B
3D1E85AA
BD730055
3CC59FEC
BD83F113
3D56F9E4
BD8D3CCE
BD3C030A
3D14349D
BD6350C8
3D157242
3D503820
3C17FC82
BD45E10F
3D84B38E
3D06D8B7
BD344153
3D7584C0
BBF47566
BD9821A5
3C7C87B4
BD04592A
3C0EA8EE
BB9B77A7
BD187EBC
BD5C6681
BD8D67F2
BD97B735
BDABD298
BD831C72
3D102EC2
BD44912E
BD9581FB
3CFDC002
3C221561
BC088C2E
3D5384A9
BD419656
BD322119
3C7041F1
3D8AC443
BCD7C462
BCE55F8A
BD1E2661
3CA2E690
3D101352
3CFF55E4
3BFD3A46
BD98DC2C
BD1C879D
BD722237
BD55648F
BAE9305E
BD6AD206
3C8BA1C5
3D4FBC59
BA835AED
BC0C72AB
BD1290DB
BD227D5D
3C33E056
BD4F09EF
BD29E374
3D1F074A
3D5D3E03
3D855F2E
3D4A02F9
BC1A1BA1
3D4D8F6C
3D7A8320
BD940205
3D741375
3CF4629B
BD8014C7
BD7DC85F
39D9A966
3D777693
3D908CA8
BD9CC806
BC00B92D
BCD5B77C
BB9C8CBA
3CF86D3A
BC2FE9A3
BD349372
BD311B3D
BD84DB84
BD8012E2
3D7E6E52
3D66F312
BD80E659
3BF68B69
BCB2826F
BD4C8B9A
BD83E375
BDA9EE1F
3C529373
BD42626E
3D02D150
3C9DD8BF
BB84915E
BD493B59
3C8CFC55
3D9584B9
3D32987E
BD577351
BCD3EA81
3D880570
3CDF751A
BD7EB35B
BD81BC56
3D0E24A6
3D05C2A3
BCDC33AE
3C91DD97
3D44AD7D
BD052D2F
BCFD540E
BD5119CC
3B6481CF
BC878C33
BD374EDE
BD952BAE
3D47236A
BD71F22E
BD8CFF21
3D243273
BDA4F992
3D847EF7
3D22C2F8
3CFA7419
BDA10A2F
BCDE7AB0
BC42ED02
3D441B88
3C80B020
3D133F12
BDA2F4CE
BDA8FEDB
BC8DC9BB
3BF17978
BCCAB07F
BD228263
BD9ACACD
3D66E549
3C309069
3D3705EE
BDA73544
3C83468C
BD1F48D7
3C77AE9C
BD847A25
3D5B6C05
3CB811C1
BD1F885C
BD401E62
BD93967F
3CD53A54
BDA65331
3D185087
BCC2B319
BD8D2B4C
BD74F0CF
BCE7D7A0
BD95DDD0
BCCECCF0
3D0AB02F
BD829F79
3D94F9E0
BD4D4F6D
3D5EB187
3C7970EF
3CA76453
BD426C51
3D5FB58A
3D298A0F
BD5305BB
3C817F26
3D858EA7
BDA7F92B
3D6E6EA5
BD29CC02
3D010CF0
3D4453F5
3CF52C75
BCA2904B
3B354B2A
3CE64B9A
BD5E9FD5
BD577FB0
BD324D1A
BD275DBF
3D166230
3ACDC976
3BC65919
3B4C87DB
BC57363A
BC33A05A
3D56323E
BD379F7F
3D24703E
3D82E611
3D153BF3
3D1A0990
3D6B0092
BD2596B6
BDA0D18F
BD9E1540
3D833D2D
BD29F286
3CEFCCFA
3BD32C20
3D165562
BD7B1F1F
3D007B93
BD8FD013
BDAF640A
BD9A141B
3D660F08
BD1B517E
3C8AA673
3D6483EF
BD826DCA
3D3FB0D5
3D06A188
3D7CADC8
BDACC6BE
3D022BD5
3D295D88
3D8E295B
3D39CC1F
BD045A82
BD83A0D7
BC2B9079
BB98A0F6
BCCDCB3E
3D81D89A
3B94E666
3D6221B9
BDAD6EB5
3D889629
3D680CAA
BD966FEE
BD569C0A
3D1B2391
BB95E44E
3D96C5B9
3C8E4E45
BCEFF549
3D60F8FA
BCA50178
3D67D30A
3D0634D6
BD818A87
3D0BB839
BD4FDF9D
BD11AEAE
3CD1147A
3D634459
3D63D0BE
BD90246F
BC0DF9CE
BCEFEF2A
3D2895AA
BBF76E53
3C55445E
BDA54235
3CDD2BD8
BD92221D
3C780276
3BC27DEE
BC84E9DC
BD64E3F7
BD81500A
BD3A450C
3C235781
3D77A4D1
3CD9E971
BC22E0A7
3BB5AE19
BD9914B8
BD1BB626
BD3978E4
BD4318D4
3D8F8B6A
BDA8EBA3
3D8DD997
BD5EAA92
BD699595
BD584E20
3D7F4B64
BC8D5341
3C1346A1
3D3BA3CE
BD42A183
3D8BB474
3D0D1702
BD0CBA7F
3D8CDC78
3CDC28EB
BD53744D
3D9131BC
BD47ED02
3D8846CA
3A5E1B82
3D8844BD
3D917CA5
BD5CCF4B
BD9CC658
BD918135
BCF7E8BC
3D1020BC
BD8E00E3
3C8B4376
BD0A33C2
BD845232
3C945A65
BC239BDC
BD933FDD
3D0C0141
BC54B246
3D6F0EED
3C803661
BC8440FF
3D4246BE
3B1C9C19
BC2BA552
BD9CD095
3CB3E385
3D3BDA9C
3D3700CB
BCAD17F2
3CB08A7D
3C963685
BCB4B431
BCB64890
3D3D532F
3C7367EB
3D5F8AAF
3C01DD6D
3B02F33E
3D52651F
3CBBF5FF
3D828DF9
3D584C88
BCA200A9
3D5F3FD2
3C9BEBDF
BC20216C
3CA3044F
BD83C1D7
BC830AF4
3D2E04D9
3D353C86
3CAB9187
BD9D029D
3C1FDEFD
BD2F9A73
BC402A16
BD3B18B8
3D61B5B2
3CDF9AC2
3CFC654C
3D1A8B22
BCE15505
BD810DBC
3D8979A4
BDAD5B07
3D192D58
3BC77C60
BDA2F877
BC9A518D
BD9E7B76
BC5BB0A8
BCACB824
BC29F179
BD7B5816
3C9B9274
3D8F6C76
3D856D67
BDA3C666
3B135DBF
BD9F0C67
BA786BE9
BBE95406
BC8A1653
3C7ADBBC
3C59855B
3D97F076
3D1B7E3F
3AD9F8BA
BD631885
BD2D3EE6
3CE7E4E4
3D1C9FC1
3D0E0F16
BCE174E4
BD7D012D
BDA5B876
3D6A603F
3D0ED100
BD0BF0BE
3D05C57E
BD9D8160
3C8376F4
BBC5CBAE
3D47E51D
BD69C0C7
BD609118
BDA506F9
3D586C15
BD9CA3F3

