BE869AC5
BE836CD5
BEA01459
3D41C9F8
3E25F7F2
3D127C98
BEA49D88
3DAF0934
3E731413
3C97DA20
3DCB651F
3D497A48
3E2593C8
BD9E5714
3E0EA6D9
3E8F7DCD
3DEBC6A8
BDAE1381
BE9530A8
3E115AD3
BD7BC4A0
BE858508
BE7D2631
3E98C5BC
BE64DB46
BE648793
BE8A0A6C
BE545AC5
BDAB95EA
3DB4F738
BDDE950F
BEA31825

