BE693468
3E16A9BE
3DB91138
BE2399B2
BB9C6747
3E5EB3D4
3E8E3404
BD04ECFD
BDAAFEDA
BE868317
3E0191CE
3DA8153C
3E2FAC73
3E811CAA
BF50EB27
BEFF745D
BE27CE11
3D4C61E0
3E921FAF
3EAE7AF3
BE416CBC
3E71DBEC
3D8A7330
3E520B0E
BD433004
3CD1280A
BE04257F
3D1B3646
3E4FFF0C
BE46795F
BDDD66E9
3E9EB60A

