3E7733B0
BE8D84C8
BCD2B9B4
BE946108
3E5F27C4
BD4698F8
3E810EA9
3E424749
BED7A31E
BE8EC830
3EF1AFDA
BD622590
BE9CEF35
BEB627BA
BF55C905
BF1D24EE
BE1C0BA4
3CCE9486
3EE06ACD
3F2878A4
3C55DEA0
3E1EA562
BE979C57
3E88EC79
3E3DD5B9
BF5F2D76
3D5341D8
3E004E9E
3E156EB0
3D555788
3F2C7F17
BEC22762

