BD1BCBF9
BCDC1C21
3D37669B
3CECA718
BD396D8C
3DAD84DF
3DC5C4B6
BD930FCE
BC828ADB
BC889899
BD050A70
BB21D86C
3D97AD5E
BD76A2D2
BD2A0708
3C9C8500
BCBBB630
3D6FEED7
3D623059
BCF91204
3DC2DD14
3DBB354D
3E01B262
3E077E6C
3D8E3202
3D516254
3D0494B3
3D8F7616
3C1641B4
3D270582
3DD9FA98
3DF3E744
3D92CD8E
3D7A164C
3E02CA74
3D054073
3CB05CE1
BCC32921
3DDD415C
3D82E401
3D2650E4
BB78E5BB
3CE793CF
3DA65B53
3B8C53A6
3D9A09DB
3D681FFD
BD4FDA2F
3D521351
BD487B6C
3D87173A
3D8279E9
BD5C97EE
3D20470C
BB407525
BD8B5BC2
BC9606C5
3C9C39E1
3C63E5BA
3DB09D28
3DC7A978
3CEDFB94
BCB17107
BCF7FDD5
BCF31E6E
BD85F647
3DF73551
BD787B05
BD0CB743
3D51C9D4
BCAA4ED2
3D94D01B
3DC894B3
BD015574
3D49DECA
3D87AE38
BD2A14DA
BD83CC49
BCA43A98
3D4CB5D5
BD158084
3C50A483
3DB8DD34
BD0BF285
3D825F41
3D8662A5
BACC7C0D
3DC98355
BC53DFD4
3CB7527B
3E183159
3DC64E91
BC806F20
3E04E551
3DA4AA86
3DBF3213
3D714F4C
3DD25A10
3D24E04A
3E4F084C
3DF34648
3E1A1CE3
3CA34110
3BF071E6
3DE58732
3AF5F579
BD57B215
3DA8963A
3DB2EC6F
BCB374F5
3DAAE98E
BC7987E1
BD09CB3D
3D6ACD01
3D1F3A00
BCE1E749
3D4A7473
BD1AFA10
BD15C5CD
3C678280
3DA4FABA
3B2C6654
BD22B19D
3D04EFDB
3D21A2C6
BC5CBFCC
3E0138BB
3D390576
3B75FFAF
3DC561EB
3D6CC331
3DD13B66
BB14CB4F
3C783028
3D91CAC4
3DB3063A
BD3ECE9A
3D7EEEDF
3B021059
BCE0ACD6
3D21B898
3C91AA68
3D6931D8
BC7A0343
3DF15B10
3D2C416D
3D85EAA8
3E12ABA0
3DA1BBEF
3DEEF08B
3E22D67B
3D21C078
3DA88768
3E1442D3
3E1A4BE2
BCB8CA04
3E2477D1
3DA6FF6D
3D7BD2A9
3D3B1B4E
3CCED9FD
3D1BC9FB
3CBFB528
3DDEAFD4
3D6850BC
3E004117
3DD002C9
3E12BF40
3DF1D7C5
3DE868E8
3CA960F5
3D91F45B
3D628243
3D80F21B
3BB075F7
BD071CB3
BC0BE298
BD8CBA2B
BDD23717
BD886D78
3DA6D653
BD756598
BC807F34
BAA7618D
3D8CB406
BCEB64A3
BC2D3CA4
3D8A1A71
3D6D1659
3D91E156
BC7BFD83
3B4238D6
BD2819F8
3D2A97C3
3A968B09
3D2522AC
BD846572
BDE7DDBB
BD86D6BD
3C2383F8
BDC2A30E
3D30C235
3D9AD98B
BC41C5B0
3D0444EF
3DAA1AB7
3D030F1C
3C697B54
3D8A1390
BD84711B
3DB099F8
3D373421
BD815582
3E1C7D00
3D2536B6
3D471B84
3DB64365
3D82981F
3DA76733
3D0FB8B9
3DA7E0BD
3D8979B4
3D5095D9
3D17BBB8
3D8E52FF
3E0DE6B6
3E4404AE
3E4C65D6
3DE96984
3D1E58E4
3C01B0EB
3DF0B6C7
3C186CB4
3DE1EFDF
3DA870FB
BCCA132E
BD44A4AE
3D29F803
BDE392F3
3CAD8A70
3D4994F5
3D395959
3D9A305B
BD2DD60C
BCF4F7DF
BD25E5B0
3DA9B452
3BE214A1
3DCAF1AB
3D9181F0
3CCE089E
3E10EB29
3C67ABF1
3D2198C1
BD7E1D52
BE0CD537
BDB42944
BD2927E1
3DA0992D
BD144FE8
BD2167FF
3C3789F1
3DB82FCD
3C98907D
BD27A1DC
BE0E212C
BCD1ADD8
BDC1AD75
BD90A488
BC8D195A
BD6FBAE2
3CA0BF97
BD91EE2C
BCBD1AB0
3C8E7984
BDB5B3DC
BC2AD6A7
3DCDA789
BB551568
3B4F5F7C
BC55AEA9
BB23FD73
3E1899B5
3E51B7FB
3D6FA6A1
3E0C66B0
3E1A3B61
3E0266D8
3DEED6A6
3D475381
3CF03318
3E0756CF
3D19D9DE
3C0D5915
3D3C7440
3D34CE6C
BDC9994E
BB83E8CF
BDFB5ADC
BD6A5BF2
BDC86A3C
BB50C3C4
3D34EF82
BD6BB09E
BB92D654
BD133AA9
3DE21848
3C1CC34F
3DAAB8F6
BD39A790
3D722D81
3D988685
BD9E60A2
3C8F3364
3D0A1BC5
BDAC7DAB
BC178E1B
BD98505D
BCE0DE2E
BC0D6694
3BB1D0FC
3DE49591
3DC5B187
3D2489F4
3D7C7AFB
3A4BDD8F
3D827AB4
BDCD280D
3D053C34
3DA8F47C
BDDA4357
BD6E335B
BD40F2F6
BD4B0176
3C071582
BD3366AF
BE13329F
BD4D9BE8
BE16DC23
BDDA3217
BD9720B9
BD9220B3
3E1744B3
3DDF59A7
BA930118
3E1DDB2B
BC36E638
3DC47D4B
3DEACA75
3DDD78C8
3DB55BA4
3D8FB5EE
3D3AE853
3BC37FEA
3D5DD0D6
BCDCE5BB
BC378AE1
BC2E7DBE
BD19443C
3C38B88C
BD3515C3
3C274A2B
BD451BD8
BDE3F13E
BD87D79C
3D0095C5
3E01D0E3
3DCE80D4
3D353F94
3D369632
3DC6BA8D
BC8AC410
3D35ADE6
3C81B46B
BD2DA82F
BDC3D08E
3D3EAC35
3C8D9175
3DA20790
3D6C16A7
3DDA7F06
3D2CB2AA
3C8B0F42
3D8971C3
3DCCF4BD
3D859C6F
3D9A30C9
BD5A6A87
BD0FB158
3D95E4AF
BDA8D0A3
BD2F54EE
BDFB5D86
BE350F5B
BD7D3884
BDDE713A
BC90043F
BD8D1089
BD8576C8
BDF420BB
BD5551EE
BD50837D
3DD55C03
BD9FE9D7
BDAC1863
3D9E04EB
3DA25500
3D2F3B4F
BCD94B49
BD445771
3C973AFA
3DC7B7F6
3D9BAE01
3C1A1832
3D357DCD
BD836481
3CC80E3D
BE0975CA
BE0F9849
BC907911
BC3B46D1
BC8BB9DB
BDC206B3
BDB60CB2
3CF787D1
BB8C961A
BD7BE945
BCE0198B
BD37BE6E
BD4AD71A
BD45B726
3DE3723D
BC1FC667
BD892873
BDAB31ED
BDE6AF7D
BDAD3ED8
3CEF8A59
BE02F007
BE14B46F
BE1C8344
3CBAC3D5
3C66BF50
3D2315C4
BD9DEFF0
3DCC3CE0
3C8E33A4
BD7AAC81
BD05A6C1
BBF6C4A3
BD51D2F1
BDD3F400
BD93C483
BDDD371A
BCCCD37A
BD606EAD
BD7B6FE8
BD8AC9FC
BD82EA9C
BDF4F996
BE3DB32C
BD83EF9C
3BD0AB59
BD576002
BDCBD7D8
3D7302A5
BDC09D2D
3C4EA0FB
3C36A99B
BD71693F
BDAE87F7
BD9EE802
BD2A6526
BCF49232
BDF5EB29
BD6A5E4E
BC9CB2A7
BDB4D683
BDBD53E7
BD60D140
BCD404BE
BD148C10
BCEFAE1B
BD406214
BD78B96C
BD8CF9B2
3DB4E66D
3C8AF4F2
3DBA1C50
3DC1600E
3DA0FE8F
3DF4C3F4
BC2543DE
3C0AEC75
BC82A066
BD974F1E
3D5810C9
BC8C7B25
BDEB69C7
BDC36B9F
BE121C9C
BD91B8B5
BD9E2206
BD0F0F88
BD691F61
BD134B3B
3D0B84AA
BD39CAB0
3CEEDA8C
BCAC3DD9
BC8D531A
BDA0A442
BD8FABA2
BDEF7F31
BD676219
BD88F778
BE126A95
BD7D00D7
BD033B14
BDB8CFC6
BE6B800B
BDF3F1E3
3DB7EC78
BCFFE2A8
BDC0B08D
BCB86999
BD54A82B
3C26C5D9
3D2EEE9E
3D8B9F4A
3D8A6FD9
3C39A084
3D89645E
3D56E10D
BBB3921A
BC994F20
BCF6852A
BD81A7AC
3C1395F3
BCBE0C6D
BD1D622F
3C8BAA4D
3AED0799
3D81F1DB
3CDCC005
3DA07A96
3D320AB7
3DEA5B7A
3CD45E83
3D7C9E42
3DE6702D
3E2681EE
3E392D32
3E41AF08
3D9296B0
3D85597F
3DFD4E3E
3D93193D
BBDEEAFB
3DD64B02
B9C7686F
3D32E516
BB728838
BC6C9DA3
3DB1DE6E
3D0C1E7C
3DB359F6
3C792325
3D91A63D
3DF45570
3D99EDEF
3E003687
3DD5C788
3D8679B1
3E1479FE
3CE7E17A
BBEB35D1
3CE9BDC0
BCD53E82
3E23F3F1
3DA407DB
3CDEB6F3
3E16BCB7
3DC81EAB
BBABDE6E
3D96E000
3D37EA7B
3DAA98CF
3CB7B9E8
BB3DA26B
3C8723CB
3DA1BD89
3DD53C0D
3E051410
3DB10AFE
3DAB2DD1
BD531527
BCBC56DA
3D9DC547
3C3CACF3
BD84AC39
BD0669BB
3C83D40C
BDBCA68C
BDC96FC5
BC1D4E3F
3DBE58F6
BCFE6C03
3CBD9E3D
3D635C06
3DB34878
3D2F2DC2
3C905176
3DCF537C
3BF79062
3D20E419
3E1538B7
3E2B634F
3DF48D85
3DFBB52C
3E2FEF6C
3E04F43D
3DCC0BF3
3D8F90A8
3C2A61D9
BD2D12B1
BC2FBD0E
3B71AD7D
BD52887E
BD2B0D71
BDA1403E
BCA07FB8
BD8EAC16
3DF9C437
3E41EA81
3D0A7460
3D3DAAC8
3E14A4CE
BD3F8ED8
BC4E3FCF
BCDC6DDF
BDAC5D4C
BD1532C8
BDD1863B
BDB3F416
3DC2891A
BD065894
3C19625E
3D78BDD5
3CF5D10B
BD31F507
BD3AF644
3C211D0A
BD0110A7
BC0C469E
3D385EC4
BD41A719
3D17C030
3D543A91
BB4BCD36
BE0E8B90
BDCE0332
BD9B3FBC
BDCDF6A8
BD0028CB
3C9BF47E
3D41AB63
3D151B02
BD81BD08
3DCB373C
BCC8BF54
3DB68B9C
3D16AEEF
3D35C9DA
3CF40D82
3CF69A21
BACF72C8
3C93831A
3DF4D42C
3DA10859
3E0625CD
3DAF25BC
3CE20A1A
3D979ADC
BC0A9282
3C0FDFD6
BD726A05
BD1FC472
BC9730EB
BCFA0EE9
BD474909
BC54E335
3C13EDEE
BD6C0BD3
3D0EB317
BC909C6C
BCB28573
3D6AF778
BD6CD2E7
3D8D3E9F
3DAE1916
BB7FDE0F
3C337A8D
3D825828
BB1B4729
3D9AF9F6
BA308B80
3D3A1038
BCF36C6D
3DADD00C
BC82A80B
3C1AC5F6
3CD46969
BD42A390
BDA1A2C6
BDD55CCB
BDB0CAD4
3D0FBFCB
BDB096B0
3D9F8944
3D54C5A6
BD24B306
3C1255C7
3D95F424
BDBF3FCA
3D0584C4
3CAAF62D
3D418E3F
3D05F4FB
3E1DF1E3
3DA8FDD8
3DD867AE
3DCDC97D
3D88D315
3C03C32F
3D0458AC
3DC3EBD2
3DDCC487
3C5DA43C
BBEAD079
BB73485F
BC0BE758
3E08E420
3C1D7365
3CF4C820
3D551935
3CA6649D
3DA93B97
BCADFFB2
BD8015A7
3C04A55F
3D0A4AD5
BD87A7BF
BCD4B651
3D3C355B
3C082F27
3D504EC6
BCA638A5
BC8D96D7
3DAACF0A
BD6E5CAE
BD820B2A
3C9AA238
BCB8A36A
3CDA4970
3D9E6C96
3DA19452
3C6CA041
3C3D4A43
3D68D68A
BD6C5F72
BB26E215
BC3F90B3
3D2242E4
BDBA7E6C
BB9BDDAB
3D526BDD
BDCAA6D0
BD8709BD
BCCD7E57
3DC96A49
BD6BEFF4
BCCD6D3E
3AE2212B
3C818073
3D8321ED
3DD31D63
BC51E2D4
BCE8AF97
3DBD8E55
3C7D4877
BD6F4E81
BB0F5CD9
3B69B422
BDCE7327
3E04608C
BD29EB57
BCD2531B
3CF8A064
3D934A5C
3DA96E14
BD8EB79F
3D44DF5B
BD675950
BD00DD88
BD09ADA6
BDC5447A
BDDCBCAB
BDA59650
BD57E9E3
BDC6302F
BD5A35ED
BDA93D3D
3CF9D660
BD94BFF2
3BE1C593
3CC966FC
BD38E42B
BC30A7A1
BD396782
BD7FCF8F
BE050D31
BDBF5DED
BD9CB0A8
BDB78976
BDA8D032
3CB08A47
BAD066FF
3D19CCD2
BD60C36A
3C1FAB80
BD41D7DD
BD55066B
3BCC6A0C
BD69C055
3C9C3E8B
BD3D6461
3CF918E0
3D015A8F
BCF5513D
3D22E981
3D32F3F5
BBE05F33
BD1FF6C9
3DB06817
3C44251D
3D880974
BD96D3FA
BD7A88B9
3D20D4C0
3CDF443D
3DCAC91D
3DEF396F
BD2FCD36
3C0F2622
3DE871E3
3DCDEE51
3DB521F0
BC35D28A
BD05C138
3A8CBEA1
BE297FC0
BDCD5825
BDCEF6BD
BDE7ECB8
BDDD5261
BE1C1B53
BE2E50DE
BDD4C024
BE2BF761
BDB50C5B
BE3D4CFE
BE24D3F3
BE41B9DB
BE25FDB5
BD8291BB
BDDB9AF8
BDE519D6
BE3DDF2E
BDC9F03A
BDD4D5C5
BE2FF15E
BD85C68A
BDB9ABBB
BD3370A3
BDB2063A
BD6B1694
BD12442F
BE163A68
BDEB7F6C
BDD7EFFF
BDE8D687
BD7465BA
BD8F6025
BCDE7B4D
BC057F05
BD45798F
BD1C23B6
BD024CC3
3C993C3F

