BD57973F
3CDE813D
BD1B3A8F
BD7849F7
3D856274
3D96D176
BC57BB67
BD915D6E
3C79318F
BD164A45
3D10DF34
BD8FB349
BD4E2CB5
BB217DFF
3D93F0A3
BC9AD4B7
BD7D1965
3D887F43
BCC061D6
BD783925
BD2527FC
3C8FB6AD
3D0B85AC
3D32D3AB
BC767F8E
3D530140
BBF76CA8
BDAB4102
BCB92866
3D2B1E01
BD558DC6
3D637FAB
BC929648
BD27A83C
BD4A18C5
BD454218
3D0DE363
3C88BC9D
BD153B11
BD8CC385
BD95D48E
3D8BC521
3D4EDD7C
3D4493A9
BD429E35
3984CC36
BDAC5B98
BD5FC9F8
BD8DE0EA
BCC7D6BD
BCB545A0
BD4B25CE
BD0163F8
3C33C734
3D47796A
3D65C049
3D8A6C49
BD98F43E
BDA5B59D
BCBBDACF
BC243E26
3D28D6E2
BD75C254
3CA5D6A7
3D3046DD
BC782B58
3D980EE1
3D95C213
BD62D123
BD89F891
3CAD551A
3B137B1A
BD15BA3A
3C8E8940
3D8F514E
BD8C1167
3CA87466
3A4F183F
3D54760D
BDAFC3E1
BC2ED747
BD0574E4
BD90C0BB
BD4B65AD
BCBE0F88
BD35576A
BD840872
BCCB5FFD
3CB1B5E8
3C00FA8A
BD764A51
3D105273
BD580E35
BDA5B10D
BD4BFE76
3D9806BF
BD84656C
BD36ADC1
3C2824C8
3D38CDCF
3D010F48
BCAA1D2F
3C91F2DE
BD6C464B
3D1AF7EF
BD8CB98F
3D05FD5D
3D8C408E
BD85DC9E
3D5914D4
3C8A05E9
3CF3D710
BCB02ABC
BD1CCF45
3D8FEF4A
3CF8F57F
3BEA5726
3D5D1BC6
3D5BA524
3D78D600
BD056583
BDABA1CE
3CA36364
3D347ECA
3D24D209
BCF79001
BD82D9FE
BB4BA317
BD42F5D1
BD1DE596
BD097F0E
3C7C0EA1
BD9556F4
BD2755F4
3D3AACE2
BB31EB8A
3D620791
BDA0AE9D
BD0B7290
3C117958
BCD5F0CE
BC659064
BDA1F3FC
3D1F2916
BD86C47C
BD1A69E1
BD15C9D4
BDA93523
BD4A57A3
3AC8BFDF
3D093C0A
BD795827
BD9A0B98
3D1738E3
BD84ABFD
BD255AB0
3D80FF54
3C605176
3C9346FD
BCEF8D69
3D48EC9F
3C9EAA1E
BD898317
3D867734
3D148216
BCC7FB86
BD9A7259
BDA3447D
BD3EBA81
BD60C905
BC717CCA
BD3F7EE4
3BA77627
3D09D903
BD51F8AE
3CD249EB
3D8AD6DF
3D1B7F71
BD4D79E3
BBD69F5F
BD185017
BD81BB83
BCD41863
3CE02078
3C7A76C7
3D0AD01A
3D945A7D
3D51D4A7
BD46470A
3D8CFF81
3D9787C6
BD24D2FA
BD3BA998
3C970BD2
3D93F812
3D4C3095
BD9011FF
BD8ABF16
3D4F6ED6
BCC25225
3B9092A1
3CAA6910
3CF89B8B
BD9EE797
3D3D3B9D
3B5CFD6C
BD2D0F95
3D5DADD9
3C6EBCE7
BD931A50
BD4480EC
BDB0793B
3D619BEF
BD66C973
BCCA243B
BD583150
3C93C5A9
3D35583C
3D244657
BDABE11C
3D8E0BAA
BD52369B
3CDC49FA
BB3AA692
BCA59D8D
BD38B17E
BDAD5201
BD76DC48
3C178402
3D772DAD
3D17AF7B
3D635D5D
BC92EF8B
BD399F18
BD4AAF43
3CD19599
BCB5470F
BD0465DC
BD954544
3D21EE7D
BD92C51B
3CACBDCE
BDA3DEF9
3D51DC57
3CB9BD19
3C607AFE
BD88C78C
BDA1C523
3CC1E9C5
3D6A02F6
BD890942
BD6CF684
BD5A92AA
3D85D24E
3D800078
3C95421F
3B647866
BD15C521
BDA1AB23
3D86807A
3D2C24D3
BD919577
BD96D95B
BC8534A2
3C102063
BD8A505D
BBDA438D
BC56F00E
BDA52774
BD8856FC
3D35BB11
BCC84863
3D9602BB
3B0112E3
BC8AED10
BD8FB4FE
BB9EFDAF
3D85A3C4
BCF72070
3D8EA884
BC65C720
BD8713C7
3D50A4F5
BD82768C
3CB0BA19
3C91323F
BD771218
3D37224E
BD5FF1D8
BD90E7C7
3A3D06BA
3D62DC13
BCB2E2FA
BC10DA4E
3D8D2626
BC4766FF
BD821294
BD73ED81
BC5210C5
3BA9E32A
BC31E521
3CD3C46D
3D84F267
3CD0C25B
3B974C50
BCBD7C7F
3D3BD41D
BD628879
BD4654BF
BD44DF1A
3A55261E
3CA5319B
BD20352C
BD854571
BC86239D
BD8BB739
3C81D086
BD24429C
BD0D7F7E
3C3D2FB4
3D50D1F9
BD8FD88E
3CB44403
3ACEB2CA
3C8DA1E9
BDA46988
BCBFA113
3D615081
BDA7DDD8
BBDD8545
BD4DD432
BD43E2C1
BC398B7D
BCECA314
3D16FF2B
BD79E8BE
3D006878
3D95AC19
BD4BE6EE
BD3124B5
BD171BA5
BD80116B
BD9D0928
3C2183B8
3BC74A79
BD706969
3ADCADB4
3BF0316A
3D47D39C
3D1E05E0
BDA92676
3D96F4BE
3C2D45FE
BD248DF6
BD84EE83
3BA3536E
BD52F18D
BD83C1C0
3CF2B08B
BCF67DE3
BB860511
BD9532F6
3B9AA133
BD6AA79F
3D248333
BC310CC8
3D08167A
BC03E31E
BD872949
3D8A0D4F
BCB8ACED
BDACDE66
3D577695
BC534163
3D7F0399
BD2A36BF
3D94C1A4
BD74C167
3D91BDCC
BD1311B0
3D27AA18
BD9A711B
3D8372A1
BD829315
3C847447
3D955D20
BD32A5DF
3D0F1EE4
38DC6A2D
BC1A5A72
3CF5BFCC
BDAAFC10
3D8FB726
BC97661D
3D674920
BC966933
BCAA6B5F
BD3F11A6
3C792278
3D4D2530
BD45035C
BD90A011
3BFCDD2C
BD9C59F5
3C0B35AC
BD50C2CD
BC98A2A7
BC459AF0
3D0217A2
BCDE0F00
BD2FF4C4
3C6483C0
3D798BB6
3C5C70B5
BD174C8E
3D5B2BC5
3D076D64
3D8A5420
3B8A94BE
BC622A8C
3C19F98F
BB9851AD
3CDECF72
BCFF433A
3D91F19E
BD364843
3D947976
BDA48F19
BD892F8D
3D910773
3CC0DAD8
3D293826
3D78ACB7
3CC5B177
3D6B3E2E
BD069321
BD8BEA92
3D06AAB0
BCF1117E
BD09F586
BD596D1B
3D915AC0
3C673288
BD779FCB
3D78FC1C
3D832E84
BAECFBCC
3C284C49
BDA3B17B
3D8F7685
BD47860F
3D5BC7BF
3D40E074
3D918ECB
BD642022
BD510E29
3D0B9D14
BC82380F
BDA01B06
BCB6FE7A
BD551A1B
3D13FB22
3D7A759D
3C5CBA09
3D11C074
3C4A5A45
3D2A4C5C
3D2CCC35
BCE105CB
BD6F868E
3D453C55
BD3874CB
3A8F21AC
BD94C454
3D491916
BD446878
BDA634C3
3C012C42
BD956F38
BDA79AA3
3CEDCBEF
BC98C770
3C7421EE
3D28A70B
BC84A980
BD5BA9B7
3D526309
BC9E7D04
3D8C703A
BDA15C2A
3D2AE450
BD04F19C
3CD79804
BD72A143
3CFEDB26
BD5CF3BF
BCE8790A
BD76952F
3C0534F6
BCF5A49D
BD26F937
3CB05C05
BCE53639
BD36A20C
BD8CC247
3C94B187
BD4DFD62
BD0140B4
3C560F53
3D1BAFCF
BD878009
BB5A04CA
BB7CF1B6
BD5CF561
3D59AC27
3A93E7EC
3D8F0D9F
BD98A37E
3D942BE0
BCBE00FC
3D69334B
3D793EFF
BD9E8655
3D48D7A2
B784A8EA
3C050A35
BCDBC163
3CE32DCB
3D7E6439
3D2CECA3
3C9DC62F
BD9A7EBA
BB4C440C
3D924717
3CEA0719
3D0C0CF6
3CA681D2
BD7DAEB5
B8D308C6
3D132746
BB2005EC
BD8F49F8
BD5E4889
BD942A5E
3C41AB66
3D964167
BDA99133
BCF0A035
3D8C308C
BD902F9B
3A4010C6
BC1222C0
BC203FA2
3C784C5A
3D8CBBF2
BD08D96F
BC917A2F
3D54C0A2
3BC981A6
3D5F3356
BD5BBC97
BD87ED85
BA26CE05
BCA0B08A
BC954729
BD7211E0
BD4D8027
3D7544B9
BD67A933
3D9120A7
BD39E34E
BD10EE9D
3C457ED5
3CDEC567
3D29021E
BD1E7B82
BD3CBD47
3D79D90E
3D0C02EB
3D881807
BD3CF5A0
3BF7521B
BDA91079
3C9B48C7
3D6D63B7
BC6D34BE
BA6BECDC
BC9A3182
3CC74B47
BBC6B074
3D2D5C13
BD59FE82
BD890B97
BD51CD73
3D3522E1
BCDD48D2
3D8AB722
3D14BAB3
BD79A2E7
BD467085
3D52D04A
BDA936A3
BD7401D7
3D395EF1
3D02F366
BD989F9C
3D5D4272
BD2DCCB9
BB71B6C4
3B009CFA
BD890A0A
BD00F4CD
BD9E0731
BCC37343
BD05CD36
3CDA02F3
3D831831
BB98E2B7
3BCDD854
BC88030A
BDA2B8D8
3D617DCE
3D4EE0B5
BD0F9210
BCD1E527
3D68A40D
3B25BB6B
BDAABFB0
BD353004
BC81152B
3D0943DA
BD38B8BB
3D65473C
3D66C62E
BD082946
3B2BC10F
3D1AC7BE
3D2931A6
BD45279F
BCDF6084
BD8935F3
BD58C7E1
BD03D2F8
3D7BDBB0
3D8BFDFA
BCBB6786
BD322727
3D708A73
BD21DC00
3D02A249
BD1C9E56
3D4F6829
3D7B60B9
BDAE38CB
3D0C87E7
3D50E7CC
3D97246D
3D38B7B0
BC8F6855
BD3921A7
BD8884E1
BD947F80
BBA2D200
BBF21D79
3D86D986
BC2A6A04
BCD73681
BD538B58
3D128B5D
3C9BAD67
3CDF7D37
BDA5B804
BD4DAFCC
3B91144F
3D2F5F78
BD894E40
3D368722
BCCAAD4C
3D42D8BE
BD11520F
3D892925
BD94BEBB
BC9A011B
3D263E00
BCCF8672
3B9214A3
BB4C0E47
BA0BBDDB
BD20E18D
BD6963A3
BC71DAA0
BD9B61B6
3BE5B52B
BC3C52DD
BD9ED8D4
BD2695E0
BD107E0A
BC96E8BD
BD876738
BD08526B
3D890D8E
3D82244F
3D954977
BD26AD56
BABE046A
3D0D6E29
3B7CBE64
BD5C25E9
BCE21647
3D899CB1
BCD83F0F
BD90F2B4
BBD46632
3CD0E6E3
BDA6C6E6
3D3D6768
3C655B30
BBAF6687
3D687189
3C18D94A
BC32C223
3CAEDA5D
3D7A098B
3D2FB0AD
3D525634
3D849150
3D18FD79
BD924E24
3D84DB51
BB12A3C9
3C84D5E5
3A1D59D5
3D39FFB5
BC90160B
3D7029D0
3D6B6570
3D58F5AF
3C90385B
3D830B8A
3D1101B5
3D5B9C37
3D97B377
BD815D1E
BDAA2CCF
3D5DE84C
BCD71B69
3D29070C
BCD1F6B9
BBBB9D78
3A4D9511
3D8D67E3
BD578859
BDA6F7BC
BD87E1A2
3C18D55F
BCACF262
BBF40284
BC2CB887
3D02907A
BD69F661
BD856411
BDA253A3
3D79EF5B
3CE10053
BD4D7181
3CBDE6BB
BD768724
3D69A6A4
3D13D302
BCEB761D
3D8A9D70
BCF4A9F4
3D8F9B54
BBB1C46B
BD17AED0
BB1E9378
BD8D66CC
BC232698
3D9028B8
BD134A20
BDA1A9E6
BD6781E9
3D729ECB
3D33D710
BDAC9375
BD811768
BD86D1B5
3D335792
BD7721ED
BD8975E3
BD3C4BE2
3D5A1783
3C0D2904
3D0E8C54
3CA61B4A
3B5D3D2B
BD3B75D8
BD2F9A81
3D59576D
BC95C907
3C899B16
3B36F697
BC4BFFA8
3D802FAF
3CF07179
3C3DA62B
3BE98329
BD37F129
BC2F1EBF
BD66CEF2
BD2743C8
BD9C2591
BC53F6CA
3C8B1921
BD44FBDB
3D6B706A
BD75A93D
3C146900
3C95253E
BD913186
3D174E07
3D13D64F
BD854D97
BD8C9B79
3D963DB5
3D7BC8DE
BD041A97
BD888DED
3A577F53
3D45CCE3
3C30B2D2
3D971013
3D54A449
3D19CC18
3D03CACD
3D6A1599
3D96EB2F
BD7F2BCA
BDA97F3A
3CD2596B
BD857747
BD4212C4
3BACAD00
BD9182E0
BDAEB23B
BD9F98DF
3CBB6CFC
BD933DD6
BC9ED521
3D91C62D
3D03F391
BD11266E
BDA52666
BC8FDF2D
BD26857E
BCFFF21F
B99413DD
3C818E31
BD2A0F01
BD4B4A16
BBD2D0D5
BC92228C
BC0A9B4F
3CD072C3
3D3A83B2
BD986974
3D2DC584
BB99D184
3CD64868
BD69A939
BCCF1196
BD748F93
BD1742F3
3CEDB863
3CE0A636
BD09008B
BCF298BD
3CAB9533
3C565256
3D86A1CA
BD10A8A2
BC04E898
BD866F28
3CF23774
3CC80106
3D390251
BD8B79BB
3D3C843B
BD16E362
BD743BAA
BA4634C6
3CBACF05
3C24BCD8
BDA071F6
3C59FC7E
BD1BBDCF
3CEAFAF2
BDA94AAA
BD505837
3D8C04AD

