BD903DD4
BE880ED4
BDBD455A
BCB45DB0
3E4266C3
3E85C8BE
3E7DE7FC
3D5E030B
BE06259E
BE95C8C3
BE1C4E6F
3E860100
BE16B713
3E83BAB1
3EDE5EA5
3EBEC58C
3EA3FE26
BE9953A5
3D0D3D96
BEE34C9F
BE6BB0DF
BE3B2603
BE938CFF
BC7D2E9F
3E4E4DC0
3ED924A3
3D91D4C4
3DD0C269
3E3ABA04
BE6E9922
3E9D2700
BE820939

