3B4FB654
3D2E9664
BCCFD2D4
BDCFE79D
3D24309A
BCFF41A1
BC9E5149
3D864FEE
3D8AD68F
3C5AFB6B
3CD7B3AF
BD8FFC49
BAA31230
3D5C7063
3DC8E658
3D70887B
3E07AC0A
3D866758
BDA7FCAE
BD0911C6
3D70D830
BD421044
3D37DF04
3CA8DB50
BDF85DC3
BD8B8EEA
BC9A248E
BC845AC2
BD696DBB
BCF12045
BCBE9332
BD9D550E
BAB20982
BD110223
3D620B2D
3BCB48F5
BD66E4D4
BD4B81A8
BD25387A
BC05B43F
3C21984F
3C8391D0
3C2ED852
3D5364A0
BCB41F57
BD3350BE
BCA68214
BCB0DCB7
BD8D774E
3DA07699
BD68EFD1
BAA31926
3D20168B
BD78A7A9
3D164ADD
3D873C6E
BDBBDE43
BCF1D1E7
BCBBCFE7
BC8758BD
3B89393F
3CE0456B
3CF7CB77
BE0EDCC0
BCBD2EF4
3C96A969
BD07D37F
3D1E4C6A
3C03CD68
BDF73FC4
3D09546A
BDA732B6
BD1EBCCE
BD926491
BD92C144
3D2C235D
3D31A0ED
3DA02393
BC642D7B
3DE78062
3D917364
3D2187E5
3C56A773
3D97716C
3CE86942
3D900C21
3D02A88F
3B1CD905
3CDF84F5
3B33C7BA
3DEF451C
3D5DD0B0
3E05F637
3DCE1B0F
3C61F8BF
3CD76E47
BA97A749
BD2A1B74
BD3EA69B
3CBC14EE
3CB0B52E
BD45A368
3D10F66B
BC2E5C90
BD1ED417
BBF30329
3D9FE9F3
3CB3DDD7
3CBEB61E
3DA4FB57
3D0AF816
BD31C9A0
BD60AB7B
3C9D7C73
BCBDF83A
BD05507A
BC208356
3D064903
BD291641
BCD56756
3BEA8C61
3D3FDED8
3C44BEE2
BDDB2383
BCB8E988
BD9F6803
BDE08B91
BDA3A4B8
BDEB261F
BE345001
BD08E6A3
3C0F87F2
BE27E4ED
BD8DCF0C
BD9F537A
BCACE075
BBE77304
3B221079
3CF67790
3CB6409D
3D3F685A
BDC49312
3D5A71A6
BD309049
3D1F0FAE
BD5EAB24
BD6D5C93
BD14D647
BB4F60E3
BBC1E0F5
3DB1E0F1
3DB06FED
3D7A2BDD
3C86AFE6
BD3EEBAE
BD307546
BD060A09
BD9BB80B
BC8F8FD3
3C1F22A1
3CF24B13
BD4E31D0
BCA651BE
BCD4B269
3D2593C9
3C31B0B3
BD909C3F
BDF17E9C
BD33057D
BD64AE13
BD98A970
3C9BE006
3B9F052C
BD4159CF
BD9B7B47
3C9E9F0C
3CB9FB2F
BD9E748C
BD8E37C0
3CC1CDF5
3C142AF5
BD89ACAB
BDACD7BF
BDE91814
BD827752
BD8F4ED1
BE02F5A4
BDBB71F3
BCFA8394
BD3EC616
BDAD04BC
BC6309B2
BD9D945C
3B718F66
BD2759A3
BD853753
BD852610
3D0CC0BD
3D71D070
BC9F87AB
3DB96ADC
BC238359
BBAB441F
BD913321
3D8FF709
BC21D280
BC42E82B
3D8062D2
3D90A539
3E03E7EA
3DB98E3C
3C8E86EC
3DA9B84E
B9C6300D
3C9C36CB
3CDDCDDA
3D8A9E19
3DAA9D14
3D97A63E
3DC014AA
3D8F235A
3D277681
BD848959
BD45E0EA
BB06DD0C
BCB18F10
3CDDDAE6
BD4D56C6
3D17F607
BDAEB4A7
BC51329C
BAEB6E75
BC4195B5
3CF09379
3CA3F96D
3CDA6F6A
BA837DC6
BD4738BF
BD1BBE84
BD35DCB5
BDF5C370
BC0B77AE
3D43F0F2
BCD2A75F
3CBE52C5
3DC7F0A3
BDDCA693
3CA5FA62
BDBFC9E1
BDF1A179
BC74C1F1
3C9B6D99
BC9C9114
BC2E3A60
BD5875EB
BA06887C
BC67B592
BCF36CD3
BDA3E08F
BDEA9065
BD209AD1
3C9AB445
BD262294
BC33997C
3D008387
3D86FEC5
3BC8B707
3E463B63
3E2B1DEA
3E0A2A1C
3D74CC29
3E3224CF
3D0D72BF
3CC0928F
BD182BA9
3D5AA22C
BD5E920A
3C98EA5B
BB9DBA74
BB46C945
3BBECD01
3C8C66A5
BD6753CF
BDCEFF89
BC1BD8E6
BCEEE8CF
BCE7FFC5
3D4EE35E
BDD16154
BD1E7A47
3C85606D
BD913B36
3C58BDD0
BD4053D2
BBAB7A4A
3D00ECA6
3DB8CF61
BD542563
BD6E1253
BCCE58EF
BD6E95E0
BDD31EFB
3D38A356
BC844B2F
3D9697C8
BC2CE9C6
BDC8D2B6
BCB4328B
BDA7909B
BDB1D7F5
BDEE8ED9
BD0B7032
3C032A56
3D540053
3CA95ADA
3E120DB3
3CD489BE
BD49698F
BD786460
BA853F2D
BC8AC4C1
BDF8AEEB
BD5B17EE
BE06F5C1
BE336A73
BDAC2249
BDDC956D
BC8F0964
BCD90338
BD867C8E
3D53AD05
3D5A428A
3D912EE4
3D306C4B
BCBDEB59
3D1011D4
3E182D73
3CCCEC6D
3BF46CE5
BCAC13E0
BCFBF2FF
3E06E2DB
BC6965F9
BD8B6A83
3D9EF5B1
3CD4C257
3D24ECE4
3D0E02AE
BDB41E99
BCB04009
BC6CA690
BDB9A34F
BCCE3745
3D0003B3
3B70D666
3D2DEBCB
3BDCC2F7
BBF80478
BC71096F
BD9E7EAE
3D44D3A3
3CA75CD4
3D15DFF8
BD2B2EDF
3D6A11D9
BC8CBB1A
BD8DB0BB
BDE1858D
BCB51389
3D4E35EC
3D03DA48
BCDBA90D
3DD039C8
BD8D75CD
BD026C21
3DE16947
BCE5F6A7
3DD88F41
3DB79532
BB88DAE4
3CAA122B
BC82B51C
3C2E3FC6
BDCC2069
BCE7033A
BDE29DEB
BE34D009
3D97943E
BDD3C9AE
BD603499
3E2F0D93
BD12D5C5
BD48396B
3E0D86E2
3DD72852
3CF5AF5E
3DD37887
BC528069
3DCA3F63
3D46C991
3DA0F1F2
3E08CA4D
BD9D3A4A
BD55A420
BCBE0977
BDB72F90
3CBD8631
3DAD2D6F
3DA06255
3DADC861
3D94DB5A
3D9AF90B
BBE23622
BD1B8D58
BC93CC33
3DBDA46A
BA85B835
3DED3E72
3E025BB7
3DF1BC21
3E0F574D
3D98AC07
3D834B37
3E1405AC
3CD7D076
BC0E7564
3BD3775C
3DB6DEDF
3D96C647
3DA0A0DC
3CEAA39A
BCF14890
3DBF3F38
BD623FAE
3DA76B86
3E062307
BCE68C2D
3D82552F
3DD0A906
3DD0CFD5
3D8706E5
3DF734AC
BD23DC88
BCD80449
3E07AF73
BDB1BD27
B8B7F38B
3CCA6DAE
BDC33D64
BD929D39
3E06B048
3D83AF51
BB2A8636
3DC8D275
3D83BE3E
BC059D68
3DDFEAB3
3DC5DBC1
3DAE978C
3DBF3DA8
3DBB2510
3D82CCCB
3D8A2B79
3DF3B10F
3D6B9182
3D0ADCA7
BCA44809
3E04967A
BCB44D53
3CBBCE62
3C8AA0CA
3DAD07E4
3DEC19C9
3D01AB6D
3E26FE68
3E228666
3DB926EB
3D937E95
3D341338
3E41CD5A
3DF8A66C
3E0524E6
3E0E2A1C
3DA97945
3D009271
3E0AC179
BD31EABD
3D90824C
3D33E91F
BCB16E5B
BDA43996
BD3AE330
3D89B129
BD184603
BB9F03D1
3D587069
3D5161B4
3DA26FAB
3E8851E7
3E036AB2
3E1DAA1A
3E0C320D
3E14B91F
BB00A913
3DDCF5D2
BC3D9CB0
3B75B424
3D3EEE5D
BD053FAE
3D3C3102
3DE73882
3D9B4495
3DB8D390
3DB9D46F
3C23AC12
3C9AF957
3DBFF6FF
3C414947
3E2CDB3C
3E2DFAF6
3DD59AB7
3DEC39A8
BD868518
BBBC5329
3D176042
3C19D399
3DB8F695
BC6960FF
3C2C495D
3D1F7B95
3DC840B7
3D03AD71
3C73C511
3D8DDCD9
3CBAE962
3C5D70BA
3DAD33B5
3E22764F
3D109CE3
3E042F94
3D5648D2
3D88C2E2
3DE842BA
3C9BD5DF
BD1B62B2
BC0092AE
BDBAC431
BBEE3F12
3C52B0FD
BD994A4F
BDBEA11B
BD9354E5
BE216050
BE45F309
BDA6D4A9
BD17FF73
BDE59548
3B864322
BBC20F4A
3C1883A0
BD39BB96
3D35CF5D
BD1AA858
BB8DECF0
3D60DF21
BDA31F28
BD7FBEEA
BD43B9E5
BDCAA53B
391D6651
3D3136AA
BD1375A1
3CF60BBD
3CCB5483
BD3F370A
3D39BCEE
BD9559C7
BC7948EB
BD701F0D
BD514F1C
3CC6B36A
BD464F41
BD999820
BD11327A
3D67B9FA
BDD6A8B5
BAC1A41E
3D786278
BD98901D
BC542606
BBA9ADE4
BD96A03D
BD6E7A79
BD21FDB2
3D58E74A
3BB71DE4
3D44058E
3BFD0AC3
3DCC3F09
3CB62935
BD96D09B
3DD1CD44
3D284356
BD232C13
BD63E855
3D9159C7
BDD1463D
BC8E06CD
BD988AC5
BD529307
BDB50327
BAAAF1E5
BD3D1DF5
BC68EA11
BDAC08AC
BCB36E6B
BCEF3CED
3CB7DE44
3CDFD8AA
BD5208AA
BC16B543
BA28BED4
BC37B558
3C8B1C18
3DFB0426
BD21BEBB
3C60FB78
3E1F8660
3DB3EA41
3DF7C202
3DB9A3D5
3DA33506
3DC048BE
BD38F768
BDAC7DDD
3DAC335E
BD0B1482
BDE853D8
3D8CAFB8
3BD86C0A
3D3D6833
3E1E1845
BB6C7B00
BCC4F3B7
BBA3E19C
3CF3A75B
3D5A1B78
BD91AF81
BD94A91D
3D371517
BAB38F73
BD15164F
3C82E07F
3CD09A73
3DC12FAD
3DCCD466
3DA68621
3DAE8330
3DE4D433
3CA0BB52
BC6DCE57
3B9AB8C4
BD02EA66
3D41A211
3C2DEBCB
BD006187
BC243A61
BDA356D3
BE0199C4
BD9C9061
BDCA403F
BDF5F5E8
BDCA26BE
BDA11742
BD0F2952
BCECF9BA
BD046B3F
3C1C8091
BD93E7BF
BD826922
BD079C08
BD8B027D
BD18D2C1
BE11F776
BCCD6678
3D20FA53
3CB7ED6C
3B5F81A1
3DB0B829
BB2D597C
3D068113
BC0BE74F
BC254D12
3DAF9097
3D778FDE
3D5F07B2
3DB5EF18
3DB99CC1
3CE137DD
3D3C35F0
3D0D5857
3CD51E34
3D9BF2ED
BCFA49FB
3DC47C6B
BC24D454
BB59FA0D
3D95163E
BD23F31A
3CFA43C6
3B1A5677
BD2984F2
3D423080
BCF3DA46
BAF6E588
3D86CCBE
3DB78AF2
3DFFEF80
3D777FDC
3E252C86
BC037C9F
3D0B37BD
BD0E075B
3D211146
3C6F21F9
3CE6C114
BDB56AAF
BDC3BB7D
3CF1A077
3C578DDC
BD03A3F1
3CFC2ACB
3D8286CF
BC091609
3D1940EA
BD0D8471
BC6C10B2
BD4BFB05
BC9CF01A
3D71C90D
BD0D3ABC
3D1A2051
BDBFF470
3CF01E91
3D739E0F
BBAA8261
BD07F4F1
BCA2FBE7
BDA9A7E6
BCFCC4A0
3E002EED
BBD6D2F0
3D9AFCD0
3DFED0CD
3DB26732
3D8B363B
3DFD8E81
3DB10652
3D6ABF56
3CCD15AC
3E070D72
3DC4CEBE
3D55FD01
3CC99089
3DCF1432
3C880C35
3DC917FB
3D3742ED
3A27E7EA
BCBA42FD
3D929C90
3D97CA16
BBBC289F
3DD69C82
3DB76019
3E0EA069
3DCA5D9B
3E1B98BD
3DB5693F
3B99DB17
BDBA92F8
3AB23817
3D7BDF76
BC864F31
BC17A1BA
3CE88CF5
3DC67E99
BC57651B
3D0AC76B
3D7B8C56
BC771A86
3DD0B959
3D35CF7D
3E2FBC46
3DB01EE9
3D8646A8
3C1D936B
3DCE2E3C
3D655507
3DF46A3A
3D6265F0
3D9FB17E
3DBF3A5E
3DFD5C45
3D9F89CE
BC953EC9
3E00876A
3D9885FC
3D2D6E38
3E141893
3D943FCB
3D1C47A8
3DD5AB6D
3E177C83
3DA62CF0
3C43BC7C
3D8F6947
3DF9E3D2
3D85F9E2
3E08F18F
3DFBA411
3DCC9DA4
3CC304AC
3DA8B200
3D91ADE3
3D9AC7C5
3E414FDB
3DFE591A
3D792664
3E02A885
3C86F1BA
BD59CB6D
BCB1883A
3DD9F662
3DCB03A5
3CC4EF2D
3D88C3B6
3D430747
3CB290B6
3D22E12F
BE094531
BC5FE335
BDDDCAC9
BC3A4102
BCFEA65B
3CA6C0E9
3D41E491
3C7D92BA
BBF31E8B
BCECC5DB
3D20DB0A
BC8E34F6
BB23F35C
BC7FAE62
BB0F97E1
BCC73CBB
B990D284
BC31AB82
3DE97443
3DCC51FD
BCB57952
3DD66114
3E0870FB
3E1E5D4E
3E775DB4
3E56FF85
3E35A77A
3E142027
3DFE6B1C
3E1B1CB2
3DF815A9
3E017DEC
3DD2CAC0
3E0C8581
3DB422DA
3DF57B6D
3E49CD33
3E498990
3E4C0135
3E516C4D
3E88024D
3E29D2AA
3DB86030
3DE1963F
3E007BE3
3DCC7BAC
3DCC25E3
3D58D8DD
3DFE04FE
3D2F1AD1
3D82377D
3E08FD6C
39C4ED19
3DB39472
3DA2FCCB
3DC61CE1
3DB9946F
BC3B33C3
3D865700
3D53DFA1

