3E08DE6A
3D877F97
3BC4209F
3DD19EBE
3C27767F
BD6FF297
BC3FEEA1
BC844D47
3DA58C0E
3DB27A4B
BD1D4285
3D5298B5
BB6DE2DB
3D563300
BCD47F6E
BC6B944A
3B8D798A
BD932789
3A08C843
3D6E6E51
BDCC8F09
3D4115FF
BC895187
BD91C557
BD350C1B
BCBA71FE
3C65D843
BB589316
BD2D624B
BCC184BE
BD97EC58
3D8EC8E2
BAD79D51
3B6A3C9A
3BE80454
3D90C023
BD7DD1A0
BDA35BF6
BD878CE9
BDB34537
3D746439
3CB4D1E5
BD21BB2A
3D7DBBC8
BD168DA1
3CD3A4F4
3D987EB3
3DDA1AF0
3DADF362
3BF5BD7F
3D703FDD
3D6FFA87
3D439DB4
3E0A2198
3E05DF3D
3D8603A6
3DA272D9
3E0D156F
3DD247AC
3E055739
3D2374A4
3DE8721C
3BCD95E2
3DEAFD4D
3D42CB36
3C6AC9D0
3D8A7CF6
3E023D1A
3D9CDE6C
3D9A2B3D
3CCBCEF5
BDA5C0B4
3CB9911B
3D8E7106
BD3DEC60
BDFC4016
3C4347CA
3A05BBC3
BC6E2B35
BD3E1A14
BD32B012
3B4A4894
BD8EE559
BDAA5DB0
3B0EFC8F
BDA3567D
BB35541A
BC70903C
3CB7579A
BDA7BFAF
BCC1966F
BCBF7A2E
BDF2271A
BDF4A086
3B003951
BDB08FB3
BD24D072
BCBF9FEB
BCC4B811
BE26444F
BD284B87
BDF89709
3D0647A2
BD50C295
BDA452E2
3C243FF4
BC9BE2BA
BCFF9B98
BD7A3C12
3D0521F5
BBF154D8
3DBBA2CC
3DE665F1
3D58EDDD
3E0800BE
3935D10E
3BB010E4
3E2D28E7
3E2D8C9A
3DD0D607
3E0227FF
3DCD5345
BC4DEAA3
BAD7DA9B
3C638099
3D54D6B6
3CDF7899
BC3EEFC9
3D83E08B
3D25B7A1
3DC51C26
3A886C3C
3D951689
BBAD8FA9
3CB98885
3D380B70
3D96F524
BD6ADD9C
BCE3AECE
BCA169D1
3C209F6C
3D9947F5
3D926C13
3C123172
3C3DDC37
3D0F2A1B
BDA1DD06
BD52F75F
BD342C14
BC90FD73
BC93EC77
BDDEC4DB
BD03D0ED
BCAEF0F4
3C10D129
BC910984
BDB7D406
3C176C6D
BDF6B401
BDE5FF20
BD057FBF
BDAFD1DB
3C8FDD67
3DBBEE6A
3B3EBBA0
BDA3554B
BC3BB858
BD63E0EE
BD06B005
BB52AE03
BCE838B0
3DB99C44
3DA3FF6E
BD57476D
3E317AAD
3BB9F899
BA96887A
3E57BEEC
3D3912E2
3DDFAE47
3E2651EC
3E20D716
3DABE164
3DB11A90
3E187890
3D5C4F4B
3D478464
3DA0A9A6
BD04E900
3DB2B7CD
3C884150
3D154BBA
BCA294B2
BD02DC54
3D6026B5
3DA6DA95
BD4DA80B
BDB8FD2A
BCC57EF3
3AC77378
3D5672F4
BDEB701D
BC9344AC
3BE36E02
BD64B2E3
3D5C0C4A
BD581AAA
BE089C18
BDEEF314
BE0A9EA2
BE1F7932
3CAB2C92
BDFFF46E
BDC21083
BDDE08D2
3CFDB8B7
BE0553A4
BD81FF4B
BDEFA743
BD5953DD
3D43AE15
BD119427
BD75CF76
3CAEFFBD
BC69B66C
BD320F36
BD20E693
BDFEB642
BBBE4905
3C6A81FC
3CDB4723
BD4F32BF
BBC61DE3
3D7FFD34
3DAE518E
3DBE8BC9
3D92F026
3E624F0E
3E06A6A5
3E328F19
3BD39031
3D03A594
3CFF1DDC
3DD9A21C
BCF9AFFB
3D0CF429
BD2BAB1C
3DAE2683
BD741056
3D870523
BD551191
BDEE9600
3DB58011
3DD20582
BD045532
3C6DA8B9
3D9DEBB0
3C9EB168
3CB242EA
BC691E7E
3D4B6495
BDED8999
BD02030B
BDC8B34E
3C98AF67
BD9E6BB3
BD94FC38
BDE06CB1
BDDB577E
BE2D5076
BE24C841
BC186C4C
BDC0BB65
BD211598
3CD74E0E
BDDE70CF
BDD077D8
3D8157CE
BD3BD2C2
3D0C1D53
3DA94205
BD4C4C76
3D92FFE9
3D532109
3CE9B14E
BD3B7445
BD4BDDA3
BDA7A303
3CEB8EC9
3DDC52E2
3C9C79CB
BD14F4E9
3D9FE5E1
3D236E58
3E139155
3E0814B0
3D94ADC0
3DEB9ECA
3DD07C13
3E367FB3
BCDD10D6
3E071FF8
3BD13549
3D1830AC
3D13EFAB
BD305ABA
3D0B6BE8
BD8082B0
BD4C0F7C
3DDEEA11
BC725F37
BDA685EE
3CD26578
3D18723C
BD50018B
BC4A4B10
3D89A05D
3C5F0078
BAB08F73
3CB10027
BCF8F836
3DD3A030
3E17575E
3C157DA4
3DD0559F
3E4E6496
3D541BF3
3D10ECBD
3D84E66C
3C8DB44F
BD4098B5
3DB149DF
BDA8AD90
BD96E4B9
3DA79278
BDE42335
BD7D1D8C
3DB491F9
3CFC2DC3
3DC1F731
3D159E02
3D1854DE
BDA256F7
3C80B461
3C39D44B
3CA97EB7
3D36F086
BE0421CA
3D750544
3CC761B8
3D873FFF
3CEA7405
3D29D89B
3DCA61BA
3D96B012
BBC31CEF
BCD6F599
3E572EC7
3E46EA73
3E1EC67C
3D67122A
BC94062F
3D176B5C
3D73D706
3D26B0F0
BDB36066
BD98742D
BCCCA586
3D1D4B4F
3D95D63E
3CEDAE70
BDA4861D
3C46F5F1
BCBB1006
BC9F89BD
BD8B7887
3C8E7C25
BE020C3C
BD7978A2
BD2AE569
3BB49D9A
BCE73732
3C3C4D79
BD37619A
3CE154CF
3B85797C
3DD62C60
BD993644
3D47A513
3D02B35B
BD5DEBC2
3D8CB348
BC95F9CF
3C10CAEA
3C33D532
BC784ED8
3CB25302
3CB4F90B
BE278627
3D3D34FE
BD55AAC3
BA849F08
BC252CF6
3DC3572F
BD818688
3D8B92D1
3DBFA6D2
BDB706C6
3C81A80E
BCF710CD
3D6A7570
3DC61485
3D8B2D98
3C6289DA
3E00CE63
3DF8B644
BBCEAADE
3E1488C3
3D24A95E
3D898150
3D79EB7E
BD3ED3D9
BDA4DD22
3D81A937
3D3989B5
BDDC1196
BD771673
BA541FB4
3D17A251
3DBC5957
3DB57D62
3DC1DC4D
3DDEF0C2
3E0DB576
3D2EFC91
3D088E7A
3D1D73BC
3D308A44
BD067B50
3BD8B719
BCC3BA63
BD852C4D
BC33DD23
3CEBFCE7
BCF7BB61
3D5F532E
BDB50732
BBCC4F24
3DEC98D2
3DB12DAC
3D53774E
BC98583F
BD900D8D
3D4827FF
BD0B094C
BE07CD39
BDBD1D6B
BDB071D8
BE17F6AE
BD56C9B8
BD28C867
BDA3D21B
BD058B1C
3B482125
BDAD9504
BC7DAABB
BCD09285
3CDE3136
3D99B0BE
3CD980AC
3C837202
3D2A0BE3
3D58976A
BDE08382
3D7F2624
BD4ED1F8
3A05078E
3DD4A68C
3DB2473C
BCBC18D6
BB18E27F
BBE8ABBB
BE26D3A8
BE068FE4
BD3AEFE4
BE1F0298
BCC1A3D3
3D58BE76
3990C329
3BF6BFD4
3DE76FCB
3E175E16
3D9698BD
3DB40EF4
3DDEB084
3D03F593
3D2BE9DC
BDEA4952
BE76AA7C
BE2F0727
BE1B496E
BDE44221
BD7E5401
BD321D04
3D99B055
3B335C42
3DC82541
3CD2A571
BB0EB16F
3CACFD3A
BDF61BB8
3B86D548
BE36415E
BC117E1D
3C10778D
3BBE9338
BD3DE46F
BD4D41E1
BE14787D
BC286E69
3D3624D5
BBED095C
3D10CE27
BAB36A57
3D86DDD6
3CB7EA4D
3C3D426A
BDC2DA10
BDF2FDAF
BDBABA0D
3BD64A26
3D9AE247
3D97AD69
BD0CC681
3C5451CC
BDA9B5BC
BD67CB85
BD33CBB0
BA3A59CC
3D992F36
BD3A200C
BCCC1F51
BC429BA9
BD4BBF92
BC8620C3
BDB71D7A
3DC4F953
3D57FFB4
BD51F302
3D38757D
3E0AA03C
3E02147D
BCD2AB54
3D595E0D
3D3A4812
3DD1D988
3C9DE801
3D81EA6E
BE0C2F4F
BD26A8A4
BCE57C6B
BD6820C6
3CB3EB44
3D8493B5
BDB3F964
3E06ACCC
3B855B70
3C32604D
3D8E83FD
BCD4D47E
BE2AC36E
BDC0B127
BDA45C91
BD4EE895
3C5523DA
3C703A2C
3DA6D76E
3A7BAA48
BD34727D
3D67880E
3D0092CE
3C98FFD1
3D87EB59
3D45577B
BC14456B
BB0755B7
3DA2ABB6
BDAEC528
3D6E075C
3DA8D310
3C4DBAE0
3DA3A536
BC2D0416
BD0E37E8
BCF64AED
3CD6AB78
BD1BF2AF
BD90C206
3C559B66
3BFECFEE
3DC276A9
3DBD21AF
3D4D938A
3E097159
3D68063A
BD1E0F0A
BBDDBEDF
3D03E06E
BD3FF174
BB65C6E5
3D912514
3D907B0C
3DF64D99
3DC5E843
3D755A9B
BD0245B1
3DA27545
BD4AB9C9
BE171291
BDE84C70
BD529469
BD7357F5
3D685CFC
BD35131F
BB96A29A
3E023AAE
3D8FEBBF
BC8D2957
3DD04759
3D53F4C0
3D073EDC
3CECF73B
BD87207F
BD2EA3B8
BDC744A3
BDD72FFD
3D38A734
BD9023C2
BD80AC1B
BB7FBB84
3BC56DAD
BDE1A45B
3A3840E0
BD77BEFC
3CD1C68D
3D99BF6C
3DB4F633
BC58A26A
3B83D1B6
BD9910D8
3D22B664
3D84A872
3C344BE0
BD1DD7AB
BC514389
BC7ED692
BD0B65EE
389B43C5
BDC498C6
BD8865BC
3E30061F
3D8F2A4A
BCEF58D0
3DBE80D5
3D5A7589
3DD543E9
3DB9990E
3DF9A451
3CACB0E6
3DCC421C
3E143FE8
3DD6F7EE
3E234D59
3E226918
3DBBC429
3D3481A0
3DB4D01B
3D94AEEC
BDC915FF
BD421A25
BD3239C9
B9844FCC
BCEDB6DF
BC769541
BCC7D91E
3E17985E
BCEB44D8
3DD8D2E1
3DC4A7A0
3DDDB7A8
BCF7DFD3
3C944BE8
3CB6FCDC
3BA9EF49
3CD51D08
3D9BF0EE
BDA39353
BDF1F081
BDF0128D
BDEF467C
BD8679C8
BE239478
3CF15F13
BD38851B
3C271CDB
BD6D8FA8
BD249AD8
BCAF1E57
3D4C155F
3D7F1B66
BC81725C
BB3B96BD
BD3DC2B3
BDB14FC8
3D579C08
3C84D686
3D5B751C
3D496491
3D057F77
BD062B40
3DF48D41
3DBBDDCB
BC779006
3D11E6CA
3DCCEA1B
BC355703
3DAFE359
3D01A1FF
3D7B4B6D
BD618DB8
BD7D47C4
BCE1BCF7
BDACA439
3D320DBE
3D64FE39
BDC1C024
3CDDA43D
3DCF7EA6
BD8CEF1B
3C5D29E8
3A4BF4E8
BD018937
BCF4960E
3DE9F6DF
3D134479
3D774432
3B9FA231
3D05851A
3D819E78
3D953B6C
BD5E79F5
BDCB7910
BD3C7514
3CD07668
BB8714E1
3DABFF55
BD0F7725
BE1CA4B0
3D0E91F9
BD772640
BD6BE652
BD4BA621
BBFB2933
BDE745AF
BDE421C7
BE032144
BD0493FE
BD1DC092
BDB91E9A
BA2BA49B
BD8186E5
3CB255EE
3BDAF7AB
BD73F424
BCED1602
BCEF6287
BDF63B20
BD54575B
BD4FC990
BDB96409
3BAD51B1
BE14CED7
BE328C44
BDA92F61
BDD686EB
BD4F6596
BD4F1B8C
BD85C81F
BDB2F60D
3D028AAB
BD99BD78
BD42D045
BD5D1CAF
3D387C5A
BD8B131E
BDD483AF
BD74516A
BD2F7664
3CA72358
BD41E658
3DC5ABFD
3D8EAC41
3D128A8F
3DF07F5C
BCF37283
3DA3D6B3
3C9B8BEF
3D7A532B
3DA94A4D
3DC05F9B
3C7BFC68
BD32F3C8
3DAE5E97
BD2EF057
3CAEE925
3D874A86
3C673304
3CAD2A7B
BCF355F8
BD7DBF25
BCB7B9CE
BD60B76E
BCF7D5F7
BD6BC046
BD85EE6A
BDDB72B8
BE21E736
BD3B71B7
BB91DD1D
BDF8372A
3C3F5C7C
BD538CBA
BCF7CC85
BDAE64B7
3CBE550B
BBC27525
3CE832CF
BD6E0458
3D553312
BCD2A314
3E140D09
3DFB4ADD
BD2D0515
3E1E29E2
3D18199E
3E27C238
3D49A9F2
3E037DA4
3E44FD42
3E04837D
3E0F5C26
3DFC1F6E
3D6A5745
BC268FA0
3C84F50A
BCB4EDDE
BDB7F691
BCD0C9D2
3AA7B12F
BD34ED34
3D4CCE91
BD431C70
BC16AF87
3E170E16
3CE90D27
BD87913C
3BB8218B
BC5994B0
BCC6AA0F
3D3B5B8B
3C890940
BD939936
BBC34112
BDBDDA8F
BDA63D46
BCB5A8AE
BE227D37
BDB8C5FC
3D04FB62
BE14D28B
BD5EFB57
BC634EE8
BCBE3C63
BD937CCB
BD2E7CD5
BCBAE888
BCF47177
BC2F0A02
BDE9192C
BDFB258E
BE032D2B
BB5F3F57
3B6E8CBA
BD2A099E
BB14A4BE
BCAD81C8
BA9C196A
3B495C49
3C3CDB75
3D72B33B

