3A471200
BD1D5BD7
3CF30FE0
3C855D4C
BBF62DF0
BD35D6E9
3D62AA10
BD93270E
3C1A99E0
BD906E07
3CD811F0
BD566FE8
3D8F5586
BD960EE9
3D5E9FCC
BDA297C2
3D720B18
BCE5D06E
BD8E2887
3C524B70
BD7BC55C
BC824880
BD49DB44
3C4A8D38
BD044EA9
3C4C65C8
3C950508
BD89C639
BD9CE2C1
BD7C7FA1
BCB32692
BB9C40E0
BD9C2CFB
BDA218F4
3D265290
3C25E018
3CA306CC
3D8D84A8
BD79759A
3D980322
3C53D0F8
BD02A760
3C26D240
3D939CFC
BC091FF0
BCBD49EA
3CED50E8
BA831140
BD86C103
BC8FF864
3C93A310
BD69DBFE
BC9E0F3A
BCD026DC
BD262A06
BCC51F16
BC461120
BD2EB4BA
BD4706FF
BC78D0D0
BD8CC58E
BD51764E
BCDC7106
3C879F78
BDA2299A
BC354D90
3D8B7782
3BCF5DB0
3D9057C2
3D08DB7C
BCFF32EC
BD4E5148
BC8E2F88
BC275478
3D2C2E64
BD0B8AE2
BD6786D6
3DA42102
BD02CB76
3D83AEAA
BD909BFB
BDA14F7E
BC0D05C0
BDA2D434
BD790C36
BD322689
3C7741E0
BCE7B82E
BD826B9A
BD6025C4
3D9868C8
3C560F78
3C2EC158
3D8DBFCA
BD258945
BC78CE00
BD76CBF1
BD8638C5
BD296056
BD100358
BD35E51D
BD30BDEB
3DA1D3F8
BD240650
3B031B80
3D178BEE
3D40F4E0
3D5107DC
3C942E7C
3BA7D140
3AF65D00
BD6D6622
3D816DF0
3D9F26F6
3D9E298C
3C7BDF30
3D5EE160
BD0DEFB4
3D971910
BD81BF56
BDA0D6D6
3D4783C0
BCCDF5F8
3D3E7340
BD91B631
BD43C2F1
3C0E6448
3D80639A
BB60CAA0
3C6205D0
BD1D0FD1
BC0B5E90
BD14790F
3D826658
BCE4429E
3D700C64
BD0EA70A
3C0B75D8
BD24E51C
BD22C459
BD6E4D46
BCFCDBEC
BD640341
3CA8C790
3CB8A5FC
3D81C55C
3D6D1308
BD95EB44
3D168600
3C85BEE8
BD1AE5A6
3CC81FF0
3D38D768
3D90145A
BD60B804
3D93B108
BD149EAB
BC8DA1E8
3D7C4D6C
BC9394A0
3D31FF70
3CA63058
3CD3C090
BD53D064
3C7D5EC8
3C6B2F18
3D41827C
BD4F0A0A
BD831E68
BD6C9DFC
BD9F04C7
3D827F82
3D728108
3D6C6134
3D6B7FE8
3CCD5DD8
3D234400
3D3631FA
BD57E384
3D7D4700
BD1C8478
3CC4BDAC
BCC04EE8
BDA3082D
BD75F890
3C2A3858
3C21FCF0
BD148D32
BD861D4F
BD8F6288
3C8A9DE4
BD66A9A0
BD588637
BD5E3F76
BC808640
3D82C824
BD722A80
3D9A3BC8
BD51DEE4
BD8A3921
3D6A834C
3C09FD78
3D10085C
BB172A00
BD6BFBEE
BD0C9270
BD5DF782
BD82DA7D
BD7A1A0C
BD9DF26C
3CE3C440
BC749578
BD8E6DA9
BD1D4B12
3D90AC6E
3C1B0528
3D7DCAB8
3C6663D0
BD31B146
3D571408
B9C12100
3D632A28
3D1612D8
BBCEF2D0
BD4B57B4
BCF7227E
BD27DEF2
BC8771DC
BD0E08C7
BD4561B8
BCAA9620
BCA1B30C
BBB4F890
3D9E1A5E
3D6B0A94
3C7712F0
3C352C28
BCD57660
BD8A7617
BD6D64A1
BCC49158
3D8795B0
3D8E0916
BDA2ADC8
3CEB6088
3CE62BBC
BBAB11F0
BD3E4CEF
BC6F01F8
3D0C646C
BC770F28
BCFE39CA
BD859C26
3D9DA07E
3D674DAC
BD101F2A
BCE95714
BD0F6E3F
BD97CA7C
39201C00
3D821A10
3C90F32C
BD7AF31A
3CE57EB4
3CC413A0
3D1767BE
3CB95D54
BD8F693E
BD9B60D7
BC6A19F8
BD273A1A
3D31C6CC
3D0EEDCE
BD9210D9
3D5B378C
BD428390
BD8C9E50
BB77D020
3D8933F8
3DA14A2E
3D44AF70
BC151E88
3D901C7A
BD3B3EBC
BCB9836E
3CBDEEA4
3D828662
BD99EFCC
3D6EBB40
BDA407C2
BCEB3CCA
BD8556BC
BDA0FE55
BD4113C8
3D803F70
BA21B700
3D56FAE0
3D4EE4DC
BD241FEE
3D8BA608
3D60FED8
3BE87890
BCB7DB44
3BA34BC0
3CD7B3F0
3D20B844
BD4D0CCE
3B7B0D80
BD01B8E5
BC3F6560
3C138780
3D5641E8
3D5088FC
3D8CF594
3D121786
BD962D45
BCB21328
3D15955A
3D8D437C
3C7B41E8
BD8B3C17
BD0B9DC7
BC944812
BD64D22E
BD6F7B90
BC415208
3D6726F0
3CC0506C
3CC249D4
BD04FEBD
BD2C8506
BD875837
BC00BFA0
3D27C272
BD99EEF7
3C12BED8
3C3EEA48
BD4E8776
BBF5FA40
BBF61370
BCE9F970
3C72D660
BD8C0FEC
3CEDB540
BD8B2FB9
3D1A0E1E
3DA24402
BB9B2860
BCEAD5F8
3D603010
BC3B7C48
3D65313C
3D88D562
BD80AAC6
3D2D4046
3C9054A0
3D48E92C
BD945ED2
3D6E7FB4
3D2561FE
BCCA4D94
3D283556
BBD62F00
3D73F550
BD9E2903
BCB27012
BCE672DE
3D319D9E
BC45F890
BCCB70B8
3C2A6DC8
3D12A696
3C15AED0
BC6BA760
3C521EA8
3C6316E0
BD44C0A0
BB01DF60
3D8AB8C6
BC221F08
3D1677DC
3B58B720
3B12EC40
BD9E66BE
3D2571FC
BD7F5580
3D4B08D4
3D1AF584
BCE73EAA
3D9DD080
BD90017D
BD67AA8B
BC10C800
3D831234
BD14A083
BD288CFF
BCC3460E
BBA33210
BD9631A4
3D940658
3C12CB30
B8986800
BD631926
3D6CC6F8
3D910296
BD9DCF8D
3D7A7240
3CB7D6F8
3C9F1700
3C78B548
BB726FE0
BCE68AD2
BD41D3FD
BD4F0214
3CE57E6C
3CDA1A6C
3D33969E
BBF4A540
3D3E69A0
B8266800
3C7EC108
3D802020
3D843CDE
BD581A0A
3D03035E
3DA37D74
BD82DD1B
3C0DE2B8
BC511CC8
3DA3871C
3B4B7480
3D722B70
BD8726DF
3D878A00
BCCB5158
BD9A4832
BCFFE6B0
BD210BAC
BD95E42A
3BCBE7E0
3B961BC0
3D854738
3CDBE540
3D904186
BC9D774C
3C8BE9C8
BD424DDD
BC3B8340
BCE24ED6
3D1ADB76
3B95D430
3D24E36C
BCA09ABE
3D3CBE94
3C59E090
3D781F08
BA670200
3DA42774
3D8AA634
BD8CF3FE
BD2C3530
BBDAFB90
BD325E05
BCD88E94
BD28A084
3B5B4200
3CDD1630
BC3230D0
BD3BD8CA
BD26F16E
3D90B0D0
BD20CB43
3C6232C0
BD102EC0
3D0B2B7C
BBA62D50
3D52CA14
BD40D902
BC4AE588
3D12E794
BCCB1CDE
3D3A2EC8
BD20411E
BD9C872F
BCD333EA
BDA358CB
3CEBE4C4
3D974E4E
3C54C840
BC3CA7A0
BB145EA0
3B3E90A0
3B22B5E0
BD7D57EC
3D1CE57E
3D908834
3D729338
3CBE4314
BD98B0BB
3BCAE440
BD281A7B
3C4D4340
BDA33091
BD10204F
3D93A302
3D90C6A0
BCD4AC0E
BD7D1756
3C88BC78
BD816738
BCFF78C4
3D57CD84
BD69F9C2
BD12B5EA
BD4DCAEC
3D862960
3CDAC08C
BD4A9262
3B1D5EA0
BD879C06
BD3EE154
BCC77528
BB5BECC0
BD34F59C
3D515974
BD9E86E6
BD5E46C2
BD80FD7C
3D067744
BC9C5152
3D11CB44
3CD60E6C
BDA1AD20
3D9A9204
3D6109C0
BC9892AA
3CB05694
BD212BF3
BD91C623
BD9089CA
BD9EA1E1
BD8642EE
BD9E0147
BD251A7C
3C303F70
BA44ED80
3D2727DA
3BB052D0
BCDA4A34
3D6B78FC
3D85A902
3C2AD358
BD6D65C0
3D30138A
3D93D288
3CC4E258
3D954710
BCB5F178
3A391F80
3D807066
3CE0F19C
BD38483A
BC9EA934
3C9E7488
3BFC4F00
3D93972A
3CB53058
3D51A134
BAB53500
3C397750
BD1443F1
3D1EA7BC
BD2A7FAF
BD4DA565
3CDCCCBC
3D320FE4
3D16D560
BD901722
BC4A1048
3C0ED7D0
BD917068
BD4B28C4
3D9FA7DC
3D6CC270
BD16C8F0
BC12B6D0
BCDD802E
BC0817C8
3DA3260E
BDA12E4E
3C5365A0
3C141D28
BD945C24
BCA2E750
BD31EF50
3D7E460C
3ADED3C0
BD9DD91C
BD0B1A12
3D4D5FF8
3D12AEF4
BC84077C
BCB42992
BD1BF449
BD8DC1A8
3D8B9682
3D6E6BA4
BD0C9B7B
3D4AAF08
BCF6C438
BCCE6E0C
BD4A58C6
3D9FF9E8
BD1D7F39
BD13338B
3D00A78E
3D980176
3C4FC250
BD8125C6
3CB980D4
3B80F1F0
BD641B20
BCE156A0
3B3A5520
BD8F4397
BDA2554D
3D15D79C
3CC08BCC
BCE0D1D6
BB827C60
3B3AA0E0
BD39ABCB
BD5A2DEC
3C19B348
BD904A98
3B284F40
BD563110
3D9A497A
BC8AF9EC
3D88C9C0
3D3F31F8
BCBCED52
BD029B43
BD333ABF
BC1D8A68
3D4D077C
BD83E1F4
3D80EE1C
3D7E3524
3DA14170
BD7381CA
3C9108A0
3BC32AF0
3D3353CE
3D747568
BD19B450
3C805BF0
BD90BEB4
3D6E8178
3D6E9730
3D85B0B8
3D81BFDC
3C33B8E8
3D8F5BBE
3C301698
3DA1400A
3D78EDE8
3D80A4D0
BAB88A40
3D2059AC
BC9D7E72
BCA6584C
3CDCEB80
BD2F0E40
3D63A3D4
3D37CA14
3D847B22
3C43E6C0
3DA08F40
3C5DA208
3C3E7550
BC89F68C
BD517690
BD8250FE
3D6026C4
BCA58428
BBE00380
3A0C1B80
BD921857
BCFC03C4
3D449C5C
BCAE5406
3C878FD4
3C373658
BC61B100
3B84CD20
BD2F6CB5
BCC1A93E
3D22A624
BCC7D9C6
BD9325A1
3C99F238
3D93D0B2
BD9B817F
BCC7F19C
3C8EFE2C
3D7F604C
3D935010
3C78E190
BD86AB7D
3D110490
BC858BD4
3D8F3FD0
BD271B97
3CB11C00
BCCB1284
BD483913
BD9A0C6C
BC460898
BD854556
BD692E80
BD1DEAB8
BD86F699
3D9881C8
BD5F62A2
3D31C7C8
3D648FC4
BB93B1A0
3A92F640
3D562D8C
3D05BC36
BD644CB6
3CC87B94
3C036A30
3C2A0CC0
3C306B90
3D129AA2
3D4B102C
BD87A30B
BD866632
3D5383B4
BBCD5B60
BB60E7E0
3B1797C0
BCFF7094
BD8DCFE3
BB82EBC0
BD0FA713
3D6BF3D8
3D5B30AC
BD38E70E
BD9B384B
BBAC46D0
BD6956A9
BD1BCC96
BCFEDEB6
3D0C66A0
BD3DF6B8
3D84C986
BD641132
BD3F2084
BCF4B26C
3D258F16
BD714AE7
BB52B0A0
3D30DDDA
BAB77A00
BD06D6E8
BCD1DA18
3BFFDC70
BD7349F6
3D3CC8A8
BD3815BD
BD52D96E
BC441440
BC4500B8
BCC464C6
3D8E8B7E
3D04FB96
3C327C38
3CD31864
3CBDBBB0
3CD4BD58
3D122BA6
BD0ADBBA
3D7EE570
BD59D917
3C750E20
BD540352
BD63FC6A
BD9EED30
3D4A5F94
BD830B08
BD939184
BB884250
BD7FC114
BCE197C6
3CBB7F00
3C965240
3D65268C
BCFECD06
3C4FFBB0
BD00F47B
BC5E68B0
3D8910E4
BCC22D3A
BD8C2C70
3D2B1332
BD49AB62
3D9FE106
BD578288
3D9D80D2
BD22D53D
3D60B578
BD933EB2
BD002958
BD0AFF22
3D87013E
BD908991
3D7E3C18
BD5D4C91
BD8010AC
3D184660
3D190AD0
BC84E438
3D223942
BCD4AD58
BD497D97
3D2F5D42
BDA07365
3D0BB476
BD5CA254
BD80C365
3D5F5C6C
3D8D9492
3D80A502
BD8F5B80
BD11547E
BC887DD8
3D4FF420
BD3374C7
BD9E47F9
BD09412E
3BA8FB60
BD8A4CE8
BD0F2DB2
3C7DFEB0
3C86A794
3D6FBA80
3DA44C0E
3D9B78CA
BD96C4ED
BD6BE874
3C0A8B28
BC0FA6A8
3BB0F9E0
3D2A5F88
3D662C20
BD513C32
3D43AFD8
BC908618
3D8B1128
BD4127AE
3CC1E858
3CFB7784
BD876A2D
BD8AC459
3D8168C6
3B2817C0
3D5BCB94
BD929AD0
3D90E062
3D540F50
3D395D94
3D736D08
BCD53950
3D48DCEC
BD59C82E
BCAED70C
3C7D2F60
3CB1D2D0
BD95334E
3C804E9C
3D460850
BD352EB2
3D81DA6A
BCC71484
BB9B8570
BD9507CC
3D81586E
BC858804
3D850F4A
BD8ADF92
BC15D590
3CB4EE64
3D73D934
3D9E8E54
3D466BB8
BD7A4085
BD9152C0

