3E9D040A
BDF845F4
BE840B9E
BEA414E2
3DA9FAA2
3C462E60
3E9E9678
BD810995
3E63C1DE
BEA07797
3DF2C20B
BA7DE800
BE8C684A
3E91DE76
3F5B83C4
3F35FADF
BCD455B0
3E896BBB
BE92BB89
BEDB9EEC
BE1C9E73
3DB8E778
3E731F3C
3EA09AFF
3E6AB3EA
3E9DFBF0
BE7337E8
3E8E65E9
3DE1B8E4
3B8F0440
BCE6CAA9
BE8EC140

