BD00B112
3D329CD3
BC28AAF7
BD0F816D
BD8CB5C8
BD49EC6E
BD8F3947
BD1827F0
BD63B281
BD999F4E
3D259867
BD0325A2
BD16CE9E
3D13C686
BD7F16AA
BD6CD5CD
BC3F76C0
BCE6826E
3CB83FD5
BDA4A632
39685F1E
3D4E3D7F
3D29574F
BD36F444
3CF026B8
BBDCEDCC
BCBF5270
BD880EA4
3C24884E
BD9FBA85
3D40D122
3D22BF00
BD7C5F6B
3D3EB50C
BC81DE47
3B004AE1
BCC95787
3D7756E9
BD1F6F87
3CDCDA9B
BBA6F538
BD91B7E4
BD6892F1
3CFB593E
BC69AC7C
3D334F9A
BBC550A7
BD2AE801
BC77968E
3B203F00
3D1703B9
3D6C1B2F
3CE8DD8C
BD97872F
3D8B2350
BBF54BE0
BDAB6768
BD2595D1
BD08550C
BC905443
BCF3A30F
BD6A3DD5
BD742A47
BC545A04
BD84746F
3BFAD823
3BE0F8BD
3D87C7C8
3D6E61B1
3C26F005
3D636E80
3D947CEF
3D6037BC
BD49B5C7
BD812A82
3C5F8AB5
BD74A1F5
BC747521
BDA465D8
3B87B5B1
BD10A7B5
3B8D67E3
3D315AF6
3D1B56E5
3D8D0C3B
BCBF10E8
BCC8AC50
BC8C9903
BC5FBF76
3D038122
BC9280CF
BD8AFF59
BD159F09
3C75938B
3D82CAD7
3C657F54
BB11A3F5
BD45B77B
3C5EDB28
BD9345D0
BBEBF418
BD120F08
39E3A412
3D2A9E81
3D188E0F
BCD58E31
3CA272A7
3CBEFB20
3D562B23
BCF7B21C
BDADC874
3D31AC99
BD348109
3CB3C658
3C89F0D2
BD324CCF
3C1B393E
3D20F4C7
BD879166
3D89EF18
3D36DF3C
BCA4F83C
BD278F43
3D086BB3
3D87261F
BC233C64
3D672D1A
3CDE0E16
BD0A9EC4
3CA967F4
BD223487
3CE2D9F1
3D8DA4B6
BD219092
BD7B0011
3D6AED46
BD04DD08
BD60D22E
3D8BC295
3D72547B
BD72AE98
3BD8E6A1
3D3AF832
3CDCD647
3D67244F
BDA28490
3D63EAE8
BD703CB2
3D84D21B
3CBDA9FA
BCD61997
3C4168C1
BC92B205
3CBE6A26
BD7D3C91
BD7B7FEF
BD9D24B3
BD6339FE
BD2D3FE8
3C8F4042
3D2DA714
3D82FFF9
BD2F1F7C
3D38A34E
3D499DEF
BD9A30CA
3C9F4813
3CEDE760
BCBF8437
BD86895B
3D54D113
3D22E2D0
3D863E12
3D59C037
BD30D2F6
3D8338A0
BD8BFF5D
3D7EB36B
BD0324DF
BC6BB648
BD839601
3D34AFAC
3C8580D8
BD2D6890
BD48F64D
3D3833F4
3C629D64
3D40FFF1
3D90F823
3D757D6C
BB40CA7E
3D8837CC
3D71E732
3C51BFE3
3C8DBC91
BD5A40BE
BD881606
3D8479A0
BD8F2891
BCFEBD78
3D1875BF
BC1AE5A8
3D884CE3
3CAB5A85
BCABA285
3D8F8525
3D7F514F
BD13233E
3CA6BFF2
BC9415C8
BC6B13E6
BD017E5F
BCDA70C6
BD98BE9B
BDACD29F
BD82AB1A
BCF56635
3CCE4B0E
3D73BF07
BCB59357
3D5A253B
3CA09FDB
BB453E54
3D442CFD
BBD80D59
BD9E7141
BB34F05C
BD9005D7
3B5503CE
BC62D147
BCCE1C96
3CE01FA9
BD31FF77
3C311607
BD84A43D
BD3F2DC1
BD2C6358
3D5363E6
BD4A0BA6
BD984881
3D8988C4
3D1A83A0
BD4141BA
BDA7462C
3D8BA59E
BD4FA9B6
BD0245AF
BD9529A4
BD9A47E0
3D1A9A58
3ACF1142
BB649E4A
BD2428F3
BD66ECC5
BDA71393
3D12E6FD
BC81E61A
BD9BB171
BD984960
3BDB16C2
BCE0D99D
BC62FC7A
3D8022D4
BD934DCD
BCAAC8EF
BD3587C1
3CDDC54B
BD00AA4E
3C2BECFB
BCC4148A
BD8431C1
BCD9C505
BD00D57C
3D183DF1
3D1B3E50
3D60CC4B
BC848974
BD4046BC
BCDCE2C5
3CF7949B
3D903CFE
BD754F3D
BD5CDF95
3CDE7680
BD38D322
3D716AEE
BA5FC929
3BC2673C
BDA5ADB9
3D4494C3
BDA72A79
3C77F5A9
BC7B620C
BD32D1B6
3D13C380
3D93724E
3C41FC8A
BC840DBC
BCD6065D
3CE2B8A9
3D4B65BB
BD08DDA4
BD5658C2
3D8746DF
BD8156DD
3D87BE64
BD922ABF
3D98EB04
3D132308
BBEA3C69
BCD33787
BC3F980E
BD94047B
3C6B84FC
3D813C9E
3C9AE8AB
3D765706
3C8A0C18
3CBC2717
BD71B0B5
3C22AD6A
3D4F99D4
3C39631E
BCBA1828
BD72ABD3
3C5800E1
BD755D3F
BD5ECCB8
3CC001E7
BB03A1DB
BD9C815A
BCF4A29E
BD1ACCFD
BCFF4663
BC8F9162
3D31CC4F
3D4E8B4C
3D7734C5
BD4A167B
3D3146E7
BD89E412
BD4DCDD7
3D096A74
3D8629C9
3CD37914
BD6E1E5C
3C92598B
BC805DB1
BC9C6A91
BC5521BF
BD8E65B6
BDAD8FB0
3D3CB7F8
BD3AD3EA
BDA9F939
3D976283
3C0F7F42
BD7CAE12
BD0F02CD
3CC68708
3D883D87
3D59C10D
BD863DFD
3D3485BD
BD9BEE45
3D8F4CB1
BCE76BEF
3D6FA1DA
BD95DB20
3D170213
3D6C3FB9
3CDA3732
39D1326C
3CF2D5E4
BD60F8BC
BDA8BEDA
BC8D46D8
3D8FCBD8
3D0CE2E8
3D212C95
3D905B6D
3D8B0C96
3CABDE52
3C4C0971
BD8BF834
3B6C2C20
3C5E01AF
BD9899D8
3AB4D289
3D598696
3C3EFB20
3D3B3B9D
BB83450D
3CE8E8B9
3D987444
3D6F26EB
BD24E1ED
3C8EEBE0
BDAA4002
3CB76228
3D221D08
3C80BAA1
BD49A2E7
3D3AA27A
BC894B3A
BDB0D409
3D7DBEAE
BDA85E8D
BD996CBC
BD301716
3D5AB0AB
3D6F55E6
BC83F882
BD8FAE4B
3C87A553
BCEE4011
3D7A856A
BC1CBA66
3D298302
3D8E1AE2
3D385145
3D858D26
BDA485CD
3A1BF768
BC880712
BDACB315
BCDC21CC
BD49808B
3C0F17AA
3D1DE90A
BD1C308F
3C8E686C
BCCE419F
3CD4887F
3C98F1A0
BD7DE502
3D2B7FBA
3D199917
BD4633DE
BD9BA021
3D88F389
BC6602E9
3CEFB1BF
3D00CDBC
3D90E38C
3C70A8B1
3D97B41C
3CBAD70D
BD3FF30C
3C953C4B
3D05A047
3D948F28
3D84616B
3D86DABA
BD325B16
3D23B901
BCE78973
3C8FA530
3D86F88F
BDA66D03
3D0A8C85
BDAA7B80
3D1B8B8D
3D534A33
3D8CAC4D
BD9A11F8
3D3FA846
3D129280
BC8A5629
BC87707E
BD9C8CD2
3D81D52C
BD2F91CD
BDA8084A
3D60AE53
3D6B9CFB
BDB04414
3D080EB1
BD9AB349
BD7392B3
BD07891A
BD004862
3BC6BDCC
3D0C2373
3D8C81AF
3CCA6958
3D878706
3D85846A
3D7C4450
BD831E78
BD340507
3D5F4B80
BCBF3422
BD1E544A
BC8BDCD6
BD8CDFCE
BD4EE9C2
3CED1338
BD912861
BDA9143D
3B2B0C12
BD6DDB37
BD518820
3C89BD3C
BDAD72E6
3D296B5F
3CC73C2E
3D0F85DB
BD81CB3A
BCB0B0CC
3D5DE08D
BC0B0115
3D6E3B45
BCAD070E
3CEFEFBD
3CCA2748
BD6990E8
BD74E0C4
BD5DC4C1
3CCF9451
BDA2C4E9
BC9C7870
BDA17D10
3D10B0A5
BDA1344B
BD77352C
3C3A7511
BD64212B
3A9CFB1E
BD99FA65
3D2ECEF8
BBB2ACF9
3D37184A
3D1BF407
BC1F0BA9
BD6FF03F
3D3FF326
BCCDD738
3D0D4980
BD5F4ECF
BD8099FE
3D6F0E5B
BC7EE12E
BCB0B704
3D5BA147
BD562CEB
BC15809F
BC7269F2
3D47431E
3C96B76B
BD803693
BD359F3E
BD51EAA6
BAC2F521
3D07418F
BD98FD88
BCB8F16A
BC943968
BD8B329A
BD8FD402
BBB8422A
BC3D1098
BCAF2629
BC98C8BE
3D8A8E26
3D3C8088
BCDC4104
3D5FDD57
3D35AC06
BB355925
BB874FCC
BDB0278F
3D0AA9E3
3D4BCA8A
3D0BC42A
BBBE12BC
BD2923A9
BC6A968A
BD0E79FC
3D30C0BF
39225C5C
3CF885F0
BD7134CC
3D5A0C2E
3C469F94
BDA26E3D
3D3699AC
3C2D3E1B
3D432269
3C6FD57D
BD873C13
BD1C089F
BDA524B6
BDAF0254
BD97C466
3C214940
3CF0B64A
BC8F7B48
3C5B5BB5
3D658393
3CC4AC70
3D25B885
BD905EAC
3D23CF79
3C364376
BD667465
3D570C51
BBDCACE9
3D7C23E9
3D4106C9
BD828697
3C19A52E
BC0D52D5
3D2866A6
3CEB6772
3C06DC44
BBB2229B
3D8B36C1
BDAD6F3B
3CC3339B
3D7F83C4
BC22FE2D
3C38611B
BD6E07AE
BD8DA98C
BCCCD454
3D8CAE6E
3D2CCA3D
BCB605EB
BD6C2EEB
3D303821
BD596F1F
3D84ED93
BC8916F7
BD622F09
BD137467
3D10EBF1
BD5D9B97
3D750BED
BCEE10BC
3A9FBC34
BDA6ED30
BD8480E6
3C73727F
BB8BE045
BD82C0A6
BD55D830
3CA4A7CA
BCEC58CA
3D5413D8
BD0F7433
BD9C962E
3D3961FC
BDA5E410
3D24A18C
3D72B49D
3D38A7DF
BCC9C73E
BD0B002B
3C226178
3D8ACD20
3D37B5D0
BD39C586
BCD9BC60
BBE203A7
BD33CB91
BA5C63E8
BDA1525F
BD9EB52B
3CD50F0C
BC80B3FF
3C7C5BAB
3D84A2B3
3D56C384
B9AA9E34
BD9A86E1
3C651844
3CE12F97
BD59C0B6
3D113E9F
BD8A389A
3D15DAC6
BDA3A138
3D3064C4
BD31E551
3D7E3D5F
BC8B85FA
BD7BDFF5
3CAEB90D
3D861836
3C9BBEF9
3B9753B7
BDADAB45
BDA39850
3D4F2E67
BD055E8D
3D6EA254
BB0C7641
BD7C0271
BD8D736A
BB334A06
3D5E922C
BD2D2A5C
BDAB80B5
3C4D0B90
3CE45E0E
BCC26BF7
3D062551
BD5131FC
BD9A0080
3D40D326
3D7BC949
BD2D28F3
3D49E27D
BD8F4FCA
BD0BCD1D
BCFE0CDC
BD2F267C
BDAC2786
BD6B01BC
3D02514F
BD9660F8
BC7F495C
3D518358
BCF291C2
3C5F1425
3CA27233
3CCA3153
3D2658B8
3CDDF0D1
BC1B2CFA
3D5A82A1
3B18D0FA
3D937FDE
BD1B10A7
3D405AF2
BD3561AF
3D6925FA
BDA05D44
3D59175F
3D8D3611
BBE0C90C
BD49ED31
BD5ACDBE
387356BD
BC562B3E
3D84323B
BD937C46
3D3080F9
3D6B7B34
BD604923
3D6CFE25
3CEDF3E0
3D4063B5
3D41746E
BD6C6D48
3D90E3E4
3D1E54EF
BD45ED0E
BD490F98
BD203E5D
BC2C7FFB
BD97A922
3D43917A
BD01F027
BD3BB106
BD8722A6
BD90C264
BD72C1EF
BDAA61CE
3D6E85E1
3CEC310F
3CECD01F
BD22D761
3D456BC9
3D6D002C
3A9B5812
BD2BE36A
BD3F9B68
BD4E10F2
3D942ABF
BDAC8EFA
3C8CD16C
3D6DB129
3D0C8348
3C47B439
BCD9DC33
3D9236E6
BAFB4368
BD316B4C
3D8ECD43
3D5A81EB
BD57CBB5
BD84BFAE
3D4D2248
3B9C41AF
BD60BC23
3D201B30
3C946D6D
3D487778
3CD3DF7A
BB197D40
BDA95D15
BD5AE394
3D5B0476
BDB01B3A
3CA1BC46
3CE4578C
BC20BD81
3C96EB8D
BCC52682
BD9252E5
3D62A67B
3C974256
3D402AA7
3C43F673
3D73046E
BD3AC64D
BC9A3110
3C40CF13
BD862C8C
3D361EA2
3D9208EE
BB328013
BD212AA6
3D8D4E40
3D2250F7
3BD14731
BD32A772
3B9B23B8
BB4D5E58
3D8C1B2D
BCC44CEF
BDA25F25
BCB469F2
3D0A0B62
3D35B781
BD5B2CB6
BD8AB183
BB6BA0C8
3D809A33
BD37BD70
BD309A83
3D3A49B3
3C67B4D1
BBD0CE7E
3CB90ECF
3D651395
3D5F5AB7
BD837105
3D824549
BD8B6ECB
BCC4E057
BD37F57C
3D5B9365
3C6C176E
3D3C1837
3CE216D0
3D2A41D7
BD350ACB
BDA0271F
3D97C39B
BDA486B7
BD8E2274
BCD91C57
BD94788E
3D4B8081
3D30AE7F
BD8989AA
3CAA16FB
BCDE6DF2
3CCB84F0
BBD3E9F5
BC25D4DD
BD8B7022
BD698BB1
3D585774
BD011D6F
BC07E705
BD87B117
3C9FE386
3CFACE74
BDA1599F
BD3337DE
BDA22A20
3CA1C398
BD96E1C9
3D218641
3D7EB01C
BD033FB1
3CCCF9C1
BD328DDF
39DBE73B
BDA9AC33
3C1B99D0
BD4D0E1B
3CF77DE8
3D23EE4A
BB85678F
3C198DD2

