BE9C2CD3
BE27C646
BDA8F502
BE671534
BDE7D4DD
BCF9A4A0
BEE4D4DF
3E50A8FC
3E8810EF
BC644AA0
3CA9BCF9
BE9A7915
BD6A3206
3CBEB1A4
BE8BE203
3E9DAA7C
BE408E51
BDDAFCC0
3E286431
3E7D5036
BDCCF358
BDC3CC02
BE8361C1
BC2AE4AD
3EA9DF6F
BF01EFCB
BE9A360D
3DED17B6
BDE5A7BE
BDADA546
3EB791E1
3D4193CB

