BC86E9BC
3D4412A4
BCF39D68
3CCB192C
3AA67800
3D80FB98
BD4F8A1E
BC335F10
BD5D5286
3D4FAB98
3D97E0F8
BCCFDB3C
3D2BE656
BD9A321C
BCF36150
3CCE2E80
BD62B9AA
3D9297C0
3D93A62E
BD8147BC
3C33DA78
3D74FEFC
3B35B8A0
BCC2981A
BD331B51
3D0F4B20
3A708700
BD417C9C
BA7D9B00
3D86BF26
3D91665C
BD8EFF97
3C0EB1C8
3CCE9D04
3BB0AA70
BD198CA3
BC9314E4
BD6A2472
3D2E3FAE
BD9A29EB
BD93429E
3D49C734
3D282128
BD2F7138
BD4C2357
3D85CB36
BD689906
BC711018
3ADABA40
3D6C84E0
3A7FB380
BD73F1B7
3CDF49B0
3C8CACA0
BD9B0C24
BD9B0698
3CF6F2C0
3D015E0C
BD6FFC38
BD010F1E
BC281A40
3A742C00
3D2FC64A
3D1B9596
BD3CEF54
3C313638
BCD9044A
BD9EE7D3
3D9387C0
BB99DAE0
BCF1F4E2
3C8E2374
BB2875C0
3D751138
BD13AE48
3D0C5DFC
BB1207C0
BD7035AB
BD85430F
3C55A040
BCA8F998
BD91A524
3D5FDC68
3D00BD9A
3D8D7AF8
BBC5D870
3D4C1E24
BD9CCF23
BC57DA18
BD51C74D
3CA40B88
3D7ED018
3D5140C8
BD3ECB53
BC8ECAE8
3D548BA0
3D07C250
BBE35E80
3CFE0664
BD872999
BD42CAB6
BBFDB2A0
BB12E000
BD47E31A
BDA09AE4
BD976012
BD3A8C3B
3D800FA4
BD95E247
3C888934
BC220BE0
3CFB0F5C
3D99EA1C
BD9A68F6
3C8D7E9C
3D090C68
3D3F0240
BD415E6C
3CC613CC
BCFDA56E
3B1F9B40
3D8815FE
BC5EEE78
3C959D50
3CB35020
3D1AB0F0
BD9C73C7
BCA29036
BD3014F6
3D2578A4
BD29911A
BDA0E087
BD5802A6
BD0E8E87
3CFEF8E8
BCE0DE64
BCB866A4
BC836070
3D6BE658
3D4CB6F8
3D59E8C8
3D6CEA50
BCB96D54
BCE3F6EC
3CEE4110
3CF9E29C
BC7F5C98
3C0E7FA8
BD19A88A
3CA958B8
BD885DC6
BD6783D4
BD96A965
BDA258E7
BD068B4D
3D618FF4
BC852A64
3D70BA70
BD6B809C
3D76FF4C
3BB0D810
3D06824C
3C280138
BC8135C4
BBA295F0
BBE68750
3D7EEEC8
3D9DDB58
BD895169
BD9AC503
3D9DE102
3D198DDC
3CEA7F30
BD2E153D
BD1D94F3
BD025B93
3D340AA4
BD0C8F4E
BD8D018B
BD144380
BCB38D12
BD384C0F
3D8C983A
BD7B1017
3B8A68C0
BCF3708E
BC527110
BD407B93
3B23DB80
BD6E1477
BD599D74
BCF78C68
BD8F0B1D
3D907762
3DA3B0B2
BC7C7418
BD8B63DB
BBE04310
BCBA72B2
BD5AFBD8
39C44700
B7AF9000
3D4EF9EC
BC14B8A8
BD0AD280
3D5A1314
BD17E3AB
BD9E3D3E
BD26913A
3D8E7A3E
3BBA13F0
3D80AB24
BC699610
3B7ECCC0
3CD7C410
3DA2EA56
3D8EEA02
3CE0750C
BC5A6988
3D7F414C
BD64D4A6
BC8CFB8C
3CD1444C
BC44AC60
BD4469CA
BC6BD158
BC2E6688
BD820332
BD37C0BB
3D34F69C
BCF3B9D0
BD57ED6D
BC7C6C38
BC87A7C8
BD23F1F9
BD05D7C1
BD1EF5D3
3D882706
BD77F124
BCD645FC
3BC85DE0
3CE07FF4
BD9E5A6B
3DA412EC
BD9CD0B6
BCFC640C
BD10F2D9
3B334020
3D4100A0
3D89076E
BD5BBE37
BD9DC8F6
3D2EC44A
BD2656B1
3D7A98CC
3D9A5C98
3D675D84
3D946E92
BC0D39D0
BCD25758
BD16F49B
BD6B0549
BD594FE8
3D91B0F2
BC9AE5EE
3D162382
3D8658B6
3D6C54E4
BD99D182
3CB985EC
BCA06928
BD49B38C
3C411E48
3CAB6CC4
BD9AEBCC
3C2709C8
BD4FAED8
3AFC3C80
3D10B586
BC99FF92
BD8962FE
3D95A4C0
BD8D7C62
BD1FDA9E
BD831A93
B8AFE000
BC84BF50
3D64AF20
BD8873B0
BC6B7DE8
BD3D1196
3D708B4C
3C79B458
BD79C318
BD127FF9
BD80C668
3D5D29A8
3D00868E
3D4035B0
3D1117F4
BC5E3108
BD600004
BD40642A
BCE52E84
3DA377A2
3D18FBAC
BDA3F74A
BD31F30C
3D4B4F64
3CF23684
BD24E00D
BD00E97D
BC959518
BD3EFB82
3A8D89C0
3CEC3E4C
BC87D06C
BD6B3B8C
3C577A88
BC4702F0
3BC89570
3CA44864
3C222928
BC14AD18
3AED5300
3D82E352
BCD61F96
BD95D056
3D490578
3B8CE100
BD5F12D2
3BF20F30
3D9B3AF8
3D5080C8
BD16330E
BD4162F4
BD309CC2
BD81C817
BD4891A8
3D16A496
3D1D91B2
3D2F99F6
BD8BEE74
BD53B417
3B677240
BC589520
3CDBA71C
3CB53D58
3CB71F14
BC7F5ED8
BCD54E0E
3D7AD3D0
3D65230C
3D06E0E4
3D03B07A
BD76DAF7
BC807C6C
BD3577DA
3D1BF76E
3D94AD82
BCFB06DC
BD941D56
3B49F1C0
3CEB24AC
BCFC5E6E
3D66FEBC
3D723930
BC8F8C1C
BD9D3FD9
3D0192D8
3AD65700
3BD78EC0
3D54D618
3D1E3110
BBCBF540
3C3EE070
3D7E295C
BD3EB82B
3D3F9EE4
BC9C7C3E
BB7A5FC0
3D2B3A88
3C301BD0
3D10D9A8
3D609A40
BCD27670
3B066800
3D20BC28
BC79B8D8
BB99B910
BD9C496F
3CA82738
BC76D030
BD9C1180
3D655318
BD214BF6
BD9142DD
BCFEA8EA
3CE30FE0
3D81D62A
3D3EB064
3D7D8490
3CD4722C
3D8093FC
BD6B2250
3D2DDD22
3C5349B0
3D067E72
3D2E6BC0
3CF36DFC
3D57FED0
BC647F08
BBCAE2B0
BD296B83
BD601A6A
BD38835C
3D954120
BD0C0D25
3D95E158
BC892998
BC65AFF0
BC4CE6A8
3D859C7E
3C4700C8
3D959148
BD98085B
3D861DD0
BCA84898
BD9DC3FA
3D79B15C
BD7473DC
BC7701C0
BD13D4E0
BDA33842
3D9B7540
3D6AE01C
BC809FF8
3D595F30
3C831324
BD24DB4C
3CE02AE8
BB1FA3E0
BD4E0A30
BC975B96
BD8068A8
BBDC5680
3D3E473C
3D85663E
3D903972
3CF31320
3B013400
BCB4CEA8
BDA025A3
BD925F30
3D03A36A
BCF70962
BD19D8EB
3D329538
BD651C76
BAEE7340
BC97B842
BD47FA4B
3C94D654
BD2876B6
3D6E1DF0
3B9EA320
3D5710BC
BD0B062C
3D669F94
BC926FF8
BDA36221
3C9927BC
BD3DD466
BD08D9F5
BD711C9B
BCCFC78A
BBA6E960
BD5074DE
BD17520A
3D5AAFE0
3CC47FE4
BD6B8686
BCA8DB26
BD7143BE
BD0B996D
BC8153E8
BCBFB64C
BD31F1FB
BD909770
BC85B5D4
3CED2B84
BC76F6C8
BD44BD37
BD5D4495
BD82970A
3B770E40
3C456AE0
3CDD58E8
BB707F20
3D7AD844
3CCC2FE0
3D469A94
BD4645F8
BD998253
3C60C868
BD157667
BDA2B5A2
3D9BC7EE
3D3ABCEC
3AE3AA00
BD7DCFA8
BD213C32
3D2AFB3E
BD869B80
BD9C44BD
3D1E672A
3CB28B1C
BD8A1E9A
BC87CF18
3D802DC6
3CB10B44
3D705518
BC8726F4
BA85D880
3D8B33FC
BD6842E4
3B327E40
3C754098
BBC314D0
3B630A60
3D841916
3D4C6EB0
BC241E88
3C4AA800
BD49075C
BD0C9EA7
BBB58F70
3D0C7952
3D21FFF8
3D1C9D4C
3D229B58
3C83E8B0
BD11C5DE
BD4F12FD
BD15B401
BD5404E3
BD7C5B39
BD29F49D
BD04F6C6
BD7014FE
BD3CF1E0
3D4D8190
BD52893B
BCB3AE2A
BD82AF83
BD9071E6
3CFC42AC
BD5ED81C
BC5B9148
BAC77940
BD6ADC6C
BC171160
3D853FA4
3C9AF958
BCE511DE
3D75C4D0
BD7A2E5E
BB93CA60
3BD44BD0
BD27E673
3C837694
BD3ABB92
BD216DA4
3D74F7FC
3D44718C
BBE526C0
BDA36922
3D0DB58E
3D8F68D2
BC48F370
3C755160
B9FE5B00
BD82C510
3CD24E98
BD8B7D29
BCF7A0B4
3D32601A
BD8CC0D5
3D32E494
3D2F7E8A
3C2CD980
BD975472
BD0A482C
3CB5248C
3D55E9B8
3D8A757C
3B656EC0
3CB00ED8
3D6742CC
3D930E92
BB22EA80
3C0D8160
3B3BB900
BBAB1D00
BCA1B046
BD62B503
BC353568
3D947006
BD521674
BCEDD2D0
BCCFFA5E
3D6EC524
3D718050
3CB595D8
BCE02654
BC43BB48
3D9F474C
BD94EDA9
BD0BEF7F
3D37AA4C
3DA16282
BC893A54
BCE21D0C
3CFFBE2C
3D8DC114
BC853404
3D9FF5D8
3D770190
3B8655D0
3B3E6CA0
BC84B570
3C96CFA8
3C4775B0
BD60F2B6
3BA30460
BD0B0FFB
BD3B100F
BCD98898
BCD790F4
3D4BF6B0
BD6E480A
BD7C3E8F
BBEEFD50
BCD74B12
3D8987C8
BCB76BF0
BD05BD04
BD5F1256
3D86E58A
BC0F6690
BD991F10
3B0E6600
BD139C2B
3C956CDC
BD813830
BCC7AB1E
3DA17B24
BC7D60E0
BD865A64
3CFFEB30
BCAB01C4
3D813A68
BD6105F8
3D54E2BC
BD6F19F4
3B4EDA40
BD93446E
BD700C96
BCA9A74E
BCF4322A
3C354D60
BD8A14D5
BD023D77
3D2CC71E
BD5CE74A
BC647EF8
3BEFEA80
3D004736
3D4E54D4
BD6E1E37
BD20264D
3CB45678
BD4A9FBE
3BFEE120
3D832AA8
3BC17180
3C995A74
BCD71DBC
BD24FC75
BC14D748
3D48F5E4
3CAF9EF4
3D9B3D72
3C461198
BD6A068E
3D91362C
BD200F21
3D80CDD4
3D35465E
BD2615CD
BD8725E8
BD5E419B
3C9A3804
3B5A6060
3DA14A92
3D60885C
BC6EB278
3C56D3A0
BA19CE80
3D23FAB2
BDA1E056
3DA1EACE
BD020873
3D3D6A24
3D90167E
3BAAC8C0
BCBF88A4
BD08B7FF
3C2F1E58
BD1A78F8
BD113448
3D654A2C
3C845F6C
BCF3B772
BD4F783A
BD831A25
BCD2AFC4
BD324D92
BCD824A0
3D886E86
BD3FF50A
BDA45296
BD2CA7C3
BD16007D
3D1D5AC2
3D8C99F2
3D99BFF2
BD81C6C7
3D229F32
BD8E2A6D
BD8FE0C6
3C88E0F0
BD8A2161
BD3D2919
BCEACA4A
3C4D0AD8
3D394BF4
3D6231BC
BD86B942
3C523CA8
3D14888C
3D28A6C0
3D23E1F2
3BCE3E20
BCB98CC8
3D474F68
BD5AA18A
BCE84FCA
3D6FED48
3D395524
BD298D2B
3D8C1578
3D123962
3CB87500
BD248678
BCF9016C
3D8B2D18
BD8915A5
3D1B4066
BD4620A9
BD576305
3CDB6F58
BD91DD8E
3D9FB0D2
BD70810C
BD097B55
BD3A0B18
3CA512DC
3D3FE838
3D5889EC
BD9D84A6
BD09598D
3D774A68
3D337C4C
BD6BA1CE
3D598798
BD40D072
3D32EFA0
BCCFBFF4
3C90CC74
3D9722DC
3D619C10
BAEFA300
BCA2D594
BC65ECD8
BD86D713
3C892EF8
BD7C6684
3D82C8A6
3D0D6144
3CD6B764
BD23FC01
3C383528
3B2D6FE0
BD192A72
3BBBF370
BD022593
3D80D9A2
3C3B5D38
BD01E980
3D9CA71E
3D28C5D8
3CE4B748
3AE4DAC0
BD57E6B5
3CA9F5A8
BCF17C02
3AF7E400
3CCEAA18
3D80E3B6
BD844B88
BD3D27E5
BD6EFA52
3C9A95A8
3D0EBC38
BD62511E
3D85828E
BBBFB330
BD9FF35C
BC2ADBA0
3CFFC814
BC971322
3C541610
3CF43C48
BC4F9B28
3D9FBF3C
3D50EF58
BD3A6F8C
3D9C9F22
BC55FC98
BD3F83BA
3CE5CEE8
BD573092
3CF27A8C
BD5D2094
3BE8BA90
BD877F07
3BA6B280
3D97DA66
BCEE19FC
3C2DB788
BD10BDD5
BC376348
3C82E550
BD7BC960
3D97E5AE
3CD9C460
3CA96800
BD50CA0A
BD78FA9F
BCB3B71C
3D08618C
3D3C4718
BC8E85C0
BD3244AA
BC01EAA8
3D7EDC00
BA42B380
BD864263
BC9D092E
BDA3C1D0
BD01376A
BDA38A92
BCBCC590
BC9EC53E
BD6A2064
BD1061EC
BCC981C8
3D19BBF4
3CA3EB50
BD389E4D
BCF6926E
BCAEC0FC
BD119C3A
BD4C9345
BA2F2F80
BDA0303A
BCE8B94C
3C3708D8
BD9D4579
BC373360
BD0BB563
3C1853C0
BC8A3518
BD80B49C
BD0A83E4
3D01FD70
BCA9B608
BCBBDE16
BDA1CACB

