BE50F75A
BDC8AB34
BE90E722
BE76B931
BEA1315E
BE81945B
3E6D5825
3E14A0E2
BE07EFF3
BE177C40
3CC1CC98
BD8FC59C
BD525F80
BE64FD7A
3DBBAAA3
BED50B33
3E633E28
BDF2EFE8
3E8B4BCF
BE475D8B
BDB4BD34
BE31AE6C
3E92D4AE
BD7E8710
3DA99C36
3F88EB98
BE6ECD86
BD87B533
3E43ADF8
3D0C1BE8
BEA6E6BB
BED5FE5F

