3E045B7D
3D88BCF4
3CDA2C8B
3E51B1B4
3E0DDFD8
3DCB6E1F
3DDD3C0A
3E048157
3DBCA613
3DA80554
3D9B07ED
3DE880A3
3CE71F57
3DA6D8B4
3DD65D6C
3DA53D4C
BB8B6A3C
3D6D5F6D
3D8F7292
3CCAD26F
3D7D82CF
3E12DBDB
3DD5B56B
3E1BE630
3E2790DF
3DAB8FC3
3D4FE20D
3D841383
3DB46357
3D1D1CBF
3DF9C605
3CDCB09B
3DF56C41
3D0D0D6A
3E1155D4
3DFB112D
3DE28E93
3CAB92C6
3DAE94C3
3D01CB04
3D500C11
3D88B311
3E0CD54C
3DFCD2B7
3C7CC6FB
3CB4541D
3CEAB963
3D3D6C08
3CD28C34
3BC38008
3E07499F
3DB3E746
3CB6085E
3E22D4B0
3E30B671
3DD3C912
3DB4D4FF
3E0BACDA
3DC9DC65
3E1C30F9
3E020FAC
3DE93758
3D1EDF62
3DF2440C
3D97B54F
3DE08B39
3DD6D741
3D297660
3E14A0D1
3D6C36B9
3D1D6AB7
3D063527
BBD455CB
BD40AB78
BD36D706
3D6B44F0
3D4E39AE
3C8BFB93
BCA7A0D4
3D9CD6E3
3D3633BD
3D1D253E
BB4C3476
BA9D6A1F
3D7C0C89
3DAA0482
3BDBEA4E
3D09AC25
3DBA8092
3D575326
3DF046E9
3CF6CD17
3DD30D49
3E01E4BC
BCAAEC97
3D283924
3D04B004
3D9B6B6D
3DD627DE
BB8FE7D1
3D1A4E9B
3D5CA915
3DE0645E
3C6F7063
3D85CC61
3DF3DFCC
3DAAF9E2
3D4A102D
3D87DEF1
3DAF2197
3E1B2D82
3CAF3B5B
3DD6F507
3DA26EC5
3E227C27
3DC0C0F9
3E0E351F
3DD0FDC8
3DCAF0DC
3D29933D
3D56752D
3DD19351
3CD310B6
3CF421BF
3DB52894
3CAFC3F3
3D69F9CF
3D9ADFDA
3D8A5706
3D8E9439
BD6670F3
3D1F1536
3D9973C1
3D6CEBEF
3C1D8D33
3BD0CC20
BD962AB7
3D8CBB60
3D0CFAEC
BD500C42
BD14DC10
3D10FAF6
BD3D755B
3D99181A
3DC1031A
3D8010A0
3D8381ED
3E0F9F7F
3D8CD784
BB9F7DA8
3D5291A1
3DBE85B3
3D3C75F8
3CCF3C83
3D8AC7FB
3D48012A
3D94A119
3DC0EE04
3D3D9FBE
3DE63CC1
3D86B85F
3D4D0E5C
BCE1D3BA
BC3C88EB
3C9801F7
3D555F1F
3DAACEF1
3C07A29F
3D41F263
3DA32350
3E075FFF
3D18F454
3C479DA2
3D8B2515
3DCF1A88
3C753E22
3D0F79B1
3D9B2589
BAA44032
3DEB62B6
3BA7F011
BCDC6E7E
BCC33073
3D635989
3DB47A2C
3D79D8C5
3DEF2416
3C9D0F39
3D9EF838
BC3AD3A1
BC8A307F
3D0C624B
BDADCA33
BC9E6D27
3A5BD1C5
BD9E7C8C
BDD3A159
BDB136CA
3D200597
BD9ADFDC
BD911405
BB8511A4
3B429814
3CE810E1
BD3B3320
BDDD6376
BDDF9B61
BDA5F65C
BB93216A
BD32D22A
3B626850
3C1D89A8
BC00F7B5
BD232110
3BF3DDE5
3B30D96D
3CAF5E34
BCB78782
3BA9797F
3D7187A6
3C1F989F
3D9EE903
3D9F54B7
3D9B4C6B
3D072CDE
BD0A44FC
BD31CC9E
3C6ADD93
BC5490F6
3D85D200
3DC221C4
3D860086
3C3D3038
3DD089DA
3DD52BEE
3C8918DF
3DED1D48
3D81E208
3D3AB718
3D86F6BA
BCFB5DD3
3CB731FE
BC11484E
3C4072FE
BDB562ED
BC850577
BCAA3FA5
3CEC2F47
3CE91038
BDBE23D9
BC2DA169
3CCB8D60
BDD3E93A
BD3EFA7F
3C61E46E
BDDCFFB2
BD379E70
BE1FB65D
BC1B02B2
BD9945F7
BBDB821B
3C9D6601
3CCA243B
BDE89150
3A9A5546
BC1957E7
BBB5D165
BDF72CE1
BE2FFECB
BE06D53D
BCA40C4C
BD8896C7
BE209DEB
BD1DF1F7
3D2E3F8B
3C3FC9A2
BD94DCAF
BCC76955
BCC6445B
BC7C50D4
BC1AF07F
BBF6EAEB
BCD66B8E
3D9E817A
BD4E0043
BDA85D8E
3D761EDB
3B08A9CF
3CE87058
3D1884C5
3D3FDCC3
3D7AD765
BD891FB4
3DEAF802
3DA58C37
3D921E4F
3E0F037B
3D8FE37F
BB1B69F9
3D2D4BC6
BCBE696F
BDAD3D39
BD2101B3
BA1A7556
BDF7DA13
BDBB3D9C
BDE2EC39
BD22A3F2
3B19FD5E
BD45F16B
BE05ECDB
3A63CECD
BDD20163
BDB8DD4C
BE15D547
BDCB0A76
BBA28637
BE05E68C
BD056C04
BD7D72D2
BCB8EF57
3B1724FA
3B9347B8
3CE3B2DC
BD6A57FB
BBDA8122
BAD1346E
BE03E166
BDB07902
BD55D2E5
BD87D4F1
BE1A6E1E
BDD3C5B7
BDB8AE14
BE08E827
BCE96168
BDDE3BBB
BDC80165
BD544C2E
3BC4CA26
3C30A4C5
BB69A3C8
3BB1AF32
BDA40367
BD1DFFE2
BC2FBCA2
BD6E3102
BD8CB6F2
BC34BB42
3D682F61
BD3A30BF
BCE8B6EA
3D9FAF4C
3D84C624
BC806048
3D106FEE
3C9B24F3
3D177E0A
BD18300A
3D9A245B
3CAC8DAF
BDCE6207
BD77497F
BDBC5BF7
BDB4503C
BC453373
BDC05E82
BC919B3F
3C196A90
BCA8A64E
BD8BE0D6
3D1FB9EA
BD09DEE5
BD41F4D1
BE0FD959
BD8EF34A
BD5C225D
BE506614
BD4FA875
BD297640
BE26CCDD
BDEA3FC1
3C04392F
BDF937AE
BD316502
BD38DDD9
BE022F7A
BE0C3CEB
BDD42A41
BE0DBFB5
BDBF24C2
BD2E50B1
BDA11367
BDF5BE9C
BDD4B4AC
BE17946E
BD4FACAA
BC11BF87
BDB5ABDB
BE154E39
3C157342
BDA63A14
BDAB354D
BD01A97C
3CA27F46
BE03849A
BDABA6BC
BD666D65
BDB250FE
3B85F3A5
3CFB3839
BBAE9DD6
BD2EF047
BB935D47
BD88BE72
BC292656
BC914A6A
BD1004A9
BD98ED01
3D1FAFB1
BD21D35D
BDC8D357
BD915AED
BE02E78E
BCC661A8
3AB36962
BDCE7406
BDB08980
BE0C518A
BDA8A064
BD2359A1
3D6051BF
BCBF70C7
BD6BA2ED
BD8FCE54
BE16EA32
BD4EF8DF
BDBF7877
BE428262
BE2B89B7
BE316B70
BE3294C2
BE0B5CA7
BE3D1092
BE5D92CC
BD6C37F9
BDB4956A
BCD878A3
BC2C84AA
BDAE5DA0
BD18C4F8
BC8B4395
BE36DEC6
BDBDBBB2
BE2027BC
BE2323C6
BE3935DD
BBE7A834
BDB34E50
BD904281
BBC40930
BDD48D40
BD0D184B
BCF6827F
BD65F246
BDEB2D56
3D3169F2
BDAA50AF
BDAF04CA
BDAA2BC7
3D44E378
BDA120CE
3C4A7E08
BDC4E324
BE0E764E
3BDA5DE6
BC811803
BDAAAB48
BD24B116
3D21BEBE
BE0A4826
BD9043D9
BE0ED6D0
BE2C2FC4
BE156E97
BDB800BA
BD6BBB5C
BCCAFA91
3B5C2CD2
BBDA0011
BCC2B74A
3DC07180
BCAB80EB
BD2FD795
3CEE424D
BE0E7C3D
BD89E4E0
BDE132C3
BE577E16
BE568D38
BE9E9B67
BE33791C
BD851287
BE31CD9D
BDC085B2
3CD585B2
BDC3293A
BDE90478
BE0E1717
BDC0BAA9
BE2297C8
BDC39659
BE2CE1F5
BE03D34D
BBF4782F
BDBDFA2E
BE14B2B2
BDC300D7
BDCD7065
BBF842E3
3CC5C777
3CE8E31A
BC926529
BD1D1501
BD30FA1A
BD02C442
3CAD8DB5
BC95D883
BDCCEC07
BD44D186
3D0728D4
BC631903
BD0A4812
3D96FE9A
3CD2C470
3D25CBB7
3D92ADF5
BDA9D80C
BD6203DF
3C324453
BE2EFD8B
BE2A5B2B
BDBE9C82
BE0929A9
BE31C01C
BDD644B6
BE1CB853
BCF2FE79
BDF615F3
3CE253DB
3CE49668
BD81701C
3D6AA7DF
BD17519E
BD15053C
BC904B98
BD545ED0
BD9FA59F
BDA366DA
BBB3368F
BD996C3D
BD9E3563
BDFC78A7
BD4D465A
BDBBE0C5
BC85253D
BE04D1F2
BD5F0C45
BDFA8B67
BDBCFA5E
BDBDF312
BDD39599
BE5E7DA7
BDAE0F64
3D805596
BD5F1FFF
BD21A591
3D9D16D3
BD1D8F3B
3DDF1463
3D4CC5A2
BCD5FEC4
3CCAD323
3DD29BEF
3DBA0809
3D9FDF52
3CCFD22E
3DDD9B62
BC27EC09
3E1EC8C2
3DD6FE3E
BCDE4416
BCCD26C3
3D4F1BE2
BDCE9067
3D9D1732
3DBDF9DB
BD06FF6E
3CD6B012
3D33E003
BE1F698A
BE323AC9
BDF9E24B
BE099671
39A40C5F
BE0D6F37
BDE9E5BF
BD934B85
3C9FCFB5
BD2C367D
3DC8D364
3C9F8CDB
BCD6C581
3CC12CCA
BD172188
BD0F9249
392B5A30
3D94B39C
BDC6C4B3
BD8FB74E
BD88E834
3CBE16A5
3CC8CEC6
3D41B3DC
BDA201B1
3C8B3337
BDA8B348
3CBEDDCB
BCEEAA62
BC89391E
BD37BAFF
BC52134C
3CF91D9F
3E0220DD
3E27C512
3A511A72
3DCCC1DB
3DFFE127
3D78E92A
3DFA9B37
3E16220E
3DE24844
3E00BA41
3E21A13D
3CE5037B
3D1935C5
3E03DCD2
3E0BDDEF
3D838C45
3DFE788A
3D674CA9
3CDF5076
3E14821D
B9890934
BBFDB04A
3D3FB7E9
3DFB7F98
3D009E5F
3D3BC8B4
BC7CB4F0
BD0F9361
B9357C01
BD68A6CA
BDE77804
BCD356B8
3C337725
3CEA83CF
3DF0918F
BD0E311D
BCEA1D64
BB2742D7
BC8C9333
BD8DFD61
BC985288
3D1CA600
BD4F557A
3CB04C52
BD1CB72D
3D714BDD
3C49CAAB
BD20A45F
BD6E33FF
3DFA22B4
3D9C35E2
BDCC2EAF
BCDB2131
BDEE34A2
BD0E2221
3D05FC98
BCEF9140
3CCE75E1
3D95398F
3DBE0403
3E00C673
3D4A591E
BD1F1492
3C932303
3E30DDC0
3DCA7BDA
3DECB476
3E052025
3D1925D8
3DBC18CA
3E311DF1
3D621720
3DB17F58
3D7C470B
3D384968
3E0C68D7
3D8F3130
3D2A9BB1
3CE8D668
3E380C17
3DCB593C
3CDDB06D
3D9A6BD1
3E2C4E87
BD8A8DD6
3D05CA10
3D781BC7
BCF2F5A3
BDC458B8
BCF57F04
BE39AB2A
BDCC8244
BD20627A
BD8673E2
BD9C54BB
3CE55FD6
BD73B96C
3D93C46E
3D9E144E
BC4CD012
3CAEBDE9
BC027361
BDCC978B
3AA74FB9
BD56E4BC
BE19F2E3
BDBDF8B9
BDAAD26B
BCFAE915
BB40ABF5
3D1E552F
BD4B3B55
BD695E8C
BE0FD15E
3CD28196
3DA19BE3
BD72132F
3C4450E7
3D9DD85B
3D8E4AB1
3E0A05EC
3E292316
3E026B77
3DCA2870
3DDC8EC2
3DEA6447
3D321F94
3DE2532F
3E0CBA39
3C3C99F9
3E46F573
3D37E7A3
3D650E2A
3D79E4C1
3D64C91C
3D80A789
3E22CAF5
3E109CFB
BD0DB452
3C0423E1
3B76AB7D
BDB7DF97
3DD6EB1A
3D581622
BBA353E5
3E1FD601
3E205D37
BD1FB49C
3D68FCB4
BD0ABF52
BE5DCA99
BCE55801
BE22C8F9
BE4FF734
BD190200
BE1FCD97
BDAA269B
BDE18D1E
BDB7E2AC
BDECC0F2
BDF8A17F
BD81EDD9
BE0E40B6
BE18C649
BE321874
BD1EDFD7
BC643F78
BE43DC15
3BF44238
BC7C5420
BE240B6A
BDCE996F
BD1E7C25
BE34C1F0
BCA64DD3
3DD0307A
B959295C
3DB34294
3DDEAE0C
3C6AA1F3
3E2419B0
3E01D752
3DC81AA9
3D966846
3E2D8C92
3D89E419
3DF0C82E
3E63FE90
3D46E4E6
BC13DDEC
3DCDD2E1
3D545875
3DB04C42
3C3BBC0D
3E130E5A
3DF8C849
3E0E756C
3E0BBBD0
3D4B8F76
3E1AD6B1
3DFB86F9
3D8E7115
3DCAD408
3D18679A
BBE0D86C
3D49617A
3E1E767F
3C17A05A
3E0386C4
BD4ACFC2
BD7C6CF3
BD00A9EE
BCDD7FD4
BE2EE9CD
3D37CCA1
BD9E7A91
BE537368
BE2811C0
BE2AD822
BCB503BE
BD9C9C63
BE1D8959
BD55A017
BC6D272E
BDDE368F
3C85132B
BD427E46
BD82C4B6
3D989694
BCD8C024
BD7E3B5A
BD832479
BD2DD712
BDE3AE41
BCE0945D
3CBE48E3
BDA75E9D
3DDDC992
3DDA4BE4
BD259DBB
3DE85A76
3E06640D
3E38BE05
3E17828C
3E186AD8
3E36D9D1
3E290B94
3E41F832
3DB42767
3D938B97
3DDE3DE1
3D64693F
3E03AA01
3E54AE1D
3E12B4E7
3C142D00
3E087E9F
3D585E2C
BC7F3F65
3DE6AEB2
3DB640EC
BD2FF8D9
3E387320
3D600857
BCF62419
3E2962EC
3DBB6988

