BDE4D48A
BDD7E0C2
BD19D930
3DC3CA68
3E9969F6
3E874D22
3EF80D5D
BD589810
BB91D62E
BE822B65
3E94B3AF
BE2F6F35
BE7D4007
BD3E773D
3EDD172D
3EDB9B85
3E8B52DA
BE54DEEC
BE0CD37C
BE9523E4
3E79D424
BE27826F
3E4D41C8
BDC56532
3E560244
BE2F3B43
3DC3F520
3DFB5CF0
BE934172
BDAAD73E
BE2049BA
BEE8A8EE

