3E03AF12
3D808CCE
BBE63DD1
3DDEC9DB
3D491C19
3DE8E5BC
3D9845F0
3E008B40
3D2316F1
3D2E5D06
3DE89004
3D7F2F54
BCD7E5A9
3DB73FCA
3DB8C4BE
3D922085
BC9C31D5
3D20F089
3DB1435C
3D4030C7
BD361583
BD3297AE
3D739F22
3CA9C2BB
3C20F86A
3DB83616
BD6D9AD0
3DA5AEF5
BCC3A069
BD8F387C
BD54A59A
BD5450AD
3CFDDC3D
BB20EE82
3D57A343
BD12B5EA
BBDE5ABC
3B76067E
3D9154DC
3D526A78
BBB1BA82
BCB26A4F
3D307AF2
3D8D25AF
BD997782
3CD55013
3DAA13C1
BC2C1446
3C4C5FCF
3D1EFBE1
3C46C935
BC2BB97A
3CFBBD82
BAED63F7
BD345A03
3D5DD6D3
BBA20AC1
3C1DDF16
BD8D61D5
BCC3DE8E
3DAD7668
3D291D7D
BBE3998F
BBE6FACB
3CB1061E
3E067E65
3A87E075
3DE12D3F
3D7721CA
BC6EBA23
3D8193B6
BD5F9D31
3DD67165
B9881AF2
BD073E33
3E201268
3CF6D2F1
3DC3C4C3
3DAA033D
3E12B688
3C828886
3DFA87E4
3D9A2F47
3A050262
3BBC8DF5
3D891595
3CDBE7AB
3E1D80B2
3DA31607
3D14BE9F
3DCE9059
3C2B5C75
3D84B2ED
3DB5F95E
BC29FD8A
BD40024D
BC66EF1A
BD374075
3C219321
BC850ABF
BDC0A13D
BD350942
3D83BFAE
BD8D81AF
3D069C0B
3D81B262
BD0BBD86
3CA03AA3
BD454331
BD6529BD
3D44C463
BC2856F4
BD9E7A84
BD7C9DAB
BD4FDFB8
BDA6A23B
BB82704E
BDBBFBA5
BD4E505E
BD8B10E5
3CA5A362
3D9B607E
3D29DB52
3C9F2A7D
3D2ADC9A
BC3887BF
3DE9A043
3DB8445D
BBDA70F1
3D321B17
BC8D3E44
BD09BBAB
3D6F5F6B
3DAE587B
3D8397FB
3E33A96F
3E114432
3C61D725
3DD81808
3E24210D
3E14E4EA
3D11719E
3DC8466C
3C3A5FB9
3B6CAABE
3C4369B4
3D09B2B1
BD02306D
3D97954F
BD63CFBF
3D1E591F
BD914C43
BCEE324D
3C0545E6
3D4EBE28
BD3EF07A
BDBCDD29
BE04CA0A
3B10548D
BB6FBD9C
BDDC914C
BD1A1925
BD6939C7
BDA09887
BAF0891C
BDA5245E
BD99DDC8
BCBBF273
BD8BE004
BD7E7A75
3AF1C04E
BD81735B
BDE6D96C
BCF42A72
BD44779E
3B7E746E
BD05AF89
3C5C6E7E
BC9C63E7
3D82001F
BD0407CC
BBEB25CD
3DBAA8CB
BC8BCFE8
3DD62E45
BCC37AAD
3DA6CB21
BCC89AE0
BC805353
3DDACD10
3D9E4553
3DC482EE
3E3029D1
3DEB0068
3DAC9F18
3DE52108
3DA9A259
3E10C7E1
3E39C767
3DEC2BDF
3E0A6FCB
3D31634F
3D32ECD8
BDAA31A3
3D3B38C0
3D1EE466
3CBBA8BF
3D1A2971
3D669460
BDF7A5DD
3D32DBFA
BDAA74DE
BD06BCB3
BD96F013
BDC84A77
BE0B8DAE
BD3AAF7F
BD71DBF7
BD69666F
BD3B31A9
BC87849E
BBC8851B
BDAE0C51
BD37D604
BC7DA236
BD754961
BE101044
BD332583
BE303DDE
BD2201B1
BD33F369
BE34D978
BDA98166
BDC396CF
3D1FE8F1
BCA0F199
3D860772
3CC63408
3CE3FCDC
BD8E6D14
BB970B17
3A812ABF
BC4B3F85
3DE9CA40
3DC0D932
3D36F7CD
BCDC330E
BCD930DB
3C5B6973
3D8E2A46
3D792A6F
3D1CB089
3DDD6FCD
3D060FA8
3DBF0337
3D7EAF20
3E11848D
3B83D20A
BD26037C
3C378654
3C9FC8BC
3D7F4BAC
3CF62239
3D147E1C
BC8BE7DC
BD873873
BA9ECC14
BD8C97C2
BE115642
BD2EF25E
BDEF860D
BE1B2182
BE30A193
BD98AAFF
BE23ABCA
BE23354E
BD34BC79
BDFBCC78
BE09A535
BDBC71E3
BE4195CD
BDB3AFA3
BE20D5AA
BE229E12
BE39139C
BDBC0A9C
BE310A90
BE09B412
BD9F8850
BE23831F
BDC3B0AB
BB14DB0A
BDAF6AC6
BD919289
3CC97468
BD96FA72
3D06A145
3C5E1292
3BF6BE66
BD35874C
3DEDE809
3DC2350C
BCC98B7C
3B1FFD76
BC012F5A
3DD345DA
3DACE4D1
3DC819C4
3DBB4E14
3D32FA3C
BD00A13D
3B966A73
3E12EABD
3E0C2403
3DCB08A7
3E102EA1
3D8812F8
3E04D978
3C885E35
3DFE3C34
3DB5C532
3DA59FAF
3D93CEA4
3D4ECDBB
BD19F1E0
BD457B08
BD24DC65
BC7B68BF
BDFA2437
BE1BAB37
BE0B9651
BE335B57
BE5DE192
BDA89616
BE72862A
BE10A7F2
BD232E1B
BDBD7D6B
BD957F8B
BD8C7C9A
BD8BEB29
BE08E3BA
BE4CBFF6
BE304E7A
BD23330D
BCFA8458
BE0FB5AB
BDB0BD10
BDCA7DF5
BE130528
BDF37910
BDA4B96D
BE1842CA
BD8FAF0F
3D9C0DB3
3CB8DF5A
3DCB3266
BC5D6AC1
BD654FD9
BD8CB95C
3D5CB333
BCEEA76D
3DC39465
39B66A52
3D926A21
3D1EC378
3DBE6EA5
BD475A70
3D290B9B
BC71BC13
3D90684E
3D1E8C9B
3DEC22BD
3D5CDB57
3B8B3A09
3E1DFCE4
3D7E57A6
3DE1E0D4
3D12B2AA
3D5D18FC
3C051C9B
3CFDCDBA
3D07C82B
3D179023
3D180A60
BC52D346
BDA14D3D
3DAB1B00
BDC1F8D8
BDF17AB2
BD6C96A2
BD5B994F
BD43F9CC
BD2CD663
BDE675D7
BE01A076
BD96276F
BDA189B1
BE2C3C42
3CF55327
BD58A1D2
BDF9896E
BE2BEF66
BDF7ECC1
BD354794
BD484C14
BD1C7DC0
3C5BC042
BD3E02C5
BD1ECAC7
BC820D43
BD9D59F8
BD87530D
3C7EF56C
BD73FEC3
BD6572FB
3C8286D9
3D185304
3D3B1475
3D948CE7
3DA3C439
3DC9D389
3B086673
3B83A1D0
3DBE719A
3C88A43D
3CA35739
3D9BB8AC
3B38B4BF
3D94BFDC
3D225EE4
3CBF59F2
3E08D176
3D025D51
3D8D8BB4
3C59B80E
3D9EB2AF
3DAFE725
3E0DB245
3AB43260
3D1AA541
3C6491DA
BDBD74D4
BD1FE40A
3D8DE31D
BD8F8369
BDE44D9D
3D6CEB8B
BDAB79E1
BDBB9269
3CFD977E
BD26D9EB
BDC655FE
3CA9BD30
BE0783E6
BE3D2350
BDC9BF5C
BDFC2DE5
BE2A1754
3BB43013
3CBC3846
BD084968
BDEB329C
BCFF66D9
BD89356F
BE211B18
BE1337BC
BDA64F70
BC3A0D6D
BE0B8B4E
BDA86378
BD9A39E0
3D1A448F
3D7ADF79
3D135ABD
3D56288E
3D5BC22C
3DE44312
3D537331
3DA57B0E
BCDBC59D
3B8D7420
3D653C64
3D8C1A7D
3CFD1A47
3D34257A
3D20E922
3C02C377
3DD0DFFE
3E33BFC5
3BF94CF2
3D8401FD
3DFE7446
3E0CE74C
3DF85428
3E3A70CC
3DD28427
BC3D4FE1
3D7280A2
3D6714A4
3E08695D
3ABC35DF
BA6655AF
BCD2DC75
3CA3711D
3D67DE91
BDCDB50D
3DB1C5B9
BC79B8B2
BDEDE42E
3D59CF0C
BCB283DB
BD8B072A
BD551805
BDDF9544
BD822EAE
3C525871
BD871287
BDEA3060
BD20FB1F
3DCD10D5
3C988998
BDD4F183
3CB3FCE7
BCE1D823
BDAB5653
BBCDB870
BE1F8921
BC9A5C01
3C233DE8
BCA4DDED
BD44CD9F
BD76909E
3D8E95E1
3DAA8B4C
3D2D6981
3E09DCA5
3E1367FF
3DF28B05
3E2DFF1E
BD81CFFA
3CCBBE5A
BD819AF6
3D32051A
BCE2574A
BCDF90DB
3DA7715D
3CEF7510
3D9C0266
3E05753F
3DAFAB52
BCFBD2C6
3E0F34E7
3C0AF4C9
3DDA31AA
3DD85E65
3CDDBAF7
3DB7B4A7
3DD73BBB
3D83BCAB
3C868DDA
3CF083A5
3D0B5AF4
BB2E39EE
BE19EBBC
BDF64CE9
BDFC03A0
BD7F7754
BE454631
BE1D9450
BE07871F
BE7088A4
BE1F2AE4
3B87719D
BE200488
BE2D4DED
BD81234E
BDE0C127
BE3CA442
BDF71580
BDF3C8EF
BD7D4750
BDBC201A
3DA17F12
BC56BF2E
BC9202DE
BC7342FC
3D0D74A9
BDF94B39
3D3D80D4
BD8F4091
BD621B9E
BD8E240F
BC4BA4A7
3CF34C5B
3D6EBD43
3E2B06E5
3D8A7EE2
3CBA8A19
3D9437EB
BC4B15FA
3BCEFEB3
BA974E43
BD997563
BD36070E
BC47D652
3BF37CCF
BD76E289
3CE38FAE
3DDC3263
3D887F39
BD2C45D7
3E054EB7
3E0110B4
3D7A1992
3DFDF88C
3D89748F
3DA89BDB
3E170437
3DE2FFF1
3CAA53BA
3D2A4333
3C9B0064
BC04159C
3E28FC47
3DEA73AB
3DE868A6
3D53F5FC
3C0224E0
3D0EBC61
3D751AAD
BD984E24
BD94AAA6
BE0155BF
BE04FC4C
BE0A69D9
BE30AF76
BDF1F4DA
BD556435
3D961ADC
3DC69043
3D42E81D
BDC9B3C6
3D9AE8FB
3D954A1C
BD7510DA
BD5A6D28
BCFB47F5
BD297ECE
BCB77E04
BD7E9FC4
BD3EE534
3DA59B9B
3DA604B1
3DDA19AD
BCB7185A
3DB8C2DD
3D0E1687
3D94D29E
3D110753
3D6A02AD
BD803E7F
BD01D6B1
3C2490B6
3D46431F
3CE77D6F
3CEF605F
3CA81E10
BC8297B4
3D15E82A
BC0A89DD
BD8CE1B9
3DD3E07D
3DDD22C0
BB53983B
3E0E0FC9
3E19AB57
3E02E03A
3E05AB00
3D9942C5
BD294B5D
3D5DFA0B
3DA9DF75
3D959253
3E0BD132
3E2C7A76
3D8189AD
3ADD76DD
3D6C8A50
3D9245F0
BD8A3FFB
BDC9A776
BDD09AC2
BDFCE79D
BDD6BF0F
BDBEA62C
BCCD9E18
3BDDF5C3
3CFEF161
BE0E5042
BD5518AA
3CAB1784
BBA5F128
BDC67EF5
BD9A95C6
BE0757F7
BC5DFE70
BDF0A409
BE10D070
3D368170
BD42AAB4
3CE173EC
BDB2929D
3D42EAD1
3D8A3483
3DE3698E
BBEFB862
3E16B011
3DC56998
3E0E23CA
3D24FB9A
BDD4FFF7
3D21187A
BB2AA128
BD8C847B
BCD00B45
BD2DCB29
3BB770FF
3D0F39B2
3D8DE4F1
3D80E36C
3DBEFC1B
3E1CA66E
3DC35179
3E095509
3DF29DFE
3E4E079E
3D5A45AF
3E51CCC7
3E08B775
3E4296EF
3D21FB42
3DE42A50
3DE73CDE
3D332B66
3DC26D60
3D114DAF
BD8936DE
3BA696F8
3BE677DB
BE33D1D0
BCAE1F10
BE14C8D4
BE0B32FE
BC6FEF4B
BCBD09A0
BDE0C976
BD1F4778
BE210170
BE379753
BD09194A
BDAEBBC9
BDC844EF
BE00F69B
BE111E21
BD81EF4B
3D7FE5F8
BC8E5987
BB93B021
BCA23875
3CB51936
3D87FA66
3C623ACA
3D83116E
3D87CF35
3D8E4833
3E1990C9
3DD0B3D4
3DDB0FE3
3DCDD679
BDD36F72
3CA7267B
BC21DB7F
BCE3B357
3D1568BF
BCEC8E28
3DD30300
BC3BB14E
3D6E3B3A
3CE19430
3DCB2141
3DABCBA2
3E5B112F
3E48B9D1
3D99B2EB
BCFDA655
3D7423F3
3BF8F9DC
3C8439DF
BCE26864
3D9DDC90
3D579CF0
3CB2CE17
3E0419E1
BA2B6DA6
BD96A9EB
3D760E02
BDC20EE1
BD20384D
BDDDD3B9
BE4841E4
BE59B206
BDD2DF4A
BE44DBF1
BE6B0A7D
BDDD4877
BE5B45C8
BD43FBF1
BDF876F2
BE024C13
BCA4E779
BE116872
BDF1D007
BDD3AC88
BE1587D3
BDC215B3
BD15C6EF
BD170387
BCAA76D4
3D32516C
3D56C664
3B4A0B62
3C803502
BD6DE272
3D139CD3
3D82C5D3
3E0154DE
3D53103B
3DC1732C
3D0C3095
BD632EC7
BBBCF3C5
BD51CA1E
BCD28EAE
BCADC938
BD96A806
3DC266F2
3DF1AC27
3C2656A1
BCA108F1
3D42CCB9
3B6A9CF0
3DB7FE53
3E0B3A16
BC89C57E
BD52D659
3D3D4139
BC651878
BBFDB105
3D942A7C
3CBD3446
3C96DAF7
3E090CC6
3C7EC16C
3CA75B9F
3D555579
3D519D0F
BE2D1DFD
BE181825
BD58EE81
BD6EA9B1
BE0EEDD1
BD98344A
BBE57BD4
BCC7BA94
BE12C5FE
BE0B2CB4
3CBD38A2
BCEAD346
3CDAA23D
3C86F231
3D09DE18
BD7D3370
BD50F05A
BDC9EE1A
BD80C6F9
3D8846D1
BD93E6AE
BD53DD52
3D605C6A
BD8B0004
BD11FC9F
3DB87356
3CC5CB66
3E21168E
3DE06459
3D2DA561
3E1FBA3A
3E3A5C30
3D6F5DE7

