BB0A0300
3C8A2E00
3CBE598C
BCFBB4B2
3D818CDE
BAE6EDC0
BD41439A
3D624BA0
BD93BC84
3D50B48C
BD32BEB9
BD4FD4A8
3D58C9E0
3D8923E0
3BC41A60
BD9576E7
3CE217A0
BD216A0D
BC21D870
BCE0403E
BD020E82
3CF0EFEC
BD355608
3D23398E
3D82CEE2
BCF06F8A
3D094DF6
3D8E5336
3B4397E0
BD817416
3D26570E
BD8FCBA4
3D521010
BD8AB90E
BD477135
3D50F030
3D17DAE6
3D99F2B0
3B17C700
BD8A6C26
3D2100F6
BD8DB114
3CF1A5A4
BD33CA36
3CDFAD6C
3D7786CC
3BC03D90
BD872E88
3C0737C8
3C12FD98
BD1574D1
3D50E2E8
3D583B88
BBAC55F0
3C467080
BCCF8FD0
BD6E5F78
3D977F5A
BD1750A8
BC1ABC20
3D813ACA
BAB11000
BD719F82
38F94C00
3AC65A40
3D639574
BD8D4649
BD345BD1
BD5262F6
BD2F97F9
3D92A0D4
BDA2545C
3AB60140
BCEE0428
BCD2EC2E
BC34B7A8
3D6B5F2C
BC970B78
3D3A3494
3D9E5B34
BD92A5AA
3AFD1540
3D591240
BC96114C
BCF70980
3D7998A0
BD143988
3D7FFE38
3D957E98
BD49F4DC
3D3BC3E8
BD0FCD58
3D81B6BA
3C9842E8
BBB9F9A0
3D669E4C
BCC1BFB4
BD1875DB
BD2D18D1
3D0A6F68
BD49298A
BCA3D588
BD3E30C0
BD18286E
BD6B0DBB
3CEB5950
BD581EEA
BD731D6A
BD2FA301
BCD7AD0A
BD6AF43C
BD37A3F2
3D9456CE
3CF6112C
BBE1C150
BC82A3B0
3D5E3EC8
3BCD8A40
BC07C618
3C4F6850
3D9D1D96
BD0EFDF5
BB9C0C10
BD0D345F
BD3265C8
3D91B788
3D02BAF4
3D830B6A
3C4C5628
BAED6700
BD9CDA3D
BD50749C
3CE5FC20
BD9D1070
BD08C450
BC456350
3D71821C
BD6EEC0A
3D64E658
3D8A37E8
3C055848
BD880B36
BD0941E2
3D157DEC
BC0C06D0
3D973FCE
BCF03A10
BD91D023
BD908CA8
BD017859
BD853B0C
3C43A750
3D9FF486
3CEC35A4
BD067E53
BD998F22
BCDF3054
3CA4AB28
BD397407
3BD22C20
BD9111B3
3D6D9688
3D71CD70
BC0F3068
39F45600
3D5F9338
BA1CFC80
BD9943AE
BD065B34
BD3C1975
3BE5CEC0
BCFD76C6
BD25A9AF
3D43207C
BD949C57
3D91A334
BCD47580
3D8C16A0
3D47CAC0
BD912E5D
BC771D20
BD916A42
BD9FF25B
3C802E48
3D817C14
BD318B8A
BCE114EA
BDA375A8
3DA43FC6
3D50619C
BD0B7AF4
BD7A0779
BD919AF9
BAD4B3C0
3D893AA6
3D9287F2
3D7C2840
BD963421
BD9AF3E9
3D7A8864
BCD72010
3D04FF4C
3DA2AF30
BD850582
3D18DF20
3D86AA58
3D393274
BD830CAA
BD086282
BD0C3D20
3D93F170
3D82DE7A
BD7984EE
3D0DA29E
3B99FBA0
3D72071C
BAC94180
3D9E8914
3BA591D0
BD563E5C
BC3A1AD8
BC55C098
3CED78FC
BD2124C4
BC277160
BC9353AC
BD107C4D
3CCCEAE8
3D2CD744
BDA038BE
3D157FF8
BD445084
3D836186
BD9FBFD4
BD81CDB5
BCA77E14
3C57E280
3D833B36
3D8674A6
3C9FD0F4
BCC470B0
BCB795E8
BB095C60
BD4F54E2
BD0A1174
3D44FE90
3D34E240
3C9B6034
3D5D3E58
BCD0864C
BD880D70
3CEE0230
BBCE02C0
3D474984
BDA30E86
BCFF8D82
3CF44ED0
3CD87294
BD5148B6
3D267370
3B7E7C20
BCB7BB56
BD3B62F6
3C01F368
3C554E30
BBA62570
3D596468
BCDD36A4
BD5485C9
BCAF2C8A
3D40C1D8
3CF26114
BD966E57
BBCA1850
3D537860
BBD21890
BD9C77A9
BC92C62E
BCAB0052
BD54390A
3B2FB0A0
BCA041B8
3D82EC0A
3CF03ADC
3D19630E
3D6EA144
BB31EF20
BD11188A
B96D6600
3CB0C318
BD39B494
BC3F3D40
3CAE2EC0
3D92A4A0
3B361B40
BD0CE662
BD0D9CFB
BD3DDA37
3C8B7740
BD521BDF
BC237B30
BC86E924
3CC1BC6C
BD770FF6
3CEA45C8
BCCC37A8
3C5C6BB0
3D98ADFC
3CC67B30
BD9A9E07
BCCC89E6
3D86E60A
BC9C72F0
3CD7AC70
BD437775
BD823DE3
3B030180
BCB2FE40
BD607C90
3D1A9AE8
BD42D11C
BCDCCB0C
3D0BD1EE
3D332568
BC3F8430
3A18B400
3CBFB354
3D7FA70C
BC525280
BC9E5A7C
BD68BE84
3CDBF318
BD036EF7
BCF45EE6
BD6659CB
BD887DC2
BD52D254
BC79EB38
BD92FD43
3D967F98
BD039E76
BC8269CC
3CB167E4
BD202A6E
BD695A02
BD4A8088
3A0FD680
3D72E49C
3D664EEC
3D9C43C0
BC0B4C58
BCE05530
3D53820C
BCB5DD0C
3C953090
3DA35B58
BD26A68C
3B8CAB60
3D51B62C
3CA14C10
BD956958
BD894DA3
3CB410F0
3D894E2E
3DA2FB14
BC46CAE0
3D166CBE
BC875558
3CCDE500
BD2578C3
3D9CFC4A
3D4B0120
3D6DA2D4
3D671A04
3C81EFC0
BD0B35AC
BD9A1B81
3D9F01C2
3CB77148
3CB20AD0
BD368B0A
3BEA2340
BD8594E4
3D47D254
3D574760
3DA3C2E6
3D0AC1A6
BC066978
BB0576E0
3D801234
BCD8B3C4
3C8A5678
BCC255E8
3D01537A
3DA30DB4
BD98FE8C
3D1CF4AE
3D0B5C3E
BD868C89
3D3080C6
3C9F8FC0
BD7D8456
3D95CED0
BD6256E0
3BBA0A20
3CF3B7A4
3D3FF71C
3CA994A8
3D499FFC
BC384E88
3D0503B6
3CB2BA88
BCCC1F6E
3D923BAC
3D48E2D0
BD5D1736
BD5B6DC8
BC054610
3C473860
BD0C2C65
3BC13550
BC40A748
BD2AD57E
BCE09A78
3C8D4BA0
BD69984B
BD1DC7D6
BC90B4D4
3CEAC4A4
BC05B6F8
BC1A8E90
3DA3EBD0
3D75B44C
BBE1D410
BD4070CE
3D9364BC
BD3D15A9
3CE08164
3D898CC0
3BCE81B0
3C337BB0
BD01CD70
BD40B57C
3D497400
BD02C6B0
3D4942C0
BD66AF25
BD12FB6B
3D6887F4
3CEB8740
BD356B89
3C974008
3C184848
3CC8B34C
3D7457F8
BC4C0BA0
BA9BC540
3C1749D8
BDA0152B
BCBE4794
BCD79DC0
BD924C55
BD924316
BD1FC2AB
3CD36BC0
3D9DCFC8
3C5CF898
3CE7CF7C
BC524958
BD480611
3D204A96
BD689924
BD92257A
BD9E3451
BDA17F34
BCD4CB12
BD406E4C
BC879A18
3C1F9D78
BC23D268
3D21F680
BD0EE21D
3D39ADB4
BCD80574
BCE7B19A
3D9BF76E
3D627E5C
3CB54E28
3D9504F0
BCB35726
BC23DD78
3D9AD366
3CEF22CC
BD975832
BAD339C0
3D691948
3D92132C
3D82C3A2
3D071FD2
3D8CEB68
BD0AB79F
3DA25FC8
BD0B380A
3D2483E6
3D964CA4
BDA27B9A
3D69E7E8
3D567D10
3C718138
BCF5542E
BD91E741
BD93AC6D
BCB81F26
3C8DFA60
BD493E0B
BD920F60
BD90DA7C
BD865382
3D0CAC50
BC5D8D58
BD17740F
3D849062
3B4AE140
BD615720
3CEA041C
BCB4340A
BC81E9E8
BCF3938A
BD9DBE02
BCAB9158
3D331878
BD4440B1
BD83E140
BC535970
3D73A13C
BB11F100
3D690E54
BD8B7F38
3CF28088
3D755204
BD32E7B4
3D6D1EF0
3D4FEE5C
3D9C0D54
BD79362E
3D81A18E
BC1DF6B8
3D3141BE
3CA5405C
BD862C74
BD9754CC
BD98E6E9
3D91B0E8
3C7A8078
3D4DFB24
3C8CC8AC
BDA03893
BD1924E9
BD9480E7
3C79BC48
3B9E2220
3B92F7A0
3C0A8C20
BDA236E2
BD756C16
BC07BEA8
BD577B6E
BA4CE480
BD888A18
BD1C0E05
BC49EBF0
BD80647A
3DA0A14A
BCEF2F46
BD9F90CD
BD20F78E
BD8685B5
3CC34114
3CE71AEC
BD43FA1A
BB605440
BCD8B79E
BD302636
3D46B5F0
BCB44D1E
BD4BD148
3BE75950
3C33EFD0
BD3A615E
BC48E870
BCDFF812
BD1244D7
3D077B20
3DA0DFBA
3D97ABD8
3D1F0CE4
BCC7B54E
BD3DE985
BBCFD590
BCB5BBFE
3D94B382
3D99384E
BD997A71
BD1D5C67
BD4734DA
BC31B048
3DA38BC4
BD2ACA39
3D1824AE
3C6F8368
3C2210C0
BD6C77E0
3D6DAAD0
BCC0DECE
BB3CC5A0
3D63AAD4
BC31BFB0
BB503160
BD15B5DE
BD2C5F64
BD887262
3D4810A4
3CD8D698
BCD9A648
3D9DD2BE
BC3D0AE0
3C9DD52C
3D9D7604
BD7E8266
BCE5252A
3C45B878
3C6DF6F8
BD827998
3D6715B4
BD84D1A5
3D2CFBC6
BD92CAEC
3A91A000
3B6F0A20
BB8C32B0
BCD9ACC8
3D3E587C
3D3489EE
BD2BBF90
BD787C46
3D41EBE0
3B362960
BD9AFDAE
3D14D678
BC93F9D8
3D846166
BC10B3E0
3C722148
BDA2912B
BBC836E0
BD292A8A
3736E000
BD97AB0D
BD9301A5
3C4724F8
3D3548C0
BC634098
3D015030
BD04EF93
BD9B0C5F
3C94ECB8
3D0526DA
BD238D75
BCD71444
3CC131D8
BC8BB0BC
BD174CE7
3D042340
BD760B28
BA106C80
BD59E128
BD75525A
3C4D31D8
3D35497E
3D319A62
3C36F8E0
BC8B7A68
3D8D0422
BD7C4671
BC30FC38
3CC3DF6C
3D427528
3CC28C64
3D80DAC4
3D4D8844
BD7FECC9
3D9AA6BC
3CE3918C
3D491CB8
BA0AF900
BC10B820
BD64CCA6
BB385A00
3D1115F8
BC5E0950
3C70E860
BCF1F5BA
3D4D8240
BD9E9608
3D89B44A
BD3D9DAE
3DA181A4
3CF2BB38
BCDE2B66
3D810A3A
BCDEAA22
3D9AC598
BD3AA448
3D09F56E
BD9F1AFE
BC940E76
3D8E3334
3C456558
3CBDF368
BD5E065A
3D040F32
BD56C244
BD286C57
3C80EB64
BA119280
BCD07F70
3C9B1D9C
3D74C39C
BD7DDC27
3D4B8248
BBCBB9B0
3CA7E3B4
BC49BF78
3D58E848
BD82AAD6
BBA6B7A0
3B83B450
BB9DE1F0
3C9FCE58
3C22E0A8
BAC10140
BD801A4A
BD0F3191
3D04D522
BD6EA3A6
BB1A6600
BD0FC44C
BD3789A1
3D4917D4
3A315880
3D5E30B4
BC65A7E8
BC08CBD8
BC8AEDC4
3D4239E8
BD0C733E
BD81157C
BD46299B
3D215746
3D80E0EA
3D905FF4
BD6B833C
3D10CAC0
3D85669C
BD400A1A
BCC9A20A
3BF77800
BD2ED505
BC9A7690
3BCFF6F0
BAB127C0
3D99666E
BDA280B8
BCB06EE2
3D7CA848
BD76C98E
BB0B9580
BD6900CE
BCFDFCD0
3DA012F6
3D02EA6A
BDA0C26D
BC173310
BBE7D5E0
3C2F5698
BCB017D4
3D12F62A
3D371C34
BD994638
3CA71B50
BD706352
BD2F0DDE
3D850FE8
BD1F72DA
3CCD5A78
BC0F8F78
BD4D534B
BB8A1F10
BB4630E0
3D7A3C80
BCE96B80
3D279CA6
3D827C6C
BCB39574
3D77FC78
BCAF8ED4
3D9CA3CA
3CCD8614
BD7FFABA
3D98C768
3D18C53A
BD7EECFE
3D1A224C
3D51D528
BD3518EF
3D0F73AE
BDA17440
3D97D932
3D6AE8F0
3D9DB0FE
BC213F30
3D859FAE
3D18FA3A
BD291F11
BCA8431A
BBE307E0
BD9353A3
BD991A9F
3D378D58
3C874234
BCF5B34C
3D9670A8
3D75E4CC
BD8732EA
3D19F322
3D4B3F68
BD68065A
3D9A83A6
3D2F6CCE
BC4D89B0
BD7DF846
BC515508
BD30C505
BD51FDAE
3B7955C0
3D334BA4
BD49B200
BB220220
BD2C69DD
BB134A40
BBF5CF40
3CAB04C4
3990D100
BC6D9510
BDA32C4D
3D56E938
BD417A86
3D75DD08
BCD8A88A
3D95CA66
BD8C9B24
BD8639A2
BC9611F0
BD4EC336
BD7D83B2
3D95D968
BD92EEF6
3D7EE288
3C5448F0
BD860988
3D9BAD6C
3C956308
3C918E44
BD9A42E7
BD8008C7
BC7BB710
BD9E4860
BD9789FE
3C9A7860
3D3203E4
BC2C4500
BCCA204A
BD8A7BAD
BD1A73D6
BD8ABB98
BD04A65C
3D080F6C
BDA0681A
3D9D9160
BD98B852
BD480155
3AD4E740
BD992571
BD8D2CDC
3CC20484
3CA134F4
BD391592
3CE6B9C0
BC2AE848
BD30236C

