3E3A8528
BDB1D59A
BDDDE29C
BE777F68
BE946937
3E8CC5A6
BE9319FA
BD833DD0
BDC20E46
BDC2A9AC
3E4D8202
BE1D11C0
3C196180
BE0F60A1
3E31855B
BBBDC1FF
BE66FD55
3E2A26CC
3D611281
BE4CB419
3C4A2700
3E21A6AA
BE496B00
BE919888
3D93C94E
BE954191
3E33FCDC
BC63CD3E
BDC801DA
BDF9A632
BE60D595
BEAC1A0D

