3DA25814
3E8AC85C
BE765E68
3E6CD0FC
BE26675C
BE9E2B4D
BDAF03B3
3E34C5DC
3A90C44B
3CD6D480
3E5D8E23
3E916D58
BE40EE49
3DFB461B
BE13C779
BE42433E
BD490228
BE0F43E5
3E2625DB
BCDA5A8A
3E310CB4
3E9B4ABA
BD385308
BE944596
BE222D58
BE8D59AA
BE106CE5
BE486EE6
3E8739F6
3DF466D8
BEAC8236
BDAC63FD

