3E2092BA
3B884FC0
BDCAD299
3E645F10
3E95FB35
3D0730B0
3D3EA0F7
BDEAF65C
3E4FF8EF
3E0FEC22
BE9848D6
3E67909C
3E6B1F44
3E0175CB
BE74CA3E
BEA6A943
BE276820
3E807DF1
BEAC0852
3E9297E7
3E809BD0
BE2E03A1
3D83B870
BB6C35DF
3E156590
BE689CCE
BDEAC394
BE8CB105
BC3B4880
3E68B2B0
3E721475
BDE58D27

