BC10D3BD
3CAACE0E
BD1766EA
3D02DCB8
BD981607
3D35C2C8
BD5AE5B7
BC609E2E
3CA4822F
3D21327D
3D6700DF
3D8C5C0C
BDB74A2C
BD48123D
3B59C9B4
3D85592A
3D81787B
BD49BFB0
3D828472
3CD8B9E5
BDAA4697
3D794969
3CBE0BB1
3C6F6915
3C9003DF
BD43B56F
BDB7BDB2
BCE609A7
3B043F6E
3CC842A1
BD9B3014
BD9C98B9
3C2D2A33
BC2B296E
3B0FD19F
BD999E45
BD959416
3D83DF68
BD4E329B
3D8C342F
3D872893
BD60598B
BD4CF319
BD4F93CC
BC93B4FC
BC9BA7B6
3BE635CB
3D86539C
BCF2E0F4
BB3FBD27
BD72BAAE
3D3B50E5
BD9BD1FF
3D7D4A10
3B7704F7
BBB7AB17
BD671AE0
3CBA1750
BC89417E
BCBCD76D
BD716CD0
BD76224C
BD8281D1
BC2AB09B
3D2E7A15
BD9A307D
3D45F2B3
3CF39493
381E895B
3D6EA647
BD9986A4
3C2DA5D7
BD6F326C
BBA3D30F
3D82AE7B
BD978B1D
BD7F7B1B
3D8BEDB2
BD28B82C
BD6702C0
3D084165
3CA50A0F
BC917163
3D81D591
BD99C3C2
3C9F761A
3D842343
3D8BB337
3D1A668F
3D10B326
3D8D8580
BD96E0BD
BC6D848B
3BD3D84B
BD453C56
3C3E0F46
3CD93175
BD011D67
BC9DE94D
3D826B84
BDAC585D
3D5882C2
BD98A1FB
3CD070A3
BD21ECA7
BD570E19
BDB8CA7B
BC88E5AA
3D520D69
BCD7A61F
BCBE5EFA
3D165759
BD4294C7
3C9B1806
3D779FED
3D4DA6D2
BB5BD431
BD90B155
BD5B64BE
BD81B99E
BD9D1485
3C2DBC7B
BD8C080C
BD94EC04
3D2FC8D1
3CD8750A
BCE3D6F0
BD9B9877
BD4812AD
BD8B94B6
3B0049D2
BDAA63DA
3C40D939
BD0086B7
BCCC2BE8
3C483EDB
BD3A2591
BBA8FE17
3D6CF141
BD78A44B
BD13EB45
BDB8B17E
3D471EF4
BDAD4078
BD718FB3
3CEEB898
BD89C04D
BD1A11C2
3D5DCF08
BD190102
BD6F7BB2
BDA54375
3B7B433B
3D492BED
BCF340AA
BD80F875
BD7D6F30
3D267C1D
BD71B89B
3D406EC7
BD94E3B1
3CA5A150
BCF35A81
3CE79041
BC661856
BDAA3D71
BCA999E3
3C7E6CFA
3D6F7EE7
3D2948D1
BD80DC18
3CE98C82
3D63AE17
BD8769B9
3D42CEA6
BCAB55E5
BD1988B4
BCD61F52
BD009EBE
3D62786A
BD58BFF7
BD160009
BBD151F3
3D2D0ED5
BC03BDDE
3D347EB0
BADA2234
3CE33381
BDA07A22
BC0C4134
BDB06F01
BC5E3ECA
3D8BBD40
3C6F1DAA
3D87D19D
3C45C37F
BCEAA8FA
BC879DA0
3CFA9C05
3D039521
BD112618
3CCA19C1
BD5FE44E
BD85FB8A
BC19BE89
BD840C54
BBBC2B28
3C8AE451
3D720C25
3C4FCBCA
3CAEF2EE
3C85583C
BD4A84FC
3D7E69E3
BCBEA6CF
3CBEC05A
3D4B0768
BCDF706F
3D596EC7
3AAC4D86
BC92B5F6
3D039C32
BCD9A7C4
3D85976C
3C7BC30C
BD626FAD
BB53A67F
3C848167
3D728D3C
BCB22C3C
BCE7F028
BDB3C3D2
BDA0DCDB
3D5B92B6
BBEF8E7A
3D6CBF55
BB356C59
BD25A072
BC342191
BD97480D
BD3A0D2F
BD925AEB
BD67C1C7
3CDB1299
3D293B88
3D38D5E5
BB6EACF2
BDB85113
3D4626BB
3D793434
BD834956
3D0BEC9D
BDA9ACF2
BCB0D5EC
BC9C7A17
BD10D9AA
3D272552
3CC19312
BC67583F
BC27826A
BD6629A4
3D3DB457
BCAA0BDE
3D4758D1
3C9B085B
BD73D133
3BA07919
BDB3F6A9
3B8E0448
BCC45A01
3D35AACE
3CB6ED5D
BBBF1FDC
BD9DD818
3D6F2CF6
BD58BDBD
3D67E2E9
3D5EBCC0
3CD12954
BD560333
BDA5D997
BDA8A305
BBAB9F63
3D8C6879
BCA941A0
BD122EF0
BD11DC13
BD1FCEF4
3C197E5B
3D62B6C6
BDA78432
BC5C92CD
3D13A1F1
3D33B778
BDA1F630
3B99070D
BD2E26CC
BD58D859
BC4E60BC
3C85D2EE
BD02307A
BD713F07
BD8FBFCD
BC3209DF
3C9A00CC
3D37B5C6
BC6B37E1
3CCB6AB6
BAE2C4F5
BD5A0666
BDA28D5F
3CBDC171
3A8FC4BF
BC8719A0
3D8D41E8
3D596AF9
3B949FCE
BD816569
3899EC4D
3B8BF90D
BCDB3A46
BD81DBC0
3D04AFD9
BD5FFE81
3B3BAEAC
BC926817
BCF469E8
3D896C91
3C912759
BD882C1D
BCD729F1
BD303326
BD8C2D82
BD759185
BD8537DB
3D62A59C
3D2B9907
BD199A0A
BC7DE627
3D74E14E
3D6FAC71
BD9AD503
BB24E6C9
BC9A8F20
BC5F5784
BCAFF2C8
BC805824
3C6A2E83
3D82FD30
BD7E9D87
BD0744E2
BDB2A433
3D0D2E85
3D8DC2A5
3D4E7A0D
BC0CF477
3CAE5252
BB371381
BD7F27D3
3D7A98E8
3B29E055
3BAA95BE
BC0FE03E
3BBA970C
BC77D39A
BD0D39FA
3D3ABA33
BC3A319E
BD98F8B2
BD591D2A
3D1A99DE
BC398412
3D7298A5
BD954CBF
3BD29C19
BD91CF47
BD1672DD
3D07C232
BD934691
BCB15D50
BC6C4A21
BDB2E155
3D654294
3D25AD8D
3B5F28AE
BBE558A4
BCA64CF3
3D3FEA52
3D454823
BD9CDD8B
3A95AFCE
3C8E7A3F
BD99C86E
BCCA4D5E
BD75C974
BB6A4189
3D7B5D56
3CC5DAF3
BD4ABFE8
BCD7EFD3
3CEDA9B0
BD42CBBD
BD5EFBCE
BD8E60C0
3C33950F
3D3850A5
BC92657B
3C55B744
BC985C7C
3D76629A
BCC19ACE
BD98AC90
BD9F3D19
3D37B49C
BD355FD5
BD093F5F
BAC1A633
3D6F7268
BCD0837F
3D27EC5E
3D21784B
BD694C46
3CFAD5AA
3D407F00
BD3A816D
3B289E05
BD259094
3D72C4FC
BD6BBC0A
3CE22A0F
3D279413
BD669EDC
BD3B9A4B
3D8E2FA7
BD94F218
BC68BA7D
3D41DAEA
BCB10F41
BC1C032C
BD9AFD30
BDB0DA1F
3D08394D
3D64366C
3A64A979
BD868C85
BC6CEC2A
3D77DE8A
3D69D149
BD0DA3DB
3D3FD380
BCA7B0D2
BD99E1D1
BCBE785B
3D8A1DC7
BD1FD0BD
3D2F8878
3CCC0884
BD83D583
BDA8E9E3
3C0EA4BD
3D22ADDF
BD609C6C
BD26CD15
3D103F6D
3CFB5DEF
3C41538B
3D28A721
BD0EF895
3D61DE5E
3C9EBA05
BD3C788E
3D04428C
3D0B81EA
BCAA5AB8
3D3D0DF6
BCD0D2B9
BDA43F20
BD991D02
3C5E6F32
3C22E29A
3D5D262B
3D820F6F
3B16F3F5
3BC050D3
BCB18031
3D28240B
3B0C2901
BCE3A832
BCAEDF12
3D4C2283
3C6A0CD6
BD557CD8
BDA22891
BCD9E992
BDB26BE6
3CD2390F
3C580B85
BCFBDC8F
BCA6AFCA
BD9FC471
3D25895C
BC194894
BC1E12AF
3D68F64D
3D5B22EA
3D453A20
BB9716B4
BC0798D8
3D7721EA
3D5DDFE0
BC0137E9
3CCF0186
BD7DF627
BD96F3D2
3D12605E
BDACFBEF
BD1D4BF6
BD4AFC89
3D8B254E
3D1113CD
3CAC27AD
BCA9678F
BD6F695E
BD93F24F
BD4195AC
3D5E5274
BD91D102
BDABFD26
3CD29E84
BCE2317D
BD305FC7
BC8C224F
3D8DCE0A
BD3A75C0
3D335D78
BC8D513F
3D79FECA
BD19CEF5
3D516D7E
BCADD5C2
3CACE03B
3D3E271D
3A2ADED4
BD3FA9EA
3C8AB5EF
BD9F1B84
BCDA5BC8
3D8A0561
BC1E88B9
3D488C93
3CB77A07
3A9C0A02
BD4F8908
3C223A1E
BCD9213F
BDA3A4F7
3C6F62C6
BD2E87FC
3C9E2922
3CA489AA
3D622779
3D8B090D
3C18AD93
BDB1A0EC
BC12183A
3CD9DDD6
3D0D543D
3D4740E0
BDB519B3
3C53AD2A
BDABDE84
BD3C8AF4
3BB7B8D6
BDAC71F5
BDB854A1
BD4F7B06
3C9345FC
3A3C21FB
3D5CBD36
3D2F216D
3CE0FA23
BDAF6C20
BC51BB75
BDAA9A7E
3845419B
BC645AF1
BD2F1FF3
3D1B0404
BCC2BCF1
3D00D296
BD9953E4
BD9EDC94
BCD799AF
BDB4B822
3D8F62A6
3D2391D3
3D522CCA
BD4599C2
BDAAE467
BBE5BC7F
3D472C73
BC9DBC68
3D7E1AFE
BD28627D
3D3E1878
BD84C11B
3CC357B2
3D00A2E3
3D8E97F9
BC4425CA
BD87FB25
3CFA73F1
BD2663EC
BCA22626
3D242C1A
3C069EC5
BD34CFC2
3D4DF405
BC79B286
3CB0E2C8
3D81E865
3D7B258E
3D8BDCDD
BDAC5137
BD907956
BD801C0D
3D402BC4
BD41FDCF
BD8D7A2F
3CE62371
3D19D386
3D7F7D24
BD87C36A
BD4C571A
3D4719CE
BCF54B6F
3D85D5B5
3D2E00B0
3CF4A9DB
BDACD0CD
BDB8381B
BDB60581
3D222C78
BBE8354E
BCA7741C
3D1605FE
BD3527D2
3CE4D118
BDB5EA24
BDA7F09C
3B90CE88
3A15C842
BCCBDD18
3CEFF21A
3D23EBE7
BC9877DE
BDA9872E
3D355D75
BD6434EE
3D4D58AE
3D639939
3D86586C
3D7DC9D9
BC9BEDB2
3D853766
BD309E6B
3D03C603
BC7DCEFC
BD953D43
3C82DBA8
BC95F3B0
BD366873
3CC4C32A
BD53F4A8
3D368FA8
BDABEE5B
3D5A3E0B
3D8CE0C8
BD3632D3
BD7225A7
3D80307A
3BA296F5
BD267FF7
BD39C62E
BD8F047F
BD1F4FFA
BBF3B6D3
BD503984
BD75B16B
3C16AFB4
BDACE70F
BD771F25
BDB2252D
3D864F4D
3D6E39A2
3CF4DD2F
BD462B24
BD2200E9
BCBB0A45
BD3B0A08
BB8B7424
BCD7B9AF
3B213ADD
BD2C7B2C
3D2C4891
BD81AAB3
BCAD9B24
BD6B0FC1
BD098A66
3D162A8A
3D25C192
BD1C2C30
3D850A1E
BD3080F8
BC69CF9A
BD2DFBA2
BCF94688
BD541AB2
3D4AEEDE
BD675482
BD216B31
3D2D1544
3D3CFECD
BCDDEA1D
3D5FE7DE
3B71A498
BD6D4A0A
BCC61AFA
3D43697F
3CC9CA5C
BDB0AFA3
BBA9118A
BD7BFA09
BD9A4908
3D887DBC
3D10BDE9
3CFE4D69
3D84C029
3D8A7FF2
BD2E9623
BD0616F8
3D2912AF
3D1C4A47
3D89839F
3D30368E
3D0F71B2
3D1323E4
BDB01487
BD920DEE
3BB5A512
BD5A1A98
BDA46FAC
BDAD61A3
3D76D08D
BBAD8708
3C6B315F
BC244076
BDB6E446
3B9370F8
3D83D57C
3D67F4C3
3D83F6DE
BD9602C0
BD006F9B
BD91239D
BD6657B4
B98764B3
3D5D1AD6
394924B8
BD92867D
3D813F78
3D23EDD9
BD8DE6C1
BD94ED74
BDA1A00B
BD3C4910
3D275100
BD170767
3D82037D
38BD2E69
3C24F8F0
3D62A64E
3D45AB50
3D8691CC
BDA7AB17
3D00C0C9
BDA53105
BDA18C44
3D32417F
BC996EEB
BCAD7BEE
BD919989
3D50B877
BD259259
BD848C0C
3D1F796C
BD82FD3E
BD70AA8B
BD403A57
BD8309B2
BD0BF5CD
BD1AA7BB
3D85ED7A
3D52ED02
BDAC129C
BD47159D
BDB68B2C
BD9B9B05
BD16C8D3
3BF6C922
3D82C4E8
BD3B8E97
BD6EE31D
BD3BDB41
BDA031A0
BC051E6D
3BCA67F7
BD07AE26
BD03F660
BD3CEDE6
BD40B74E
BCA9A70B
3D7E2B25
3D772C9D
BD2D8D1C
3D468E85
3CBFD7E3
3D433650
BD10C570
3C9D8748
3D756EA3
BABBA2BE
BD603314
3CF5CCE1
3D447DFC
3D389D09
3D232C32
BD3AEC1B
BD7D8184
BD383034
3CE52CC0
3D2CC17A
3CAB7177
BCFDEE4D
BD1A26E1
BD24B098
BD905C0F
3D19E8B0
BD81DB6D
3C88966D
BD76D273
BCC841DE
BDA166C7
BD670FBD
3CBC0CC8
BC9BEC4B
BD8B5C8A
3D5E4CE6
BD7FBA93
3CA36FEF
3C77F708
BD2235C3
3CE84C5A
BD58BC25
BDA6E6C7
BD06F9BE
3D483F06
BC53BBD4
3D3C0931
BCDBDAA3
3D699880
BC43F188
BD9BA4C1
BC75B2D9
BD1DC054
BC2572C4
3D11700E
BBA8752D
BCDDD920
3B1A5029
BD5B98C5
3D881DD8
BD77B486
3D8C3DE5
BCC2F254
BD807F72
BD9C325B
3D876553
BD9951E1
3D6D171B
BC9EAB9F
BDB4E7DF
BD78187C
3D69842A
BDA70029
BDA7E99D
BD581F49
3B9DF059
3D11C33D
3D3E1CE6

