BE242C7B
3C665F20
3D931920
BC1516A0
BCE6D4C3
3E9877AE
BCB24247
BE684818
3D388404
BD045C20
BE1E1100
3E2F5A66
BE8EEFAA
BDD5C0DA
BB8D463F
BE28CFFA
3D3147F0
3EA19E5C
BE99DB37
3E760874
3E125A6C
BE3FE398
BE4BCFC1
3DDFCDDB
3DA41CF7
BDBD0504
BE4199F8
3EA44B64
3DB5AD8C
3E82A190
BDFBB12B
3EA26FCF

