BCE43AD6
3B206D8A
BD93D849
BDCFC666
3CFBE892
BCCA62D7
3D61F797
3D0789D5
BD883EDC
BCE7C1A7
3D54E07E
BDC8C8AD
BCE46731
BD36B32A
BDE849D3
BC3B84B2
BDE1C355
BCBEF6AF
BD6A8389
3DBED824
BD029CB3
BB9454DD
3DD047D7
BC3837B2
BCA312B1
BAAEA0D8
BD2F8290
3D72FC0D
BC51CD5D
3D935B49
BDC5B4EB
BD009E2B
3D20745B
BDE5213E
3C7920D9
BD71395B
BD825B34
BD01D261
39E8994B
BDD57E67
BD459326
BBC447E2
BDB1814F
3C9720F2
BDE55AA5
3D27C1CF
BD74646B
BDAD06E1
BDAD998A
3D3B923A
BBD838AE
3BEC0375
3B4DBB52
3C707A65
BD5203EE
BD3AB55A
BD690A3A
3CF5425B
3C23D224
BC86E61E
BDD8CD9C
BDA51497
BC94D813
BD93F82F
BC5E3D96
BCE9F812
BC29111B
3D60DAD7
3C258B05
3DE1EA82
3E0B2822
3DFEA2A9
3CBEDADE
3D48C46E
BCEA203B
3D68AD16
3CBA7978
BD7971E8
3D99C66F
3D386388
3D8AA749
3DB648C2
B9B2AFE4
3D1DE2B9
BD3C93E8
3D87881B
3DD2B859
BD4FCD5D
3C9168F1
3D951E76
BC62D923
BDFA0E93
BDE77379
BC1C4B38
3CB01DF2
BDFE0AA3
BD81CF54
3D1F8EE4
BC85E964
BD6F8CBA
3C671E3F
3D800D4D
3CC6012A
3D6C7D7D
BD93B4AE
BCFCB0F0
BD42BD4F
BD17C3DB
3CA86B49
3BE8510C
BDB685A1
3D303B19
BC565664
BC13D1E3
BC917EAD
BDA9B7CE
3CDE4063
BC9F833D
3D11E17D
3B2DA544
BD8384FA
BC35F39C
BD88224B
BCBFDF35
3D93A85D
3D489C2A
3CCC2C75
3D42E572
3D5AE0ED
3DE3FE3D
3D1C27DF
3DCD5E3D
3DDBD100
3E0968CD
3DB8037A
3E38EF83
3D31DB8E
3E11DE1F
3D28A7F6
3E188873
3DB788D7
3D7F7BF3
3D9D39BA
3C9DED98
3D48D4A0
3DC00EED
BC02859F
3D569488
3D90E793
BD7F4DCC
3BEC8A8D
BD7785FC
3D30EC2E
BD3D3D95
3D147890
BC85C756
3D9E10C0
3D0696D0
3DA2E891
3BE2D3D9
BCDC1A48
3DAB9B59
3C53E2D7
BB3ED3EE
3BF274C8
3D09A7D3
3CE44291
3D5C061E
BC37809D
BC870599
3AB8630D
BDA08287
BD951EAD
BD6D819B
BD932FBF
3C4F1B38
BD614396
3D0B76F3
3C8C4B78
3BEF9FF6
3D8C9D2B
3D91D4B8
3DA5E821
3D9835D9
3D0E8C9B
3D901EE7
3B9C62C3
3DC307DF
3C8EAF0B
3DE81CE9
3DF34861
3DF1A9C8
3E18D0DD
3DF3EA36
3E185B94
3D53FDCC
3D293B15
3CD13D2D
3D95A0B6
3DE954FE
3D8DD8B2
3D7502E4
3DE8CDAA
3D89F8B6
BD33FF44
BCF6F5D6
3E020452
BD490126
BC59A68E
BDD84F24
BDF0B7BC
BCE70A17
BD5BB442
BDA19A16
3DABAC48
3D922C30
BC19928B
BD0A6E45
BD03A1C6
3D0EF605
BD678E49
BC565F96
3D2BCA93
BBED46C5
3D9CB47E
3BAE1507
BC81E058
3D3BDA77
BD3CC5FB
3D61B370
BD53BB0A
3DA23702
3DAFD238
BC9EBF02
BDAD27C2
BD46D2E0
BDB4E681
3C899B7B
BD80C9B8
3CEF2705
3D42DBEE
3E1A17D7
3D47830F
BD9D7023
BCBC86B0
BD98560D
3D84E61B
3C32AC4F
3E02385B
3E240504
3E64B2AC
3DE0517D
3E1F5F78
3DEA29DB
3E2BEE07
3DAA8FEE
3DB48C49
3DCFF06A
3E14CFD9
3DEF65C7
3E69C756
3D24CC23
3DCE15E2
3E549ABE
3DC3D4AB
3D8C18A6
3DF7D4B6
BDCB4340
3D44E7B5
3C55923F
BDC9A07A
BCCCB8A7
BD191112
BD6DE1FC
BC5E4B4C
BD3E2504
3D6E37F3
3DA8FCFE
3C2426A9
3DF82DFF
3DA628D7
3E1A5C4F
3D2BB0FA
3DB9CD93
3CA757B5
3DA64237
39CE46CE
BB9B23A0
3DC9EAFC
BC0173EC
3D35F031
BD3D61AC
3DA1A6DC
3D2DD017
3D0F42C5
3BF5C72A
BD3B11BB
BD8AC27F
BD9B2BB3
BD24E503
3DC2ACD9
3DB87004
3DBD3550
BC7D15A2
3D914396
3CA14073
3DAD0CDC
3E198123
3DDFF837
3DBA903E
3E347E1A
3D67BF01
3DF1029A
3DF8FA45
3E301E16
3D74013E
3D90FA89
3E103DD0
3E40880D
3DF8F04F
3E4A1D9A
3E5EAC8E
3E44B001
3E91CE17
3E5AA097
3E709D40
3E07E7AA
3D95C419
3D704566
3DAE42ED
BD092750
BC199D9E
3BCE4C3C
3DCB675B
3E0A6DD2
3DAF76BE
BD1D71BA
BCE52843
BD1305EF
BD3927D4
BBA6B8F6
3DAA2843
3DB1E26E
3D973693
BC3E9573
3D8958B6
3DD83739
BBA7CE6D
3D1592D0
3DE8C07B
BC829569
BD43677A
BCE1F6D0
BD0F3975
BD9D7293
BCFF400A
BBF8219D
BD5BD5FB
BACDA526
BCA9CE99
BDB3FF40
3C80FF8B
3D38CCC5
BD732AF6
BB5B6333
3DC47EA8
3DF287AC
3DCAA2ED
3E2A8689
3C93A342
3DD1EC19
3D857F9E
3DA16ABA
3DBE09B6
3D57782B
3DA98446
3D775950
3E014F4B
3DD19C2E
3E1C3FA9
3DE2E178
3E1AE6FC
3E61A37F
3E17D426
3E12F892
3E4C082C
3E3C33AA
3DB361A8
3E57DB3A
3E01F60A
3CE40677
3E019C22
3D472510
BD622FB7
3C4E15C3
BC831773
3CBC5656
3CBFD4F5
3D735CB3
BD82BB7A
3D03B666
BDCBFBA6
3CC1073F
3DFDE7A8
BC3E5150
3DD79B64
3DEEEA50
3D91822C
3DC5FD7E
3DCF0272
BDAFB48A
3CAB726D
BCC72160
BDD4CE7B
BDB7C333
3D1E4513
BC264351
BDE33CA8
BD44EFD7
BC3FB731
3CAFC9DD
BD0F79BC
3CEDC9D1
3D3F2D99
BD816AAF
3D69E13F
3D0B4A24
3D870C7B
3CB43033
3D1DCE87
3DB00B63
3DD71E45
3D98F9B5
BD072AD5
3E0BC753
3DC29899
3DB7B447
3DDA418C
BC9F178B
3D344394
3DCB5CD9
3D984CB9
3E28D643
3E66FEE2
3E0B468D
3E26FEA5
3E4D8389
3E1FBF79
3E1DF565
3E33826F
3D855FFF
3E17AAF5
3D8E7616
3D05CAAE
BC2E726B
3A875F44
3B921EFC
3D4DEE41
3D9100C3
BDC65249
BD03C23D
BDD41E75
3D939654
3DF51858
BD0C9427
3DFFF2AF
3DF4C341
BD5314F5
3D4A281A
3C28B9A1
BB3611F6
BD898303
BCC7A586
BDFD54C5
BC0DF6C4
BC76D4C9
BCE61587
BD30D571
BD1227E4
BE07D6FD
BE0C0BF2
BDE0549B
BD425391
BD9D74B7
3CF76050
3D1089EB
BC9A3B91
3DDC773B
3D85B966
BD54E2F2
3DD28541
3DA636D8
BD320929
3D970807
3D64E468
BC2D33C7
3D2F28AA
3CE5BB06
BD0C7446
3C824BF2
BD192A15
3CA24767
3C30D4F5
3DACD061
3DE8190F
3DF82D9C
3E03A719
BD4E00C6
3DD725BF
3DA17B64
BD97116F
3D030E58
BCD3BC5F
3DBE47A6
3DD50DE4
3DE423DA
BD942FB1
BCBF13CD
BDE507B1
BB9682FA
BDE52919
BD90B0AD
3E0A07CC
3C253D60
3BE72E76
3D6DF8F6
3D19FD27
BD3579E3
3D4BBAD8
BD0E8D26
BCFA4163
BD49C12B
3CDAD556
BD5A2764
BD543BA2
BDDF5239
BDE01115
BDA68A20
BE0DA983
BDB86A32
BD265062
BADF77BD
BD9BA09E
BCA2BD07
BC429CEB
3D409566
3DA08D9F
3DCC4297
3CFD02D8
BD100D09
3E18FA1F
3DF23ADD
3D58BE27
3E340781
3E005915
3D58EA1E
3C21537C
3D7E6781
BC61C4C0
3CCAEA76
3CED0BA8
3E0F6996
3E179198
3E4619B1
3DC10386
3E39E6B7
3DD6006F
3DCAEE1A
3DB859B3
3D9DF4C4
3E148D82
3E1037A0
3D26E8F4
BD3852DC
3B792FD9
3C802522
3DD22F6B
3D1B27C1
BC626001
3D53C38D
3D0D8F6E
3E04A0E3
3D327F03
3C57883B
BB277BD7
3D3204F9
3D2B4B9E
3DC7524B
3DDCD7D3
3D8C211E
3D6D9697
3D8BE861
3AC3E524
BD95A8D2
BDC9536F
BDBFDD90
BD805289
3CAB3212
BD88A557
BC4F2D9A
BCC2A40D
BDA77434
BD3DF717
3D08418B
3DAA46DF
3D736CA0
BD7BA98B
3CB171DA
3CD914ED
BC8402C2
3D915C02
3C631DED
BD2F939B
BD76D557
BD9C3EB6
BC3FBCDE
3E062680
BAA7BC1A
BD1C5330
BAD53035
3D1FC3BF
BCDFA6D1
3D7CF8FF
3C0C6D64
BD4A1EAB
3CF31377
3CEC28D0
3CE4155C
BDE96FC6
3D0945AB
BCD96CC4
BDAB76F7
BD7600A5
3D7B7218
3D84C40E
3C60198A
3D6CE1CD
BB6FE877
3D0D282A
BCC16948
BD77A452
BC25188B
3DF6102B
3D8712D8
BB8D8204
3DC04798
BC79DD5C
3DADED77
BCCA5D75
BDA1B6CE
3D37186A
BD030C82
BD4779E6
BD34172D
BBF8B881
BD9C3AED
BE072E59
BD12AF7A
BDD4F708
BE10F298
BDD5F479
BDA2AF7A
BCD198AA
3D3292AA
BC11F925
BD61F069
3BD6E041
3CE39354
BD71B0BD
3D90571B
BBAAA785
3CA7B1A2
BC9B2B5A
3BB67303
3C610B8A
BC773C7C
3C6911B2
3D8A6CE5
3D83CC6C
3D473C95
3CA997DF
3DB462A1
3D5F6D9B
3DF429A8
3D563EEC
3D288516
3C449318
BD677C70
BD797DAC
BDA01F45
BD637D87
BD12D902
3D23EF79
BD2F4EB1
BDBC35FD
BDAF66E4
BDFB4172
BD168316
BE031A03
BCD0ADB3
3D0D44A7
BD429297
3DFA824B
BCDA0986
BD081ABF
3DD26F81
BD51C7DB
3CFCA1C2
3DD88709
BD92A902
BD69008F
3CF747F5
BDA891DE
BDCACB6A
BD6DD148
BCCC08CF
BCDBCD68
BD6CD716
BE04976C
BDBFD4F1
3D6639A6
BDBBE129
BC472A52
BD8CCE14
3C316085
3C149730
BD4ADA4A
3C5371D8
3D711D32
3DF9FC8C
3D4149CC
BBE9BFB8
3D25B7EE
3CA1C90D
BDB01142
3CD7345D
BDC19608
3CA73DAC
BD0E15C5
BC99BBB1
3CDC95F9
BD21C955
3D12612D
3BCE6DE5
BC1241DB
BD4FB141
3DBA3FC4
BCC07EB7
BD847F5A
BCD4B921
3C9DAF4F
3D0B365C
3BF3162C
BDD9A7A0
BE0D5FEA
BDF47C5A
BCE5C848
BDC4B8E9
BD98E641
3D3E8C47
3D4B5B2C
BDB30146
3C88CF69
3BD7AA96
3C80DDFC
3D16A071
BD36C441
3D73C99C
3DCBC913
BD325C17
BC86B44C
3D917AD8
3BD2F519
3AA4F4D0
BDD32DA1
BD617DFC
BCC98E76
B824515E
BDCCCE0F
BD610779
3D9E3744
3BAE7B7D
BDBA29FF
BCC5B817
3D6FC640
3D04C4EC
BD4DED49
BD3EEC63
BD65E7FC
BD7E4A2D
3D39622D
BD841CEF
BDE8239F
BE350536
BD60E103
BC2ABF85
BDF12CE4
BDA68E27
3CAFD39C
3B732947
3C72FE29
BDBB5730
BBCA9187
3C691904
3D2B28D5
BE0899DC
3A155F2E
3D6589D7
BC4B11AE
BDC26FE9
BD707CB9
BDAB4E7A
BD6649A4
3D98903F
3C35F5B7
BD93F557
3D5AC820
BD8963B2
BD6B8CF8
3D060307
BDC568A3
3D5A8AC6
BD202CB0
3BF5B6F0
BC7222AC
BD12400C
BD203EC9
BDA86518
3D6BCA30
3D08DD52
BDA75D22
BB08CB61
BDA11F7B
3D56B649
3D506D23
BD37CC65
BBD1FF25
3E072127
BB41794C
BB587CCE
3D8F7748
3DE56B78
BC3AC293
3D40E7AE
3C917A9C
3D0A90CE
BCB955BD
BDE21D61
BBF9B438
BDAF1663
BD8D94BA
3D35FD1C
BD6DB058
BE032F3D
BD55E86F
BC1735A1
BD1E5CFA
BD6B013C
BA35D7A5
BE0C000C
BD96609B
BE09B6CB
BE14AF87
BDA7706B
BDE8540D
BDD4A204
BDA07197
BE1E307F
BE2A7A71
3BB42DB8
BD08F275
BD8BA775
BD8B1252
BE05A1BC
BE1FE84C
BD2D05AB
BD4BA37E
BB9FE7DA
3D101D62
BDF466AC
BC96CA30
BDD2101A
BC7BCF75
3D90B1C1
BCC16B72
BD9F1B12
BDD06437
BBF7E443
BA83E691
BD9D4B27
BD41C9B1
BD3606FA
B983FD93
3D91FB48
3C8B57BF
3D30C2CE
BD99F8C6
3D50783B
BD3F560F
3C315012

