3E8E93AA
3E0F5920
3DAECAF5
BDBF34D2
BDFF3735
BE66B27A
BD864F8A
3E752D0D
BEB38122
3E0F67D0
3EEF1B05
3E850C2E
3D9778FC
3EC4A6AA
3E9B7FBB
3E752499
BE1083B5
3E0A5F9F
BE7C61AC
BEDAE6C7
3E726060
BE024C04
BE1B262A
3D65F74B
BD249989
3E87605B
3E745164
BE8E5640
3CB829E0
BE5C50A4
3CA6C70D
3EBC54CD

