3C3D9BD0
BD0616D1
BB5FD865
BC1A6A7B
BCBAED43
3B226062
BD1BB792
3B9957FB
BD90E46F
BCAE6D9C
BDA4DB84
BA84BCEA
BCA20B1A
3CC32023
BD9E5F74
3D966306
3ABC35C3
BC9ED895
BC653A46
3D04C3C1
BD9F498D
BD93DE5C
BC9E2921
3C6B92E7
3D98E4BC
3D678563
3D343BA3
3D9760BE
3D6EC67E
3BE99B08
BCF0A015
3C45E8E4
BD2E40E8
BD8EF6DF
BC87452E
3CACF869
BDA9DEAE
3D0560DB
BC277856
BC00E33B
3D8D5987
BD5A1594
3D78A7A9
3D81858B
BC973784
BCD17686
3D3C8FFB
BD301947
3CF6FD9F
BCA408F4
3CBE0047
3CC9FF2B
BDA11CC2
3D856B4D
3D720127
3D42DAA8
BD2A7A1E
BCF4DD70
3BF293C4
BD87C8D9
BD577894
3D6A0563
3D85BAF3
3D83BFB7
BCB9C5CB
BDA7867B
BD879B4D
BD8EC853
3D4E6224
3D964DDD
3D798866
3CB5A994
3D8142D6
BDABC38C
BD662A44
BD283C19
3D59C380
3D06C60E
BD9245A8
BD38F19C
3D958558
BBFCFB21
3D9B133E
BD51CE40
BB4CBE81
3D94725F
BD93BE70
BDA4A6DE
BD5FC2BB
3D2FC5AA
3D12C249
BD007B3C
BC0BF1AA
BD61132C
3D5A762A
BD55D50C
BD5E7416
3D78AB1F
3CCF885D
BCD9AA20
BCE7EF41
3C0BBF41
3D3EEA88
3C5F317A
3D6A2271
BCBE3F18
3D1DDC2F
3D12FE04
3AEEABF0
3D7B5652
BB802D05
BD5DFA45
3D817B26
BDA22714
BD52E5BA
3D4648E3
BD523F8C
BC6D5C20
B9C3575F
3D9468F1
BD5DAD41
BC00B138
BDA37F39
BD3F993B
BCB0F1E7
3D76C2D7
BD44F79B
3C2E7B30
3D87FA24
3D14B796
3B3F999A
BD729541
BCB2EAD6
3C4DBA1F
BD61617E
3D71E4D7
BD9E2D05
BD0CC56A
3D28AECD
3D966004
3CAEEB93
BCEB2BE4
BD8F7C76
3D8E09F5
3BBF2BD6
3C68C594
BDA67DE6
3B1058FA
3D554FE7
BD03EC24
BBCC047A
BD5303B0
BD3282DD
3D2614E9
BCC383DA
3D7C0777
BDA2C27D
3D153ECA
BD951C76
BD82D491
BD316D19
3CC0AA77
3C38CBBB
3D5A5225
BD990D41
BCD9F105
3D7E8DF6
3D90CD87
BCEDC159
BCBF54D7
BDAC2905
BD53D8CF
3BD42580
3CD49FC0
3CC13EF1
BD696E23
3D43178F
3D1343F2
3C43F9D5
BD54D807
3D7ED2A3
BD1DD394
3D050B95
3D99E5CB
3B1A5EC7
3AEA9F84
3C7538AA
3D1FEF52
3D5839E9
3C32C821
BD06FD7C
3D1DBE12
BB84EB51
3C2DE43E
381CFB1A
3CF1D7D6
3D6D0D75
BC80529B
BDA11503
BD4931C6
3C421DCA
BB3A5236
3CBF607B
BD87E77A
3D74CB13
BD88C47B
3C282ABE
BD8A9E3D
3D848493
3D4BE0E0
BC454DCA
BD78E647
3D157750
BD96C407
3D37CC83
3D5292F0
BD096EA2
BD0AA95D
3C0649F7
3D31028A
BBD2F34E
BC34E22B
BD943918
3C5327AD
BDA42338
3D8249DD
BD91B94C
BD06094E
3D8E3AC2
BA015306
BD9BACB1
BC3B1DCF
BD8A19D0
3D8A67E4
BD6D94FA
3CBAB119
3D6234F8
B980167D
BD1EAF68
3D93FB07
BD4A79BF
3D15B6B9
3B5D61A5
3CEB2199
3CC0A31D
BD1061BB
3D3ED43D
BD486779
BB7062D2
3B821B44
BD4F12FA
3CFB664E
BD88E8D3
3B043B4A
3D8805F2
BC499A23
3D9366FC
BD93173E
BD87C02C
3D107BC0
3D80EBB6
BD96342F
BC381BCB
BD4D9E77
3CAD7F7F
3D76CC77
3BA9971F
3CCC331D
BD84180F
3D8600C1
3D76AD43
BD020764
3D93225F
BCD33234
BCF591B2
3C7633EB
3CD2B0B0
BDA9DC3E
BD6F76D2
3D730028
3C5B74CF
BD8EC59C
3D98FB56
BCF9B5E5
3C65A819
BC9E1F3A
3B9F5B64
BD5E394A
3D4B53FB
3D1B3254
BD21CA64
3D94D543
3D4996C2
3D3BE09A
BB820AC6
BD2EA3F0
BD0A377E
3D76A083
BCAFEBF0
BD5D6C84
BD851376
3C051550
BB021F2C
BD7AFF28
BD93A77E
3C56F268
3D8866DF
BCF71537
3D60B8BD
BB238E68
3CEC11CF
BD1DE49E
3A9CCBA5
3C5E93D5
3D89FC5E
3D0D775E
BCA762F4
3CBE643E
BCA9FCE2
3D84F4D0
BD358D40
BD016D27
3CCBF2DB
BD486A92
BD00747D
BC32ECAD
3D8BD29F
3D4F893B
3D98A057
3C9D8DD6
BD133F70
BCAEFA8C
3D9AB05A
3D0C3E89
3C0B768E
3D996F00
BBE080AB
BCC732A2
BD480EC4
BCA84109
BD3D72B2
3BCAA990
3C1B7DF6
BCABF548
3CA60C4C
BD6B0201
BBB11F99
3D80F8CD
BD87D113
BD9952E6
BD8C6370
BD84FA80
BD1067EC
BDA7A7BE
3C3E40D6
BD9207B5
BD96A61B
3D594180
3B8ECB2C
BD553714
3D08A717
BD5FFF35
3CE0DD92
BD817804
3D8BC4A8
3CBEAF53
BD90ED65
BD07BCE3
3D7CCF93
BDA184B6
BD9D005A
3CB457F1
3D5AE2E1
BCB44EDD
BD706DA4
BDA201AF
BD4995D1
BD9C4400
3CA5A8EB
3D901BEA
3CB7592C
3D00AE1B
3D987901
BD87AD46
3D8F6D9F
3D069DBA
3CDB77B7
3D0CD122
3CD334B0
3D59FE02
BD0A3D47
3D07786C
BD9F81ED
3CF1CEA9
BD0ECAA8
3CD2C362
BD036F91
BA769801
3D8D2839
BC9C13FB
BD5420AA
3D4DA865
3C4E338B
3C88CD90
BB4140C6
3D7FC069
3CBFF97A
3D25A8B7
3D7C849D
3D4B7E01
BD1D25FA
BD7D398B
3D64441C
3CB478F9
3BD0CB10
BD81396C
3D319F0E
BC9C7448
3D924EB7
3D0E5993
3B877B44
3D19C3AC
3C7BCE62
3D381903
3D806C86
3D111A9F
BC9A77EA
3D553A0F
BD656643
BC893E44
3D8A7890
BC9857CE
3CC6A1DD
3D35083D
BD4A959B
BD982554
BDA8490B
BD29F8F8
BCB1BB15
BD9F790E
3D51798B
BD239B34
BD061D26
BD73DFB5
BD18DB0F
3D3437D8
3D525007
BD2C81F7
BCFC991E
3A13DF82
BC25C23C
3D72DA46
BCDC69BF
BD620608
3D8B9340
BCA84C3E
BD2985EB
BDAAFA0D
BD348971
BDA8633D
BD5324A6
BD860BD2
BD798CAA
BC6C7767
BD3EC43A
BB50B4BE
3C656EDC
3D89B3EB
3D6A1E7A
3C9A62FA
BCD72849
3B89CA84
BD07F152
BC46B08D
3BA92F53
B9068123
3D9AFD4A
BCC7B2E9
3D4B54C6
BC879E1D
BD2A53A3
BD2B9DD0
BD894821
BD903894
3D8982ED
3BA86B10
BC390D8B
3C04FD3A
3BE65F1F
BD90E1FE
BD8E9981
3D83B3F8
3D9547E4
BD911C89
3D840238
3C2B0088
3D27F25D
3D2B4B06
3D826C23
BD5E4C2E
BCFCF054
BD5D0A00
BD61023C
BD0D5474
3D78CFEC
BDA46C03
3D59D24E
BD5B5E3C
3C9F07A1
BD279F0E
3C979E63
BD916E25
3D546B28
3C866436
BCECEE8D
BD9E29F5
3B32CD41
BB89974D
3CE16978
BD9A6B43
3D2EC361
BCEE3AB8
BC25B584
3D5DC124
BD2FAE79
3A8D8A24
3C608DB7
3B91B466
3CA7AD5C
3D514FCF
3C95A80B
BD09D8C3
3D08FF54
3D796253
3C2A30EB
3D85AC6F
3C45DE3A
BD8C5AE0
3B27A377
BCEA3B41
3D893AB4
3C4B1877
BC6911DB
3CAAAA2C
BD9CBA15
3CDE80A8
3D267C14
BD882A15
BC202106
3C4C8598
3D911BA2
3BB30217
3D3B3F02
BD5702C1
3D40F391
BD672A1D
BC133C8B
BD8CFBAF
3CA98B97
BC1B7DB3
BC0A19B4
BC92B63C
BB80D9E9
3D39C310
BCE7397C
BD8E9184
3D956967
3D6690D7
3D6D9250
BCE174B7
BC5E686E
BD90C8AB
BD81C5B3
3D13C972
3D358F6B
3D094104
BCA65F4A
3D647349
BCDADE9D
BD8CE4DE
BD60D1C8
3D8246C9
BD5DB91D
BD71352C
3D7CCF97
BCC5CC94
BD27DE09
BCF1F12E
BCD17E7B
BD432E3B
BBCBE2E5
3D35452E
BCF36A06
BCAE0326
BC86CE52
BC6EFB14
BDA54B5A
3D8E8D64
3C01D220
3D807252
BD3FC204
3CDFCD89
BC15AE53
BD95D991
3D0C43E6
3BC686F6
3C995228
BD03F6C6
3D1BEC55
BCFC9A62
3C3AB11C
BCC3FE5D
BD2D3228
3D1BD67D
3C97DCBD
3BDA85EC
BCE1228B
BD43CB32
BD9B5A86
3D680776
BCE9E61F
3CB221A0
3D5C43BA
3D5779DB
BD68C503
3CC650B6
BD9A3EE7
3D93829F
3D832BF9
3CCD6A6F
BC50CA0C
3D5C7D01
3D74A596
BD49C942
3D5E2CE5
BD6A5589
BD25ADB8
BD3005BC
3C48C0AB
BD599F93
BC8B0798
BD42B5B3
BD9DD25C
3B1BA2A2
3D231764
BD62FA53
3D97BC04
3C81BA3C
3CB004F7
BB8BB160
BDA46E18
3D4A475D
BD769EB9
BD304E31
BCCF99E2
3B325897
3CA663D1
3D182110
BD9ED2D8
BD11C428
BA520232
BC8741CD
BCACD27F
3D88017D
BC8C9BE9
BD70F5D9
3C5F322B
3D5327CF
B9AEF716
BC6FBED7
3C058065
BD9E2FCE
3D9ECE46
BD85F100
3D1BCA9F
BD0297BE
3CAD8EC7
BC204355
BD922EEC
BD842F25
3D064710
3D953A63
3D0BD4DA
BD9C1BF8
3D549A5D
3CCE2022
BD8B5081
3D235EF2
BCBAB2E0
BD8E6E51
BC6AA739
BBB2F9EF
3D25B75F
BB4A8AB1
3CC5618B
3D9842A6
3C5F1C61
3D82644B
3D718DDE
BD887B95
BDA580F6
3CCAF9CF
3D1DA002
3D6C14A7
BD7FFBE0
3D904016
3D806618
3D577B9F
BC11D7DF
BCBAE785
BD5204D6
3D8393B1
BD1633EF
3D22F0D5
BD5DEED5
3D7303E0
3BD51F3F
BD26AC43
3D4B7A96
BD9FC439
BD2F8C88
3CE7F0B7
BDA85C0F
BD481C92
BC9FC147
BD6DE046
3CC82F6A
3CEC8369
BC388E04
BD4A5175
BBEC62CC
3D7D236A
3D7CFBFB
BD22FA2E
BD83DE0D
BC1E29BD
BD7E28F5
3B58F6D6
BD9ECA04
3D4595D8
3D78444D
BD259E07
3DA06CB4
3D3B3E5F
BD8999A9
BD79062F
BCB3EA79
3D21B332
BD3C1CA5
3C0753CD
BC3BBC06
BD7D9458
3BB4DA50
3D541980
3D238D2B
3D8CA786
BD908A54
BD6BD9E4
BCA910A4
3C85B690
3D0CD9E1
3D524282
BC084426
BD43753D
3CF2FC96
BCBFBDD1
BD8D7464
3D84BA75
3D529A40
BD875D51
3D0BD56D
BC951C32
3D6219F2
3D96AC08
3C4D1DC7
3D2A8224
BD1E3109
BD7E09AE
BC598E88
3D920ECD
3D3873DC
BCFA0ABC
BD1D1B9D
BD947791
3D0FC892
3D04A0FF
BBA66AA8
3D09CAF4
3D93DB1C
BD34C8C4
3CE2CB8F
BD766709
3D8234B4
BCC2969D
BD15522F
BBD6EB39
3D56A7AC
3D7E2413
3D93047E
BBEFD219
BD2ED830
3D948F42
BCC15326
BD72727C
3D886AE3
BC34AA4F
BD6BC2CB
3D9EEB56
BCDE6735
BCF71860
3D80DE29
3D1C42A0
3D3DFC0F
3C66C207
BD8F4360
3D1BD55D
BC8AB1F8
BD839655
3CB0D846
3D04E84A
3D2E409E
3D22BEA7
BD98D78E
3CA9E33D
3B84AB48
3D209E99
BD288899
BD0F6F06
3CF149B0
3CDCC04A
3D9B122E
BD94EC56
3D565BB8
3D005818
BD1D03C1
BCB1D670
BD87C0D2
3CCE49AC
3D8C69CA
3D1FC8ED
3D1D90DD
3D8C399B
3D7B40E9
3B760A42
BD83E45C
BC60834F
3D99A551
3D04CCE2
3CC30A24
BD4AC5DA
3D942665
BDA55A39
3D6E1420
BD71A146
BCBA6E71
3C8E2AA8
BD2A0827
BB22DF3F
BD7189A5
3D6618B0
3D9F5A5A
3B9B95A0
BCC6E50B
3D5636F3
BD7BC298
3C65B33C
BC433C09
BD7C1A5D
BCB5C45F
3D09BA68
BC5091A4
BD9B735D
3C974C82
BCC34B14
BD30D6F2
3B68C7F3
3D982FFA
3D98C0BA
3CF5FA2B
BD8D7FD2
3D890D53
3BECDD91
3CD96DA7
BD1F75E1
BDA64834
BD0B1A15
3D598398
BC96344F
BDA6D0A6
BD017F56
3C042E43
BD9D33F5
3D115DB0
BD00D5E5
BD73642A
3AA98749
BD95B0AC
BD3B8CC0
3D9DA2FC
BC780448

