3D199F58
3E9D206A
BE6F2136
BE32E408
BD8D2D5E
BC8817E0
BE590E38
3DD6E3B2
3ECFF259
3E327F04
BE6A65FD
3EA55A6E
3E888976
3E971DAB
BE72C6E8
3E1F3CC2
3D66CA00
BE237635
3DE220D8
3EDC140A
BEA6B8C0
3E9ACA58
3E85BBF2
BDD939ED
BE880197
BA77FE5C
BD9E07C0
3DC1AB5A
BDED37B8
BE7A2629
3EFBBB68
3ED9BB1C

