3E62C1C0
3C216D00
BE87DE3F
BEA6454C
3E309FEE
BD1665E8
3E5F5E69
3E4DD0E0
BE0EBD69
BE707684
3BA16AF2
3E293E6A
BB6DA680
BDBE13E0
BC9E5750
BDC66044
3E1D7A64
3DB222E4
BE28CAAB
BD0CB3F6
BD2D67E8
3E5F6C10
3D93778C
3E3F2398
3DD90090
BE9CA067
3DDDF26C
3D2C8D80
BE935A8C
3E97BB40
BE92E87D
BE38ABC0

