3DC55A38
BBBF1CF8
3E380C9B
3DA37D81
3DC12F45
3E0A03E1
3D6E4585
3D87A684
3E0A4E7D
3CCE12FA
BB9DBA16
3DDE0E2F
3E0D209A
BC9E81CC
3DE36288
3E476247
3E167228
3D4A4E20
3DDE1CE3
3DD21DA1
3DFE7D13
BCC64276
3D38C00F
3D81294A
3DC8801E
BBDB45CE
3DBCC70E
3CD84C8C
3DB6193C
3D93917A
3DFDF3C1
BBE1F51E
3DB86E6B
3DD85BD5
BA864035
3E01AD2D
3DDFE22F
3DBB0A27
3D793D61
3E083B09
3E0B6CA4
3E027AC8
3DF83401
3D7CF33C
3D7E7EDD
BD5D5803
3D5E8237
3DB264CD
3C539B49
3D836A4F
3D51F24F
BD5D9AC2
BB13E4AB
BD7B2953
BD2DCB60
BD9485AB
BC0D88B3
BDFF818B
BCF30162
BD7E7F96
3CDB24BA
3CBA9526
3D7CBA1B
3D839ED6
3D3C493F
3E06266C
BC92D7B2
3DAD0F9B
3E1AB04A
3DFBBA91
3D7B7EC2
3DCCC8F2
3CA22646
3DA1F74A
3C16A58E
3E164092
BCE253F3
3C1452C0
3D2E31B0
3BF6D213
3E062DE0
3DDB543B
3A8DD816
3DEE5E46
3E076357
3C98C7E0
3E070F2F
3E1C7C94
3E06C876
3D245D77
3DA7FE58
3DE5B1E1
3D04DBD6
3D7C45E6
3DEADFF7
3DE0D4D4
3D73BAE4
3D77B6D5
3CA619C2
3E00D2D8
3CF2EDEE
3D322250
3D763F27
3DA1EA33
3AA1E08A
BC4827F3
BC11BC9E
3C9BA7F8
BCC64421
3DABFA01
3DF60ABD
BDAE298F
3D4BDBC3
BD19111B
BD0216C0
3B140019
BD0CA918
BDB4155C
BE02FB25
BA1C821B
3DB2768D
BD49C56C
3D8647FD
3BEEAF19
3D911489
3D711B16
3DDB449F
BCC3693E
3CE2F848
3C68EFC9
BC944187
3B53C493
3C8A5262
3B31F0DE
3DBDB865
BD618226
BC97ED9B
3CEE9256
3D1E89DC
BD893AC2
BD1C5975
3DDE9118
3C4E0F84
3D34ABE6
3D1485D5
3CC9611F
BC2052A3
3C8DF0E1
3CA6B2C9
3D84E574
3D974665
BC9BAB74
BBF7AA3A
3D67D6D7
3D72B649
3D816CFC
3D6ED2E5
3D69B28A
3DBCDEC8
3DDE8E01
3D3C26DC
3C311EA9
BD3A0FB7
BD77D633
BB2DB1A7
3D9B2068
BCF8F428
BCB5F6C9
3C229E5C
BC063CA4
3CE78364
3DAB43A2
BCB5E5B7
3D0DA663
BC144FD8
BDDA1A5C
3CDF1386
BDF2BA41
3BC78BDF
BDB6496D
3C5B6CB0
BBEABC79
3C76DB7D
3D276F36
BBC00A18
3BD87377
3E009F9C
BCAE201D
3DF701CF
3D411F58
BDA6A5FF
3DB8FC4E
3DCC636E
3D80BB13
3DB170AA
BD65D441
3D19C084
3DAEFB56
BC94444E
3D359DDE
BD2CA2B8
3E184576
BCFC159A
BC96F9C0
3E0D05D8
3D4895A3
3CC77C6D
3DA9419C
3D9C5138
3CC5C78F
3DE01D48
3CBA884F
3D6D1CA6
3DD25F84
BD3D571B
3DAC2BAB
3D9F2082
BB861A71
3D05B381
3DCBC62B
3CE25BED
3D5942D8
3CFC4114
BD97D1C9
BC3BF0A3
3C6A608F
3D830EC8
BCA25896
3D030A4F
3D11E420
3D365A86
BC1060E3
BD1E49A8
3DC7CB36
3C85A6E6
BCD03E51
383993FD
BE2D1640
BDF6F18A
3BC22A9F
3DBF9ADA
3C34086B
3CB1F94D
3E26A596
3D7CE09E
3D852E2E
3D1F50F6
3CC2936D
3DFF310A
3DB193AD
BD7F04B5
3DF7F9CC
BBE6CFD3
BB9A9B5A
BC83A02E
BD61FC54
BDC53BD4
3C81B5DF
3CA427AF
BD50B212
3ABEE975
3C95667D
BDA828E7
3D6A0F48
3D998D84
BC077318
3D99BE03
3D510B06
BB778F70
3D71FAAE
3B789374
3D17EF05
3D496E13
3DED6E6E
BD99F41E
BA2EF2E9
3D99C13C
3C244004
3CFDF88B
3CC7FCE1
BD88AAE2
BDA1CF18
BD6C1EEA
BD5B0758
BD98D970
3B856BE8
BC87F740
BD3F1FA3
BCF8C1BB
BCEB26D2
BD6C465C
BCA0D972
BD16A16F
3C5D82BC
BAE5A9B5
BDA40ED2
3C834F21
BE0E4D69
BE0478D4
BD5DD7E0
BC4EADCD
BD800027
3B181486
3D6DFB25
3C9E38F2
3DEF4FCD
3DF8A6E9
3DC17F44
3D1E30EA
BCE743E4
BD45657E
3DAA6115
BB1E2497
3C648E4E
3D15AAB6
BE02EBEA
BE19BD13
BD929153
3B1DB66F
BC897FC0
BDC905D2
BE139B8A
BE2BFC3C
BDEF109A
BDA1962A
BE3FF35E
BE5AD772
3C8EC60E
3D1137C2
3D3908D2
3D1684D5
BD702148
3C41A060
BCBA7A4A
BD8726BC
BD16EE83
3D69F911
BDB5FB6D
3D372364
BD9006BD
BBCDD194
BD24C4BC
BD460F8A
BB269DBB
BBBDE5F5
3D316819
BD9C1F3C
3DB6B34A
BD786524
BDAC6606
BD21F8F2
BDE6BFC4
BDA0EB0C
BD8ECD9E
BDBFA350
BCD54A2A
3D813FAC
BE4BEC5C
BE2ABCB0
BD905F17
3E207E55
3D0F9692
3D9F2C49
3D110700
3DACC2E7
3DC343F8
BD34BE4F
BD7A4362
3CA57E8C
BC9F968E
3D2DBB30
3CF2DEAD
3C12C759
3CB45A2E
BC0D1087
BD45F308
BDD6081F
BC625512
BCAC62D9
BDB7D518
BD3BBA0F
BC1BF60A
BCA41F55
BD971312
BD4BA1B9
BDD3C4FE
BD524F91
BDE109E0
BDFCE2C6
BC3700B5
3C77FBAD
BC3FE31E
3C5487E2
3C172C09
BD7EE0EA
3D7E434A
3CB2EAF3
3C0C24F6
3CB0E479
BD94E5D1
BABFA02F
3CEE0C98
BDBFB447
BD7809E1
3D8A5267
BDA03C3E
BD3F35E3
BCDB1312
BC25844A
BE06CFEF
BD0D0FF5
BE1F577D
BD1C375D
BC998D87
B927BD24
BD5310D2
BD5E668C
BD8D9894
BD8E1A75
BDA61066
3E211BD1
3DB7CFFD
3D67F034
3E23D7CB
395606E4
3E2F8D0E
3DCF6B13
BD6D4836
3B92781B
3C4D7D50
BDB3BD16
BCA98B6D
3D5BF9AD
3CCFAC09
BC1942C1
BD85F2C1
BDD9A365
BDA9E4CB
BDBF1A6B
BD81E0BA
BDE9DB61
BCCABB0B
BCCE085A
BCC9529D
BDD5276A
BD99B372
BDC59429
BE3E113D
BE5AE56A
BE112762
BCAB291F
BD1E793C
BD0515CF
3B989FDA
BDF6193E
3D49D5DF
BCD15C26
3D7EF515
3D384342
BD8E1CC9
BDA82593
3BD16174
BDF58E93
BD915D1B
3CD1A0D3
BDA3F7A6
BD754786
3BA0D408
BE1636B5
BCF19068
BC66985C
BB352871
3B8F57BC
3DB48108
3D19ED49
3BC604CC
BC5B8BDF
BD835095
BD7EF5FD
BCEE4000
3DC2AF00
3D87D5C3
3E47505A
3E01405C
3E27C876
3E18A098
3DC3491A
3CFACC56
3E131B1B
3D9B0E33
3AD89CBA
BD130DC3
BC6FEE25
BC8B123E
3B2AD3FC
3D659474
BC5EC552
3B035A68
3E2EB331
3D8150CA
3C117B63
3D79F7AF
3D0E6168
BDC1A53B
BDE50283
BDED9184
BDE57E45
BD3D3760
BBD13B12
BCA16ED4
3CD46FD9
3D2E1AE5
BD45636A
BDBCB64C
BC330FB8
3CC7C7FA
3C163959
3DB3FDEC
3D6E7C1E
BD600286
BDAF8DB0
3D474DAD
BD76B658
BE1636A4
BDDBE82E
BD601583
BDFD564A
BD3D4D2F
BC07FDA1
BD6EBA62
3CFEEC02
BD5374BB
BD739530
3D6DC15B
BD5CECD7
BD9D4900
3CE0BAED
BD0E0087
BD517370
BD36F6FB
3E0566AC
3E172AD3
3E0296E1
3D942E4F
3C24F154
3E3E8EDE
3E0F0300
3CEEE63C
3DD6EA08
3D89BC70
BD03178F
3D4C1B28
BDA77CFF
BE08D4FC
BDE09452
3CCFFDF1
BD7E1AD3
3D2E162B
3CD2C180
BD806FE4
3CD88DEA
BDE00F42
BE107DA9
BE1AE932
BBB1F7AB
BE2DA21D
BE004525
BDDCFB68
BDCB44B1
BD8EB83D
BCBB9BB1
3BD672CA
BC5E150D
BDC90AA3
BD52B080
3D9C4C5C
BD5B3FD3
3B08D145
BD9E588A
BDC6360A
BB471CE5
3D657485
BD768D82
BD4ABE90
3C97B820
BDCBAC47
BDF3F7C3
BDB8CFEC
BD1B5A3F
BE03DD4F
BCFDB1B0
BD67F0C4
3D1F6032
BC5394A1
3C3B35DB
3D046F15
3D9C04F5
BD89D873
BD5DE386
BA52D723
3DFD7E2F
3DD49D95
3DB73416
3DBBB41C
3DC39F9E
3E2342EB
3D68BA37
3D8EE4B1
3E124F88
3D542DB8
BCD5BC57
3C39C8AB
3CACF637
BCD1EABD
3C85DAAA
BD864562
3D101D75
3C378EA6
BD1081BF
3D8AA206
3D3536BE
BDBC36FB
BDF7F7AA
3CEB5B9B
BD49B29C
BD32B896
BDACCF19
3C0AF150
BD4E7F86
BDB39632
BD6261EC
BC776D85
BD88DDF7
BD70F5E0
3CE1A28E
BBC4EA82
BDF041B1
BD5D680A
BD3ED97A
3CEB51A7
BD0B7545
BC0D508B
BD859B76
BDEC7AFC
BD94E969
BDDB74AA
BD12AA82
BD025698
BDDD491F
BDAD9E0D
BD7EF28E
BDDD01FC
3D74BE55
BC95B6EE
BCA66972
3CDA2AD5
BB4C4EB1
BCE2A1C6
3CD0E959
3BC5D664
BCC1685D
3D32AC9B
3C70417E
3D2A1D18
3BEA0370
3DD81486
BC899F0E
BC8F59FB
3DF503EA
BD3F68AB
3D6FF871
3DF2BFEA
BBAB6AD2
3CFABF2C
3D1B2F07
3B1CB3DC
BCB1D3C1
3B57F7C8
BD376E22
BD637079
BE0A7476
BC13A187
BDCFF0CF
BD603850
BDF850BF
BE080B7A
BDAAA9A3
BD22C0FA
BD8FD5AE
3CA7BDC0
BDA95130
BCFB3145
BCA9508A
3D434D7E
3CBDAFDF
BD97B5C7
BCCC045E
3D9702C8
BCAE37D7
3C94EE56
3E00B040
3CA465EF
BCB89E52
3D49C779
3C8E133C
BDA5BB49
BD45CC6D
3D27A346
BD588910
3BA13329
3D057F40
3C4C7439
BAF578E2
3D623E30
3BBD0610
BC56D241
3D856E71
3C4FEC30
BCB0C7EC
3DC1070A
3D5B0282
3E1F9346
3D8E7C73
3D429558
BCAC9479
3DC78B00
3D8CF705
3C327223
3DE0E027
3DB70896
3A04EFDE
3C872C25
3D1D1403
BD6E5D45
BD175647
BDA151A5
3D0B18A9
BDCF0307
3D37A4CD
BDB50348
BC810498
BDC201FA
BD687BC3
BD236C64
BCC374F8
BD2ED0B6
3C0EFC61
BD3F6E77
BCCB827F
BD6D084D
3CDA58DF
BCDCA90F
BBC22716
3CE5EBBE
BCEDD975
3CE8F030
3D7864C0
3DA1BCCC
BBFE2FEC
BBEFB30B
3E0D0E46
3DAF285B
BCA6BB60
3DB23EC0
3C9EB2BE
3B643884
BC2A9EC0
BD42149F
BDB3890D
BD53A1D1
3C80BA6D
3D57F3ED
3D00E480
3D83C3B9
3D99F625
3E0FFD4B
3D86FD8B
3CD7091E
BD05D9BA
3C003654
3DEC3576
3E101309
3E22FDB4
3DF22F49
3CC90131
3DAAA1C7
3CD9FC5E
3CA20D64
3CBE66CD
3DA8D93C
BCA333FD
BCB18538
3C02038B
BC254896
3CC5AF3E
BD77B350
3D6E0470
BBE2529A
3C87536F
BD1F60E7
BE1D5564
BDCFA51D
BDD98DFC
BDEC7612
BE0761D5
3D7A9BDD
BC7B1BAA
BD6A8720
BD877E08
BD801094
BDE1B324
BDD8C602
BDC6729C
BDD59070
BB13531C
BD895BF0
3CEB2FF7
BD988857
BD704464
3C0589BD
BC8B9286
BDC0D2AE
BC7CE7E0
BCE2E8B5
3D138690
3CFC3ADC
3CB46ABF
BCE53119
3CA2E77E
3E1021C0
BC7C641C
BAA6155C
3C9B7DBA
3D8FE5BB
BDACBC32
3BD99827
3D3D6B61
BE08F059
BC3213E8
BD581B45
BCCA1DA0
3DBF9BB4
3D71AC53
BDB991E7
3D844078
BD6B0F25
3D29E7E7
BD920DDF
BD949F26
BD5D8DE8
3D6BC646
BCE1BE11
BCE54D0F
3D260794
BCF110D4
3D16E462
BD3BB02D
BC2FE95C
BDD315B0
BD5539A2
BDA1CC36
BCF81B89
3D8BC041
BDB33C8F
BBA68A1C
3D4B94EE
BE03162A
BD30B747
BD82E76F
BDB0DD6C
3BE690D5
BB822DC9
BE0C43B0
3A921436
3D406DAC
BD722396
BB912E01
3D297BB2
BCF0F402
3D38A144
BD00A8C6
BDCEC7FB
3B8F3C93
3D997AFD
BD60E6A1
3C84863D
BCCA97EB
BD8A0FD5
3D831EC1
3D8D72D5
BD29986F
BD95967D
3D8CCDBC
BC4FA3D4
BBDA353A
BCE95ED3
3CE7B8B4
BD43313C
BC4433E9
BE01DB7C

