BD2D031D
3C5ED568
BD53F61A
3C9EB1DC
3D1B632E
3D26EF38
3D99476A
BCF2F7C2
BD3C71C2
3D7D3C0C
3D220DF4
BD9F3B92
3DA0DB34
BCAF7080
BCA57018
BC26B250
BCCF1E1E
BCD5CFF4
BD808DBF
BD1FD0E8
BD179B22
3AB78C00
BD5A0566
BD59C0BD
3CC26798
BCC4C116
BD0D1D67
BD7E6254
3C189698
BC524488
3D8D8840
3C0FDF00
3D0B3B36
BD49D0BC
3D10E17A
BD96BB8F
3D7E549C
BD83FE53
3C252CA0
3D0506E2
BD78D3E4
BD57E394
BBD7F9D0
BDA1A68F
BD2B461B
3D0AB4BC
3D7A5D8C
BD59055E
BD1B872F
BD5332A1
3D97332E
BD940F59
BD373C0F
BD5A7008
3D95DF30
3D6D4F34
3A184E80
3D97625C
BD8C0B8D
3D6C375C
3C1A8408
BD64470E
3D2756FC
3C1A0C58
BD1AE1B8
3DA1B7BA
3D956496
3D26B9EC
3D6050CC
BB9B5B10
3C5AA940
BD8AA17F
3D156DF0
BD1D9C78
3CFF8568
3D6B1E90
3D49E250
3CDDF894
BD849887
BD2EFCE6
BD90B35C
BD1D38B8
3D104690
BD4EEE2E
3D49F580
BD4AC968
3D97ECF0
BABD6380
3D1B828C
BB8346C0
BCD88BF8
BC797170
BB8EFBE0
3DA1E924
3D0C388E
3D0F50F6
BD021410
3C3FD990
BD89349B
3D2C00AC
3D7DED64
BD5A1544
3C902C30
BCFC5C8C
3D992CFA
3D974ACE
3C20D828
3C0E7BE0
BD7F2CAA
3D7ABE74
BB70E0A0
3D153050
BD81C670
BD84A7EF
3CE995DC
3C577B68
BD6B1890
3D889C8E
3D51B1A4
3CAF5320
3D89021E
BD8185F2
3C423128
3D01EBA6
BB37B120
BD820D60
BD9AED69
BD8470A9
3D9BB678
3CF93BA4
BD9FC74F
3D960CC8
BCE03A12
BD08D51A
3D351D26
BA2FA580
3D1D4958
3C84FFBC
BD23D2B4
3C815D18
3D904578
BCB97A0C
3C8DD4B4
BCAE478C
3D8E7446
BD9AC6D9
BD75A8DE
BD313EE5
3D80DB28
3D807C8C
BD1B02B2
BD691008
BC5DC300
3D692B4C
BBA44640
3D08BD9E
BD75CF3D
BC3290F0
BD4E8FBE
BD56903E
BD7D579A
3CB5768C
BD34CF84
3DA2E9B4
BD3A46FD
3CD42C0C
BDA2E850
BD114CD0
3D93EAAE
BD9CCC1C
3CBEB438
3C9ABAC4
3D882F22
BD726A58
BBACD980
3C2FD078
3D9AE8EC
BD9B82DA
3B020B60
3D9C9B30
BD5C886E
3D264D68
3D53CBD8
3D3FF700
BD837CF4
BDA2FF0D
BD52A972
3C06B738
3C87D074
BC510520
BD4DAEAA
3D65F028
3CA348D8
BCA7CCA2
3D80D2D0
BD581146
3D94DCFE
3D629300
3B8842A0
BD9CEC86
BD3B23F0
BC81299C
3B9D10B0
BD86E56D
3D89381A
3D5DE29C
3D44D470
BD629D2F
BD9D7509
3D80253A
3BF7A5F0
3D53BB50
BD66C88A
3D8991B2
3BAB40F0
BD7F8B1E
BD889599
3D87B6EE
BC82FBB4
BD4A8B1A
38677800
BD3F72A8
BD152C77
3DA1855E
3DA3A78E
BD566AD4
BD8C9635
BD5CB662
3D976B4C
BCE1D8A6
3D9BBBD2
3D13A848
3D114EEA
BD47B1E1
3D914508
BC767F88
3D25D82A
BD22A42C
3D17E86C
3D8F6022
BC5A6E30
BD165BF0
3D915EFE
3D760CD8
BD29A912
BD4B8148
BC96474C
3D5C9FE0
3B215C40
BCEB33A4
3D9B3534
3D8F77D8
BD55B0A4
3D938900
3C8D3FD4
3D89961E
BDA30511
BCA242A0
BD47ED65
3D80FA56
3CF08284
BCCD9E8E
BD88E5FE
3D81062E
3D910B5A
BD129AA7
3D733EBC
BD86D52E
3D4E11A0
BB4FA000
BD0B5602
BCB0D022
3D4F7B90
3D88EC26
3D35C85A
BCC9FDD4
3D010294
BDA07AF8
BCB305A2
BC8C53A8
3D1CE362
3D3E2720
3CF36420
3C6FFB88
3D350940
BD609153
3D121C90
BD3C74CE
3C83049C
3C899B5C
3D9AD1E4
3C5A1BA0
BD462464
3D352512
3D66A62C
BD81C21A
3BE6C3D0
BC245800
BB989BC0
BBA79280
3D86DCB6
3D2687AE
3D892816
3C528D88
3C3D2710
3D7D5D58
BD8BF92A
3D2E4A0E
BAB58B00
BD8962DF
3D97D0F8
BCF27A64
3C5F5390
3D7E0B70
3C93ED7C
BD942394
BCF82202
3D6C48DC
BCDBAD2A
BC301608
3BD73F00
3AEBAEC0
3D253452
3CAA0A00
B9720800
BD84FE3C
3D248B2E
BD20CBE8
BCD14FA6
3C646490
BD94E2D7
BCE0FCB8
BD81166B
BD6309BE
BD69FC87
BD8B5C58
BD9930F7
BD2637CD
3C81AA1C
3CDEB4EC
3CADB5CC
3BB80970
BD35BF33
3A90C540
39569200
3BF72CF0
3D6BC4A4
3D67C8F8
BD20651A
BC30DC48
3D82D5D8
3D5A9EA0
BD876BF9
BBB247B0
BD6C1204
BD80AEDB
BDA02A1F
BCDBFDEC
BD877FEE
BC7E58A0
3BB29FA0
BD734004
3D1B5FC4
3D2E8CFE
3CE4BB4C
BD3DDEDF
3C7D5328
3D9B98EC
3D441FA0
BCAEDF26
3C85B02C
BD845EFD
3BBD0500
BC7E4378
BBEC8F50
BD876302
3D9467FC
3D17554A
3D3864F4
3D5C74C0
3D8922D0
3CA894BC
3CBBC574
3D3DFE38
BA4A9F00
BC2DF3C8
BD812B71
3D116826
BD5A97A2
3C83A7E4
BC75B580
3DA219E2
BD4D3DAC
BD7249A6
3CEFDE58
3B923740
BD8FD573
BDA22034
3D05D122
3D104020
BD47E618
3D3D14A4
3D6C8DE4
3D067844
BD74E3BF
BD93D88C
3CAB5910
BA29C380
3AFD0D00
BD787133
3D0203BC
BD223D1C
BA1B5380
BD11C893
3B282160
3B77C340
BD0EB265
3CD81D88
BB19A520
3D407E04
3D3A71D4
3CAB1D14
3D4045DC
BB239D00
BD924908
BD15859B
3D19D4D4
BCBBC2EC
3D8530E2
BD01910F
3D76B514
BD5875BF
3C53F030
BC6A6068
BCC3EE64
BC611CA8
BBAC12B0
3CCFA18C
3D42C644
3D0E8414
3D23399C
3CC472DC
3D15F426
3D74262C
3D84AA0A
BC92518E
BC1B7DA8
BD2A0FD5
3CB1FD60
3C37A500
3D90FA4C
BD0B80CB
BD6670A9
3D3A1B34
BCE2C236
BD61732B
BD55233A
3D9F3E6A
BC5C0B18
BBD2D520
3C641618
BD928F23
BD93C470
BD82B1B0
BC8AE200
BCCF8EF8
3CC60178
BD9C5010
BD42C235
3D867FA6
BC8F7CC8
BD861D6C
BD88896C
BD12CB65
BD9EEF58
BD945FAC
BCFFBB48
3D19267E
3DA35294
BD6A507E
3D93DB20
BD3F1BA4
BD5C95EE
3D4C1A74
BC4DF978
BD3F3790
BD3F4250
3C91CC48
3C9B3F28
3D48D240
3D11B638
BCAC88A2
3D8B8244
BD7BC821
BD8A0DA2
BBD6ED00
BDA0F76C
3BF936C0
3D25A49C
3D2E32AA
3C93D200
3C076358
BCF529FA
3D7AAFEC
3C354A58
3C3D0F50
BA89E540
3D22A676
BBBB9780
3A65F600
BD817199
BD0E7968
3D5F02F8
3D244DDC
3D37119E
BBFEAE40
3AD13F40
BD921F48
BD948FC1
BBD87FA0
BD1C839B
3CBCCA40
3D9AFDB8
BC1A2F50
3D89DF32
BD48F4B5
3D835280
BD78E1FE
3D8D1078
BD4ECFBB
3D1CD2CC
3D8697B0
BC99F0EE
BD0A0CCD
3D42DD14
3D5B728C
3D3240C6
3CE26394
BD26616D
3C6E51B8
39B90100
3C90B6E0
BD986504
BDA024A0
3D775BFC
3C972730
BD730D77
BD17A773
BD86C3F3
BD001490
3D824004
3CB326EC
BD2A5120
3D1A9290
BCAA8D24
3D86E542
3CE525A4
3C360068
BC14C7A8
BD87B820
BD1F0AA0
3C893A5C
3B284D40
BD4BB106
BD26EB26
BD93EB7E
BCD42506
BD931808
3C6AA5C0
3CA9153C
BD6AE16C
3C234948
3C4857C8
BCD70CB0
BC408748
3CAF48B4
BC28BCE8
3C75FBA0
BD5AC937
BC26DFF8
BBD75920
BD52816E
3CC318EC
3CCA60E0
BD09F4B0
3C01B2A8
3D80774A
3D8AA6FE
BCE90634
BBE8C520
BD6BE822
BCE1E520
BD2C8485
BD5957E9
3CFBF8B0
BCAA9ABE
BCFB7D02
BD9AD897
3D8679F4
3C811754
3D404BBC
BC2CD810
3CDB88DC
BD3A2B1B
BB48DC20
BD280DAA
BD984139
3D92BE0A
BD5DE100
3C4F22D0
3D6BC364
3BA3CAE0
BCB1E438
BD31498C
3C124010
3CCB6868
3D7DFBC0
BD67E148
3B586780
3C072DD0
3C8F8744
BD90DFF1
BD24BA67
BC9C90B4
BC14F6A8
BD87FD5C
3CDBAA3C
3D7C45BC
BC7B2EF8
BD9FE142
BD2783DC
3D180668
3D3061D8
BBF91BD0
3C9FB3A0
BD033EFB
3D4968BC
BC8AACBC
3D2EE4D8
BC9F0382
BAE3A800
3C0A1788
3B6479E0
3D79BFB0
BD251EF0
BC2777B0
3D00F994
3ADC4280
BD70FD2C
BCE051C6
3C9F16B8
BBB70080
3B8E2D50
BD8F4893
3CD0AF58
3D8F0FC0
BD5A6A28
3CED6904
BBDA0D40
BD81AC38
BD35A942
3CB5A0B8
3BC041E0
3D0680E0
BD98182E
BD3445F4
3D82EE8A
3D1F419C
BD5CC0E5
BBDB3150
BDA40049
BD10B453
BD878460
BD5037A6
3D90200E
3CD053AC
3D05A280
3D144C10
3CAC5968
3D76DB88
3D6EA544
3D515D98
3C96A520
3AAA4B00
BD6E1D5F
BD9C5E7F
BCDB4DF8
3D2A8364
3D512FA4
3C466948
BBE9A3E0
3ADEBC00
BD84FEE3
BCFB95AE
BC983C2A
3C96D364
BD18A987
BD69002A
BCB7C47A
BD7DCDDA
BDA072F4
BA5DC300
3C959BE0
BD6AC93A
BD2BFB56
3B896780
BC80D9BC
BCA29056
3D155E26
3D020ABC
BD93C1FB
BD050BA3
3D9B0E44
BC480EA0
BBB41E00
BD913375
BD0AC840
BC8D8D54
BCD43F94
BCB94DB8
3D861142
BC7AB0F0
BCFD4BA6
BD60E2DD
BC41AD90
BD9D13FD
3CB3CDFC
BD5BA33C
3C580CA0
3D1CAFD0
BD24BC78
BD9620E2
3D0AE794
BD508FD9
BD22297E
BD4079E9
3D0E46A4
BD66490B
3CF4FD00
BD35A7EA
3D9CF60A
BC2D9678
3D7421DC
BCBA8852
3B1D5840
3D457EF0
BB9895A0
3D5D58F8
3ABF0BC0
BD4CC849
3D8F022E
BCB92E58
BC837034
BCA9E9BE
BD7CFD00
BD37D805
BADE6D00
3D8EEB5A
BCC091B4
BDA3578A
3CCC4878
3D4A25B4
3BCC46E0
BD8DEA13
3CD8A6C4
3C86A29C
BD86E2DC
BDA1DCBD
3C582920
BCD6F858
BD86EC1B
BD8F9FA9
BCFAB274
BD8038E6
3D7119EC
3D3D2654
3D6A1ED4
3D161266
BB729620
BD7EFD6C
BD8BC190
BD63BA1A
3D6649D0
3D2BE0D2
BC953E0A
3DA01EF2
BD3ABCA2
BCA287D4
3D8287EC
3D9FD2BE
3C146050
BCB830A4
BAECD940
3C69DC70
BD95B70D
3D789428
BCD08460
3CA2F7B8
3D23A94C
BD5594AA
3D37E86C
BD55C08D
3CE19AA8
BD20D115
BD67F117
3D8833F6
BD880092
3D209F56
3D3B53E4
BC9904A2
BD4B18A3
BD6F9321
3CA94694
BD7883EF
3D66B828
3D3B4824
3DA3B134
BD333A59
BD81F843
3D5C5950
3CD44298
BD6436BA
BD850BEB
3D5920D4
3BE60F90
3D95D61A
BCF20BF2
3CE99160
3B8511D0
3D497E88
3C97609C
3D7CE3E4
3D83F7DE
BD80C12B
BD94436C
BCE8E506
3D548A84
BD39BD58
BD0FCD44
3CB140FC
BCF7EB5E
3C1115A8
BDA05149
BC9EBEDC
3C887DEC
3CF89CB0
3D85D9E4
3D721A30
BDA06642
3D0BB276
3CA842F0
3D96C17A
3D1F0F38
BC5F77D0
3C522040
3D2360B0
BD0909B8
3D842B84
BCF94A14
BDA2153C
3D3DF210
3CE438CC
BDA19523
BC912F10
3D88908A
BCDD8834
BD9C3B15
BD4115DE
BD8F6775
BC8B13E8
BD0D340D
BD559F98
3C6A6408
3CD69BC0
3B90A350
BD8D2415
3D0CEA1E
3CC75784
3CB7D5B0
BD4650D2
BD7C15B2
BDA18ED9
BD8355C8
BC77A398
3D2193AC
3D28F702
3CDE6F5C
BBB77980
3CFA00B0
BD672B68
398B8000
BC8A59B8
3D9C071A
BD256AEC
3D253D7C
3D5873DC
BC685120
BD894EF1
3D463A48
BD82DC31

