BE9C4D06
3E4E8B84
3ECCC44B
BCBB9FA0
3E897C38
BE8FC288
BE7AB1CC
3C996751
3E686CA6
3E5026B8
BE8CBDD1
BE39A518
BE08D2E9
BBB817E9
BF6B698A
BEEB44B1
BE8E86EB
BDF26C10
3ED6BAAE
3F2393E4
3E3666F4
3E3AAF18
BE5016A4
3E422EED
3DCA6EE3
3DCCCFE1
3DC6DE60
BE496970
3CDBB8D0
3E48B13C
BDF1068D
3E712C67

