3D89E634
3D0E62F6
3D67B708
BD26E4B6
BD9D333B
BD533364
BC463FB8
BB9BC550
BD6A915E
BBA192A0
BD917E66
3D212064
BC88E6AC
BCF20ADE
3D0CDBE4
3C3BF948
3D7D1A38
3D50F19C
BD88C1BA
3CE81D98
3B9A9060
3D79BBAC
3CFA4E70
BD0F24EE
BD906F76
BCB16E1E
3BF56600
BD3F6AE5
3D96CAD2
3D868426
BD4A8EA6
BCC0C7A8
3D105204
BD977C79
3B030BE0
BD8A31BA
3BF404D0
BD8E842B
BCD926B4
BCD10C74
3A7A0100
BD4CEAA0
BA8D1E80
3D762AEC
BD878774
BC917B02
BD32E308
BD4EDA38
3D8A7806
3A98DC00
3CDA9B84
BCE362EC
3BA7E290
BD304FD5
3CCE877C
3DA11746
3BB992F0
BD50D78A
3CCD9C78
BB02E400
3D61B354
BBEBC5D0
3D9BE70E
3D9E4D2C
3D85BC70
BD88D694
BD5D2B20
3CC27BFC
BCFD1F48
BD942B64
BD328291
BC8A7860
3C94966C
3CDCA640
BB157FC0
BD3E2E15
3D935648
BD7A7B50
BD740216
3D7FF4A0
3D2CE67C
3D085CF4
3D479FFC
3D8DCC36
BD7D1430
3D776838
BCE72FE6
3C072D58
BDA26B51
3C395658
3D14861E
BD5CE802
3D9F3C02
BD422D88
3CFD3EA8
3D090F98
3D2C179E
BBA8A250
BB9C2DA0
BD3EAD7A
3D8904C0
BBE7AAB0
BD03ABEC
3C7FA870
3CE83174
BB113960
BCDB7A2C
BD9D71BC
BCD65B34
3D9866D8
BD7E2E60
3D833CE0
BCC2AF22
39DB7F00
3D3C36C0
BD0E3156
BD99AC99
3D451140
3CB1CDC0
3C96ED80
BC6BF1B0
BD152DCF
BD97844E
BBF6BD10
BD80C313
3D2DFBA4
3D1F1102
3C7DCC00
BD361134
3D6C4E44
3D157F64
BC9236CC
3C747858
3D123F2E
BD8E15F9
3D434EDC
BD782834
3D9CCF68
BD1D1C89
3A60EA80
BC80E15C
3C4D39C8
3D1ABAFC
3D402680
BD29DE4A
BD17DB71
BD8364DA
BD87C8CC
BCE9FDB0
BD63E324
3D53E418
BDA2B682
BDA04782
BD172C97
B9E92A00
BD2703D2
BD882C6B
3D5FC68C
3D176CA4
BD263F4E
3D864A90
BCEBCE74
BCA23FB2
BD27B443
3C890C6C
BCC11EAC
BD8536BE
3D594248
3D53FD70
BD491DD9
BC9CC3FA
3CEE217C
3D8DB002
BD9577C7
BD5DF4C2
BD20C501
BD8F17D8
3D8BB310
BCC3F0CC
BCE6E130
3C6B6CD0
BD05E5F0
3D36561A
BCF25332
3D9D18DA
BD908488
BD97C9D2
3D101196
BC9B0830
BD1D4911
BCBB0C4E
3D24D168
BD77B703
3D8F7780
BCB44C46
3D97A73A
BD89C7E6
BD1D2D9B
3CBF82C0
3C8B3680
BCE66C68
3D48C04C
3C15FA10
BCB199F6
BD10E8A8
3D1BD890
BCCAAA74
BC319500
3D5411DC
3D320246
3D890D5C
3D9BF118
3CF11A70
BD4286AC
BD03E915
BCE73A36
BCA00744
3D8A17E4
3C68A180
3D002952
3D57E6D0
3D580880
BD189A1A
BD28B844
BDA22B14
3D20D35E
BD1CDD2B
BD1CCED3
BD495665
BC4E6960
BC9692AE
BD92B615
BCB0B54A
3D9899EC
BB3DCAA0
BDA11E8F
BD89FCEF
BCE5964C
BD324141
BD6F70EE
3D140710
3D777934
BCA4EDA2
BD3753C5
BD829754
3D290704
3D9C1BD0
3D93061E
BCBB3900
3D811EF0
BD8933BB
BC5B0720
BC6B4620
3CBB4974
3D771C28
BD69FD97
3D0AA842
BD41191E
3BD00AB0
BC5328D0
3DA40A1A
BCF8DE14
3B43CC40
3D18810C
3C2087C0
3B45F200
BD719702
3CD3F57C
BCA34C34
3D96E680
BD8D63EE
3D5E7354
3D637808
3D9FFDC2
3D770B5C
3B77A8A0
BC1AB658
3CB63D4C
BD4D0E26
3D3292FA
3D009B1E
3D9A0E1E
BC6F2868
BD876714
3C3CF510
3D98967E
3D946A10
3CDC8DE8
BD8BA03E
BD2D7FA3
BD56E971
3D977996
BC97AE98
BD87E1A1
3D8DC1D6
3CAB36B8
BD9D1A16
BD782220
BD0BBFFF
3BA0D290
3D5794F8
3D30C908
3D9C7B10
3D256970
3D6D4258
BBCE1F00
BD1EDC7D
3D34B9FE
BC50DC30
3D279C5E
BD8DD6DE
BD9AEFC7
BC9B488A
3D0703A2
3D674AC8
3CFB806C
BD234045
BCC60F12
BD411717
3D6E1C08
BD89D27A
3D472434
BC95CD80
BD9EF19A
BD88935C
3D7FAC4C
BD852726
3D0D4826
3D517470
3D970CB2
BD6E2537
BCBF3734
BC356788
BD2B85EA
3D0B3420
BD1F88FF
BC7B6068
BCF61A1E
3D80C1BE
BCEE473C
3D41B74C
3D7DD410
BCBD8300
3C993FD0
BCA086CE
3D2D1DC6
3D9ADDF0
3B17FFC0
BD884610
3D9316D6
3D1786DA
BD1CE190
3C466CC0
BD96676B
3CADB5F4
BD67B186
BD3CBA26
BD7B9E02
3D7E48CC
BC2E5D10
3D094FA0
BCC3317A
3C233DD0
BCFD3726
3CA9C498
BD2C0CF8
BD0770B2
BDA301CC
BDA2529D
BC22D580
3D97C75E
3CB9F4B0
BCBC910C
3D8D6C5C
3D3EA2B0
BD798CAC
3CAC4464
3D45B33C
BD319CC0
3BEEC770
3C03BEC0
BD8663D4
3D34AFF6
BD573A5C
BC8B9AC0
3D05F76E
BC114F30
BC719E30
3D8D2C3A
3D0AD3C4
BBBD8070
BCB791EE
3CA6B008
3B664F80
BD09104C
3D8DC1CE
BC12F590
BC6531F8
3CD1FB50
3D8F6672
3D8778F8
3D76CB58
3CD4E0B0
3D9CD3EA
BD71608C
3D83F302
3D5C3280
BCA44254
3C0B4D50
BB3D2A20
BCEC440A
BD101CB8
BD10AA79
BD9F145D
3D934206
3C11D1A8
3C9426F0
BD3CC855
BD9F9906
3C626978
3B7AB620
BC74AD20
BDA25BC5
3B376B40
3C814DA4
BD81F4AA
BCB3B2C8
3C1EFC70
BD92F8F3
3C1A9E98
BD75881C
BCD28126
BD0CDE80
BC9D0960
3D7E4828
3CBF7460
BD0B8EF4
3D18F89E
3D7C1A70
3D024674
3B2314E0
3CD28BD0
3D8CEB18
BC4E1F00
3D084DBE
BD5B525C
3D8C5B74
3BBF85A0
BD25D541
39F33200
BD89E78D
BD54E452
3D476C40
BD9FA8CD
3D9E15F0
BD481D60
BC897E7C
3CEAC1C0
3CA4DFE0
BD868CD1
3D9F351C
3D38F2C4
BC6C1F80
BD8892EB
3CB4D8CC
3C5C6650
3D5ABE44
3D85CC08
3C5A3858
3CBF95C4
3DA3F4F8
BB2B5280
3D6B0EE8
BD8A7B6C
BD11514E
BD87F0C6
3D4F8BCC
BD934BB9
3C1FE078
3D5160A8
BD112312
3C566F40
3D78903C
BD9E390F
3C95E768
BD3045E8
BD0460A2
3CEA5BC4
BD9731B4
3D535970
BC691AE8
3C049ED8
BC122EC0
3D0C8378
3CA50CF8
BBB5E690
BD617F00
BD91859E
3CBAFAFC
3D457528
BBC3C760
BD962D00
BD1F32B4
BD36699F
BD5B9DA9
3D4817C0
BD4D7FE8
BD872635
BC27C760
BCC29742
3C749B10
3BEE7CA0
3D999824
BD0FDC45
3BAF5A40
BD9FE8D7
3BD79EA0
BCC0219C
3D1B45D0
BD5FCFF4
3C097D50
BD167B16
BD70B212
BCED1D14
BD08EA9B
3D29E074
BD2493D4
BD810FB3
BD16F03B
BD923486
3D40CD50
BBA28C80
BD7FE1DA
BCA71454
BD857C59
3D250D86
3D5D9D58
BD53A4C9
BD867130
BD9A81F0
BCE4E59E
BD084AFA
3CE97FB8
3D840196
3D197586
BCC4D4AA
3D9F298A
3D51BDCC
3D15B15A
3C9CE80C
3CD864F0
3D0985A4
BC91D358
3A503380
3DA417CC
3D492CE8
3D7C5AF0
BC990346
3D9B200A
3CBDA480
BBA0EC90
BD93A1BC
3CB5C558
BD0474EA
3D858CEA
BCFFB8C0
3C210860
3C8BA440
3D7CEBB8
BC88D650
BD121AFF
BDA06CBF
3A070700
BD8FE4D8
BC7B6F90
BD45AFDE
3B700240
3C486AE0
3D1F3492
BD9D4FEF
3D6015C8
BD5948D4
BC89F508
3BEA5650
BC591248
3B187AA0
BD49050E
3CBBBC6C
3D0CF534
BD6EB28D
BD237A39
3D1EB484
3C53BF68
BCA619B6
BD950612
3D163F74
BCEA28C6
BD8E4B21
3B864BE0
BD6B39F0
3CA884DC
BD2939ED
BA637800
BD15FA54
BD2D7F13
3C187E70
BC17B428
3C992BB4
BC4920D8
3CDC850C
3C3F2140
BC481548
3D772A18
BC8F05CC
BD5FCE5F
3BF311D0
BD9A9DF0
3DA31FC4
3CA3D5B0
3C246BF8
BC8DBE90
3CA1E734
3D409CB8
3D682F9C
BD9601E7
BD54F7FB
BD8FF203
BD9B32D1
BD629B84
3C785A20
3B5C6E20
BD7713F9
BD26073D
BD8A64AB
BD5A494D
BBA8DFA0
BCD473BC
3D12D284
BC834CA0
BBE78DB0
3D4CE16C
BC339CE8
3BB5B2C0
BD4A5543
3CF2FC2C
3D1352CC
3D989D96
BD9266A6
BBE212A0
BD98CA03
BC698440
3D8FC70A
BB6C0080
BC4829F8
BD967A49
3D284F9E
BCD36192
3CFC1DD8
BD98A97D
3C8A8AE0
BC794348
BB98CAE0
3C701DD8
BCD86ED8
3D04144A
3D531A18
BD562870
3D7A23B0
BD535A3F
BD913DDE
BDA1FFDF
BDA26271
BD7F06E9
3CEF99D4
3D19D166
3CCFC758
BD263E5D
3C7D8320
BD82C5AA
3D599BD4
3D6F7B4C
3D3353C8
BDA3D18F
3BD1F700
3D1B4CAC
3D80432E
BD8FE02C
3D18B17E
BD933783
BBC9D510
BD34CD12
3B65C340
BCCF2FDA
BD2238F5
3C157678
BB000B80
BB81E9E0
3CD371C8
3CDEB3C4
3D06FDEC
BD240967
BD5971CE
3D0B34E4
3D729E68
BD740675
BD72A16E
BDA1E20D
3D96A146
3BE1FF60
3D776AA0
3CB6730C
3D85B8BC
3CCB7008
BC9B09B6
3D9E8222
BD900D81
BD10623E
BC4D3E08
BC144DD8
BD7370F5
3D6FAB8C
3D725E20
B957D600
3DA13EA4
3C2B1440
BD139BB0
3D26164E
BD8FA4F0
3D5BD01C
3D07E0F8
3DA33D1A
BC5F1090
BC892320
3D1D8548
3C250760
BBA1F6F0
3C639968
BD479C56
BD4FB7DA
3CDF786C
3D027D92
BD9C23A7
BCB54178
BC081FF8
BD393BBE
3CADEB08
3D0E2DEC
BA8002C0
3D837718
BB87B2B0
BD3EB3D1
3DA1B126
3D914824
3D98D84E
3D329FF4
3D1196E4
3CCBA698
3C903200
3CB91678
BD325268
BD7FF119
BC3B23C8
3BE91060
3AFBFC40
BD162FAA
BD20E04E
BD5726AA
3D4E0AF0
3CAD17F0
3BD7A8E0
BACEF540
3D993872
BBDC9020
BC5E6448
BD6542A7
3D9E1254
3D68B740
3C77A1D8
BD673F11
BCA7FCB2
BD884060
BD140F82
3D065CE8
BBADF1E0
3BD7E1E0
3D67938C
BCEFF624
3D7C6BD8
3D7F50F4
3CF09C08
3CB68A98
BD8527CA
BD4444CD
BC0E3088
3B4B74E0
B7538000
3D3BBBB4
BCC5DAA2
3D61F9A8
3681C000
3CD87438
BD17CF8C
BC1BEF18
3D8EBECA
BD3C8033
BD9E43CB
BC901498
3D25191A
BB654B80
3D61146C
3D1FD136
BB270CA0
3D2F3974
3DA39194
3CF237C0
BCF9454E
3C83A6BC
BCEC824E
3D9BE6FA
3D7C039C
3D938F94
3D945568
3D5E38B8
BD851BD0
BD97573C
BD96AD87
BB474680
BD818DFB
BD962462
BD20532C
BD78FE36
BD5B01A4
3D1B5E80
BC867A0C
3D8CE20C
BD919B52
BB36D4C0
BD253EF9
3D8BB0E2
3D21C474
BD8C172F
BC832C2C
3CE05204
BD4EFBCD
BD905D19
3D6D6278
3D4ED028
BCEABE80
3C195BA8
3C58ED10
3D26C844
BD8684DA
3D55DF80
3B1E1BC0
3D4164EC
3D89F12A
3D449F18
3D209F18
3CDB801C
3DA129F8
BD0229CF
3D666640
BD96BD43
BCD1CDFC
3D547C88
BD9BF479
BD8E5653
3D53114C
BDA046BE
BCE28BEE
BC7BBDD0
BD843207
BBA43CD0
3D84580A
BD5A6D16
BC591C28
BA970F00
3D629BD8
3D3C1948
3BB9CC60
3D5278E4
3CAB4350
385E0000
3CAFCC00
3D6AFAB0
3D61887C
BD9A8D7B
3D4131B0
BD724D1A
BD56E4DA
BD39F334
3B9C2D20
BD0068AB
3D02F69C
3C6297F0
3D046BA0
BCBB586A
3D4A09C8
BC921778
3D896744

