3DC71C69
BCA03687
3A9833E6
3D85A042
3D341856
3CC99735
BD118CD1
BD3479DE
3D35884D
BCB8E194
BCC6794F
3DB18AFA
BC7096D4
3D5F210D
3D9DF999
3E1A9922
3CD2C267
3DF82866
3D48FF0E
BDBB160D
BCA88931
BCD87DF2
BD881B4E
BCED4EF0
BDED9016
BD07CD45
3D03E9E0
BE11D958
BD9B5AB7
BD0B04FB
BC7B97A4
BE049D54
BD076728
3BF749B2
BC2CBD70
3D31E43F
3C4C9AC0
BD8A1B9F
3CC7D115
3ABA28F9
BD9ED477
BD1106F7
BDF676F6
3C3E981D
BDA12610
BDC802B9
3D8ADF6F
BD06A62A
BDB6D022
BD468923
BD3168F0
3D4B76F4
3CF242A9
BD3601F6
BCCE526D
BCFAEB6F
3D6ED33F
3B936522
3D9CE5C6
BDA9A188
3DAF1B71
BB6ACD1B
3D5A19D7
3DCDDE51
BCEAFB05
3C54F9F7
BCCAEBC6
3D501D4D
3D57978B
BDA018AA
BC7D0316
BD78EE98
3D6EFD59
BBBA4811
BD320DFD
3D0FC780
3DA6EAF0
3D6280C9
BD6C8838
BD343D35
3D355286
BCF19565
3C5BE708
3D294756
BDF4A0C8
BDD7BE8E
BBAB1CF3
BDB6F7AF
BCD5BB13
3D049891
BC7552D6
BC6C85CA
3CC41EE9
BD44ADCA
BD0FF2F9
BC26BD50
BD16F40E
3C1BD6DA
3C8D023E
BE037B9F
BDA249AF
BD8344DC
BC1496D6
BDC91238
3D82262C
BD9BB545
3D6269AF
BB975D44
3D662C7C
3D963550
3BAC6903
BD13D4B3
3D1AE57B
BB849B77
BD1DA066
3CA30726
3CA4FE35
BCC18C58
BCF09F93
BCECC8BD
3D36BA2B
BB019019
3DBBF4AD
3D5F00B7
BCD8DF98
3DC69C96
3DA39F67
BD7D9382
3D8024A6
BD1FC8AB
BD924129
BDC0ED13
3D02579C
BCD0406C
3D95CEAA
BDC27A43
BDB81C20
BDBAB83D
3D405844
3B87AF4A
BD7A479F
BD684985
BDC5E337
3C2A1CB8
BD68F5B1
3CF4CF38
BD2EB92F
BD6032D5
BDEEDA44
BDC381E3
3D172996
BD04753C
BD2B08C3
BDB40A05
3B963AB4
3C895831
BDEED464
3C36F2A9
3C01BED8
BC6EC63B
3C274CC5
BC01CC81
BD366C4E
BB1D24C5
BCBF9A14
BC8762D3
BD55CF4A
3CDD50B9
BC9E7C95
3C98F3AA
BD6F7699
BD1803F6
3D0A8AE8
BD2A3DA3
BC162ED8
BD3293BE
BC97C2A1
3D5FD8D1
BD130386
3AA5C955
3DE34525
3CEE6366
3D4A8085
3CC272ED
3DE48BBC
BBA3C438
BB995525
3C91C739
3D896E02
BD30F6DB
BD06B391
BDD06B28
3C803548
BD03BAE6
BD98ADBC
3D5E243D
BD99F49F
3D4E8991
BB1923ED
3D401EB5
3D7E1843
3D002081
3C4D5E9A
3C9E72B3
BCD7BACC
3CEA9244
3D0D7F8A
3D42D839
3DC61EFB
3CE156B5
3DB1774C
BD7C6B8E
3D26F3B2
3D51BBB4
BD8DCFF0
3B4DAA07
3D331A8F
BC82F092
3DBCE981
BD4F51E0
3D700D1D
BD5045CD
BDA7DE20
3D0FE101
BD69C325
BE03FF5A
BDA2E1EA
BD8CF869
BD8A5BD8
BD44CF62
BD22CBFE
BC568119
BCAF226C
3D04CD41
3C345349
3D1B4F5A
BD0BE2DB
BC50DF2E
3DADF506
3DBC9872
BBC34429
BD028C74
3DC76587
3DDBFDDA
BB0D4568
3D3B7F12
3D197B22
3C35AAC0
3DAF97FA
BDB715A5
BD8FA9AD
BDA39A24
3DC4743B
BA373414
3BABACA7
3D4E0A67
3E14655E
3DCFA3D5
3D2407CD
BD747CCA
3C738206
BD8C4760
BD8D10DC
3AF15C53
3E156CEE
3D4D5296
3DC2CA4D
3D012465
3BB43B37
3D37D1A9
3DBB627E
3DB1C67B
3DF43908
3DD4C706
3DF66576
3DE0F5C6
BD80AA2E
3D598B96
3D24E487
BCC9A8B7
3CC89B17
BCC100F2
BD9B3643
BE093A83
BC4187C5
BD8916DC
BD1A10C4
BD560B25
3CE6D50A
3BE3F957
3D819924
BC8F3DA6
3CA8BA09
3D275885
3BBA6F26
3DD32CE0
3DE9F88A
BCFB3D03
3D0BBC82
3DA48BF3
3D2E99EF
3D0144B5
3BE5A662
3DE30149
3D3D7942
3CE934E9
3D5527B5
BDE2BF96
BD022BD5
BC43B966
BC9E22FF
3D32ADFD
3D32D44F
BD8931A5
3D09CE8D
3CFE6177
3DAB9EEA
3BE02937
BDC1CBD0
BDB4C3B3
BCFA00FE
BE110ABB
BE354C1F
BE20A3CB
BDF1A3CB
BDA5B4B0
BE3E8D74
3DDB9362
3D1BDBC2
3D85480B
3D1A3821
3DD4932A
3E04D944
3DA1B9BC
BD60D36F
BD35D91E
3DA9BA20
3DEE0764
3DC1CB66
3E00B5FF
BD08BF29
3D3C8CAD
BD0A9E8B
398A984A
BA65F058
BD96EB6B
3C9E34E2
3DA7CF9B
BDFF3786
BD953924
3CAA7946
BD5F6FEF
3D01F938
3BEEA1E9
BC88D07E
BC1A3A57
3D9F13ED
3D0275DE
3DB1FF7A
3D85EFF0
3E18381E
3C1378F3
3E016D03
3B027F69
BC9097C7
3DCA08B1
BD25EFC1
BD85B836
BDDF0CE0
BC99195D
BDDF5BE8
BE03DEBD
BDB78403
BD8BD57D
BC176229
BC9CBB70
BA1186DF
BD010EEF
3BABF2A3
BD022519
BD904C16
3C6C036B
BE2185EB
BD703AF2
BB24F163
BD70E732
BE384CC4
3D183206
BDBA042A
3BF47E09
3D878FFE
3C963390
3D1F26C4
3DAF1E74
3DA68CFC
3DB0BB6E
3E1636FC
3A972C4A
3D8DC60A
3CC8B598
3DC32F79
3DDD77B7
BD023241
BD9D1DAC
3C35C691
BB742722
BC30F60D
BCE4CEA6
BDEDA633
3D1623B6
BD39E5A5
BD2DB986
3D239AED
3C8AE792
3D431EFD
BC038487
BD00FAF5
3C46A1AA
3D6E3AD4
3D617941
3E22FE23
3DBF5DEF
3E14BB3A
3D764B25
3D23706F
3D81FB9A
BD0FE275
BDE669ED
BD5877D9
3B4D04CD
BDBFE93D
BCD9D904
BC1698C9
BC0F6A1E
BC90D097
3CA3F5AA
3CEBA865
BD7CAE16
3CD609E4
3DD228FE
3D59B534
3D806204
BC1DB7C0
BD0CD417
BD8FF3D4
BD02B5E8
BD89879A
BD767C0E
39BFACB7
BDB19ADC
3D31B2B9
3D902562
3D4CEC1E
3E049B75
3D723282
3CD399DA
3ADA89DB
BCB24645
BAB6C335
3C0A3902
3D3076DE
3DF1A44A
BD9DE8E7
3BD23144
3DA1D233
BCDF9DAF
BDCBF912
3D997656
BDA1CEF8
BCBB8D88
3D335110
3D26BF9C
3D3C29CF
3D687D48
BB90EBE5
3DAA7697
3DD82B94
3B5D8AFB
3C4C2765
3E007233
3E339545
3E1C6858
3DB1B4E9
3DB4CBDA
3E0EA8A3
3CABD700
3C84B4A4
BDD285C1
BD9D1620
BE14EC84
BD927C7D
BDE2EE1D
BD007428
BD994BB4
BDC40457
BC1495A3
BC3F38B1
3DBD2DFA
3E38193E
3E569ADF
3DBEA438
3E2A4098
3DBDD9BA
3D51B448
3D82F854
BD38BAE6
3C903D3E
3D98076B
3CF2EAC9
3D7A5DD9
3E04DBF5
BCB7A636
3DEBA4B8
3A317F4A
3D35D03E
3DE74672
3DD3C939
3D4FEA23
3D5E24AC
3BCDEB09
BB9C8B60
3DB798D1
BDE3FDFB
BDE92EFF
BD40A288
BD6690D2
BCF94E20
BDC986A9
BDD576B8
BE0C3E9D
BCC83D73
BE0F8812
BD666FA3
3C4B98CA
BD8EB56E
3D643E75
3D6EFA2D
BD777825
BD34FF12
BD06CB54
3E056FC6
3DBF9B8F
3DB9F41E
3D91FA3E
3DD6FFED
BC934C74
3B7DD11E
BDB9F5DC
BE0C6F4E
BE3CAB37
BE1746B5
BE38A62F
BDDD1CCA
BE24417A
BD89E8B5
BDA36C98
BCFEDEFF
BC22FEE7
3D28D11F
3CE90329
3C70C52C
BD9FE426
BD70545E
BC885635
BDCABEDB
BDB3CF07
BDBA6B99
BD16BA7C
BDE29C5B
3D0DD890
BDBCE17A
BE10C587
BC186A31
3A02F9AF
3CCE7122
3DB43225
BDE27D3A
BDD5E606
3CE72507
BDC2AC0E
BE00A4B6
BBF34E55
BE059837
BE0AAF04
BCF99710
BE2619C8
BE04A8A1
BDCE6AB2
BE5921AA
BE0982E4
BE013D6B
BE0E770A
BD8D1907
BD3EAB82
3C609D20
BDA519C7
BB43128E
BDD35F23
BD4FCC69
BB1D80DB
3E342D98
3E380155
3D80C36C
3DFA5085
3E08AB8D
3DDE29F3
3D5EB2BE
BD80EAD0
BD35FDBF
BDB655DA
BC875D8B
BCC485A0
3D9E7967
BC80FE05
BD88F168
BDF5527C
BD2AF750
BD50B7F7
BDE0F6EA
3C706998
BDD30D96
BCCC441B
3A3F4CA5
BDC47759
BD1CF0C8
3CC56F46
BD933D5A
3D659E27
3DF2C8F1
3DC6D927
3D8C19BA
3C901A85
3E090F7F
BCCF4984
BDAC07C8
3C85F544
BCD5D347
BDAB2156
3D138342
3CA209B8
3D8DC849
3DAC42AF
BD0ECE8E
BD179076
BBBEA820
BDD01898
BD353965
3C8FD672
BDC76F45
3C77D23E
3D744FFE
BD007CE8
BD41A957
3D7AC58B
BBCC03CF
3DC0B01C
3DA7595E
3C008DBD
3D1D2185
3DABDFF1
3E499D94
3E28895A
3E7AD1B9
3E15D9CA
3E08A723
3E339186
3DD3B72E
3E3EBF41
3D330368
3D8AB0F1
3D477042
BBF4415E
3DA07E7C
3B93F2E3
3DA50D77
BCE611A9
BD37389F
3B29F8FA
3939B6C4
BD9F0ED6
BC5B124F
BDBAAD40
BD01D9DA
BDFE3630
3D69A062
3DAE4D67
BD1D6C09
3E2420D9
3E0781C4
3DA0EE6E
3D5EB4BF
3D19A52D
BD898C1D
3D9ABB25
BC23846A
3CD13DC7
3DE5F6EE
3E0B9C76
3C9826C8
BD2A149A
3DD5472D
3D6A39E5
BDA04759
3D9BBE21
3D3FBC20
3CD38D09
3DBCE362
3DD74E15
3D20C9BC
BCE6DE4A
BCEA5F98
3D6826E5
BCD84531
BCA60CFC
3C69FD1F
3D8086C3
BBD70877
3D583E51
BBECD6FB
3D9E0717
3E2D1DBA
3E5F1040
3E559294
3BAAFB90
3E3B4D9F
3D5FFB6F
BCCADF23
BBEE2A68
3DD05754
BD83B23F
3CB693B4
3D3D41C5
BD20543D
3D5DA34F
3D71C8AB
BD826B57
BCA6C380
3A9432E8
BDF88927
3CD218DA
BE0C236E
BCBDA528
BC013F49
BDE69141
3D8716AF
3DCA5C84
BDB2EFCC
BD966781
BCDF282B
BBB4D420
BC81851D
3B91B6F9
BDA37EFB
3CAE65BD
3DA8791A
BC58A9AE
BC8B81C3
3D9175F8
BCF14D3F
3CA9C64C
3CE86617
3C58BEE6
BD43069A
3DE4ADA1
BCBAAF55
BD33FE6E
3D86B9B3
BD301E1F
BD73D378
3D05FCA2
BC62E474
3BDB8C65
3DF650AF
3DD8A875
3D617E4D
3E3ADC7C
3CFEBDE0
3DD9AAB5
3E2EF198
3DA28CB8
3DF894DC
3E452B55
3E1A3128
3C6151CC
3D84BB30
3DCB7CFC
3C2BF975
BC436F3F
3C8C677F
3D8662E3
3D3A5160
3D5CA691
BBC9C862
3DB28D2B
3DCA1204
BDD03C3D
BD03765F
BCAC9CC7
BBD8AAA2
3CC6E6F5
3CDD01A8
3D8CB2D1
3D53D75A
BC1DB9F6
3DBE07FF
3DD8286F
3C535253
3D936F7A
3DD2E749
BB12C27F
BD354436
3D3C15A1
BA9F13FB
BDCE7D7C
BD3DC87A
BD81F1EF
3CB3B2F8
3C9A20B6
3CD240CB
BD742C99
3CF35898
BD736F0A
BD076610
BB8FEC37
3D9185F4
BB7D28CB
3CED65DF
3CE90690
BD270FF3
3DD1CBA1
3D8515F3
3D0CD1E9
BC89222A
BD0C223A
BC787FCF
BC2BA1AF
3CCF4ED0
BE06D00D
3DA40A08
BDB8782F
3C1890F4
3B406B20
3DE67433
BCD90DB4
3D25C25A
BCC89639
3B83F393
BD4C0425
3D75DCBF
BD2B822B
BC7DD714
3B94AFEB
3D2E4EBE
3D9809F9
3CA41C9D
BD4C66EF
BCE42AE6
BC8B715F
BBCB96E4
BC966BDC
3C30E8F0
3DD41797
3DD70F75
BBF223B8
3E29F3B0
3E03695E
3DF33638
3DD8B685
3E469145
3D8F3C64
3D8B7D10
3D5254D8
BD23319C
3DA20179
3DF5F767
3D4F9955
3D6F568F
395C29C9
3CA544DD
3E23D0DB
3E22947C
3D94DCDC
3CB2D9B6
3C72B5CA
BD299C91
3DA71CAC
3C088CFD
BCD7DA47
3DED8436
3D6C648D
3E022063
3C068F4D
3E10D0AB
BC43E7A0
BD964A32
3DEFA0E1
BC6A226E
399BE96F
3A70126D
BD38E601

