BC49D8C0
BE266406
3C3FDC42
3E3205CC
3D1705A2
BDFA8D7E
BDD70BAE
BD3686E1
BE6ED632
BE6062D5
BD1B1291
3E644470
3E6D11BA
BE36F2BD
BEA32D90
3D876EE3
BE937723
3DD79DA9
3D17CDEB
3E75AA1F
BE950BCB
3E85ACC8
3DA4EB08
BE8BE68A
BC3BD8FC
BE4D88D4
BE9AE45F
3E9A5A5E
3E08F9E4
BE955BE0
BD6A48D1
BD218C5B

