BE36D487
3DDAD648
BE9547C1
3E730EC4
BE12E36C
3E5B1504
3EEB9438
BE8A7285
BE43236A
BDB5877E
3EF8F159
3EA43118
3E2763C6
BDC663A2
3F370FE7
3F05AA50
3E65F4D8
BE77D283
3DA3CF5A
BF1A4B5E
3EA75BA8
3E5F1440
BE469E41
3DEAFC95
BD47E2E4
BB44225D
3E5D99E0
3E4B673F
3E8E47BC
3E9E53A4
BEADBEA5
3CBF86F6

