BE4748BB
3DEEA5AC
3ECB9B45
BAF4BA00
3E3A9B3C
3E9F50BA
3EA675A4
3E2982F0
BEF9FC67
BD7F11F0
BDF91EE7
BCD17600
BE085B9E
BCBB3F47
3F533477
BE840B2D
BE3233C4
BEA1C8BD
BE2052DC
3F042F00
BE1597BF
BE849992
BDFB53F0
BD737B78
3E50A438
BEABF2A5
BE2957D7
3E9745EC
3C876D50
39C48400
BE936B1E
3E95B9F5

