BC8C65F0
BE463DBC
BF075383
BE87A350
3D87C3B3
BE43A7E6
3D84125B
3E25614D
BEA5E661
3E2726A4
3E8A6153
3D7CB218
3E7B8CB2
3D9A3EBA
BF89C706
3D3F94A0
3E1B13A2
BE9F5223
3E8B453C
3E8BE036
3E04865C
3E24971C
3CABAA90
BE944D78
3DC3DD5D
BEEDBF92
3E2F675A
3E79FFD1
3E24E872
BD95B25C
3F3647E7
BE0FB04F

