BE183BBF
BD40BE62
BCE4FACC
BE119239
BDF90476
BD508EEF
BDAF2201
BE15A91F
BBEDF721
BE07937E
BDCA4494
3AACA4D0
3D1875A6
BCDACFFA
BDC2CFA7
BD1B7037
BD97C4AC
3C865C15
BC623A20
BB0BEB8B
BCB77233
BD8D86E1
3D1D82B3
B9A83BCC
BD12DC81
3D58CBEB
BD09068C
BDB44CE3
3D1DEAF8
BD97D0D3
BC115C55
3D4E6A02
3D7CD44F
BDB9C06D
3D25A9FA
3D26EC39
3C237A8C
BC80C0E1
BDDA80F6
3C5C5D00
BD8F7B47
BD047865
3D13ED04
BD29A6E0
BDC1721C
BD7DFACE
BD2B0006
BD1857C3
BD5AA63B
BD0117B4
BE33486B
BDD73213
BCCC6A72
BD846265
BE419B19
BE176C68
BD6ADA62
BE036E00
BDC1613A
BDF59C25
BD0ED855
BDAB026A
BDF8C007
BD007541
BD35EE40
BDE0B97D
BE05DF8E
BD9E9A01
BDA8F316
3C0D2E18
3CD1003C
3CC14135
BD430DE6
3DAE9996
3DDABC1E
3DCB06AB
3CA31474
3D38B825
BCE14982
3D86D89C
3DAED354
3D57B88A
BCE32EEA
BCC17215
3CB40F1E
BD3BBE60
BC6D68A3
BCF32D57
BBCC133A
3D9DC503
3D0D9D1C
BDD012CD
BC87CD46
BDB08C66
BCEB95E4
3D508802
BD4B68FF
3D6FCDAF
3D166A6C
3D34163D
BCEFE89B
3D1C42A2
3D70C35D
BD1F5430
3D134A7A
3CFF5F7D
3CF9D86B
3BB2933E
BDFFADFF
BD791CCF
BDECF15C
BE05B420
BD663BFC
BDD3D2E2
BDF2274C
BE26DF7C
BD59B362
BE0345EC
BD7DE65A
BD8400FF
BDF4B546
BD4AE70E
BDEEBFDF
3CD52F13
BD7D2C3F
BCC07CCE
BC3CEFE1
3C74606D
3CB6F5DD
3C33EA44
3D1E21E7
3DA863F1
BAB8EEF4
BC3682E4
3D43DF33
3DDA59AA
3E0760C3
3D36E505
3A238935
BC8FA225
3DD4695A
BD08E107
BBAF0A75
3D998007
3CB808F2
BC9333E7
3D722B28
BD096321
3D26345E
3D2A5CAA
3D907B10
3D85756E
3B7C6746
3D263521
3C6A5C01
BD8110A7
3C94249C
3D8EB502
3D29A116
3E01F67A
3CB765D9
BD0CB765
BD7781DE
3C5726EB
BD9627E5
3CDC9134
3D9E3E76
3D041671
BDB694ED
3D0AF674
3D3CA95E
BD96822A
BD97649C
BD2BA9A2
BDE97101
BE22E82C
BE0C0C0D
BE64108C
BDB7FD4C
BE1F78C3
BD6A7BC1
3D42B31A
BD308CFF
BD25B431
3CC6BEE8
BD79775F
BC3D9E38
3D80939D
BBE3BB0B
3D9BE3EB
3DA58E3D
3AD9B5C7
3DBDA2CA
3D0CF442
3D4233E0
3AF9FAFE
BC6A2B69
3DD558C3
BD4393B8
BD695CF6
BD75880D
3BCCF5E1
3DB4AF46
3E023BAC
3D85B2E7
3D5EA5EB
3DF28702
3D943DED
BC9C9805
BC9B98F9
3D876118
3D7ED291
3C1E5355
3D331545
BB4F84B0
3AC9A296
3E219C3D
3DD40293
3DA6B2E3
BCFF9962
BD06553E
BCAA0B07
BC46A8AE
3ADE0258
3BE62E46
3D97949D
3DE22A5F
3DF60C9F
BA56A7E7
3D0F25B6
BD5E87CE
3D02AF5B
BDACFE79
BC1C2F7B
BE0A7E49
BDEEA9AD
BDCBDF57
BE2298DF
BE5E2D7E
BDA7B0D8
3D877C26
BCCFEFF6
3DAC8F41
B88106A0
BCC62BB1
BD11548A
BC5958C5
3D4D534D
3DBC5DFD
3D7577D5
3D5790A0
3DDF8BC1
BC90721F
3DCECB5F
3E1301D2
3DA739DB
3C7E1509
3D7DC3AD
3DD752B6
3D9F1F1F
3D08B21C
3D8F284D
3BE89438
3E08BBD5
3D251F5C
3DBA9DF9
3D1DC8BC
3D9C0FF2
3D8D41BA
3E350D35
3DE5BE39
3DB7A931
3D9CAB7F
3D633F3D
BC7BFB0C
3D75023D
3DCFBF1A
3D946153
3DC9DCD3
BC587B1E
3D6C6F2E
3D6CDE35
3E2486CA
3E163C85
3D7601DF
BB2DE8FF
BCC75636
3D417D36
BC521077
BCBBC581
BC8A1A83
BCA1ADF0
BCF859F4
BDDC74C1
BDFFDDD7
BDC34064
BE0ED820
BDD2594D
BE52FBCE
BDA65BD0
BCF3E9C8
3B1A8EF8
3D1D79C5
BD10B075
3AB6E595
BC6D5AD2
BAF4420A
3DB56AE0
3D4BE694
3DC7EAF4
3DB3B3C2
3D9734EC
3DB11450
BB144417
3DC8F5EC
3D83DD9D
BD9D2F13
3D992401
3CE44B16
BD0833D8
3E1754D5
3BC089D7
3C5DEC37
3D88F88C
BD2A101C
3DE7A974
3DA4A6B0
3D8D73D9
3D091FCA
3DC6FDE6
BCE6D690
BC10E8D1
3DA4B5C3
3DA50B7E
3D37F6B1
3DAF9FFD
BC803A02
BB9FBCE0
BCC616C5
3D09CED9
3B815F7D
3D39B7E9
3DFB9D6E
3C89149F
3D5406D7
3C11B364
3DD92CFA
3DF1E36B
3CC2FFEB
BD2623AF
BCBBD58C
3D15075F
BDF039B1
BE0FF171
BD9CC5A5
BDA73FB7
BD8EB180
BD6FA2A9
BE160A36
BE250C01
BD6E32B5
3BF80FD7
3CC1BAAA
3D6909E7
3D46C3DB
3DE24497
3CF3427A
3DEB4D1D
3DE88E54
3D128C2C
3BB21B37
3D48BD46
3D70BC54
3D988AF7
3DEAC90F
3DC9EE30
3E1DD712
3D9E154B
3E05319E
3D43DC94
3E50AB45
3E00EAAF
3E40A90C
3E55479E
3E0F6630
3E144F39
3E5ECA15
3D497777
3D91A645
3E1E561C
BD7F3F0A
BD026CAF
3E15C144
BDF6CCF1
BDA02D2B
3CBE76E8
BD8D4D64
BD0C9579
3CC6A7E6
BC8528BF
BC7AAB91
BC13B81C
3DF91950
BC3B7F4F
3DCECBDA
BCA6159D
BD60D73C
BD05B67F
BD60BA44
BC6AD6F9
3C84501C
BD258FD3
3B5EFED5
BDD5A49F
BD38DFD0
BDF3857B
BE305900
BE1E02F3
BD6C1BCF
BDC54CFC
BAF560D1
3DA2F2B6
3C9CCB1D
3BC2E5A7
3D21D39C
3D9CEC26
3D9B2238
3A9E9B7A
3E0CCBA0
BCFBC1EC
3D7CBA99
3C4EEB29
BCCEB6A7
BDC2F851
BC3A7CFE
3D48F7D7
3DD5D017
3E294013
3DB489B3
BD661FF4
3D1D04F8
3DBA8BE3
3DBE4DD3
3DC261A3
3E12F20A
3E04988D
3DF019A6
3E15A811
3D9AD81C
3E2897B4
BD3BECC2
3DBDB739
3E179F30
3D4F2110
3D2C1AA3
3DCD56BF
3C8E1640
3DDE7862
3E16F344
BD5F5D28
BD876F70
3D53710C
3CE37448
3AFB3B07
BD2D0572
3DC3BC1B
3D6E1395
3D80BC62
3D8D9518
3D23A475
BB000D82
3B91A0D4
3D3C9BE8
BCDEC578
BE0A853D
BD778A13
BE0B609B
BDA3A3BA
BE2D0671
BE0B1EE0
BCAF7A53
3D64B72C
3E178DFF
3DDA7377
3D8F1FF7
3DEF09E6
3D98B320
3DC30456
3DEDF0B4
3D7F4F90
3B9130D0
BD096DBF
3D314FB2
BCEEE54D
3DC4D3F1
BA07454A
BB93C03C
3D8E40E6
3DA9396B
3DBDBA48
3E20E4E0
BCDE625D
BCC986AB
3DA0D6E6
3CF50438
BCFC79AE
3DAF08E8
3CECD1CB
3DDE8D79
3D42AED5
3E1F0EDD
3DD248BA
3E447EB2
3DF08931
BC79B8D8
3D8DFBB2
BBC727C9
3D913508
BC4FE043
BD957A33
BDEFAE07
BDB605B4
3D46C497
3D3DCE78
3CBEF2F7
3DD6B530
3DC842C6
3D88A4AB
3D7E9245
3D5D7387
3DFF676E
3DA4007F
BD7FB770
BD26375F
BE084747
BD792595
BDA7E925
BCA14EA5
BE03BCB2
BE1F9FFB
3D110719
3DDEF27D
3D7B2E67
3E187333
3D3C7E38
3D2ECBC4
3E09DEB6
3C977B60
3DCFAFBA
3D41ADF0
3DD98575
3DB0C2C7
3D809B98
3D7D3A03
3E092F03
3D3BC81B
3D8957FF
BC863FEB
3D3FFE8D
3D9A2E40
3E119DA4
3D57286B
3C0AAC53
3E148A14
3E3B4CBB
3DFCEE44
3D9B6C88
3E14F410
3DC3F7C9
3E4DB88A
3E80D13C
3E34272F
3E1D9377
BC2A2347
BBC3531D
3D8D6771
3DE4BBF1
3E0A071E
3D515E8A
3CC39ADC
3E1514CC
3D31A2A0
3C995DAB
3B79F14E
3D7BBDE9
3DDD4B0B
BD641A3C
BB77A918
3CE1B606
BD5DB6C6
3D9244E1
3D9C5B67
BD6CDC53
BB0A0FCA
3C0F3791
BC620A10
BE09CC9A
BB410F7F
BDF16371
BE11327B
BD64D0B4
3C6C3F8B
3C77E913
BCA970A4
3D6E5580
B99C9EF6
BCB0CAF5
3D068A96
BCCB8E9D
3D8683F1
BBC082F9
3DC59D15
BD217EF0
BD618A29
3CAB8C0B
3E2B2FB5
3D75BD23
3E3A3739
3E012479
3D4900E9
3DF4A738
3DAA922F
3D24DE74
3D21A71C
3D80193E
BBDC0815
3C847EEE
BDDDD7D7
BC1835A7
BDBF1F0C
BDE82078
BE0863CB
3D188E78
3D64FAD5
BD801BD3
3D4821F1
3D50EF98
3D1F2AA8
BCC9DCEA
3CA3BF81
BCB995AB
BC118419
BCA64C98
BD955C85
38AEDC9C
BD4096B8
3C473D5B
3D07FA20
3D1A2DF0
BE067A26
BD2B6F7D
BD912765
BD7EE8DE
BCDFF67A
BD09DD62
BDF0E98A
BDFBC4FB
BCC725BD
3BFDAA60
3CEC909D
BE1A9AAB
BE14F493
BBAF04F8
BD130F68
BD86499E
BDD1663E
BB793C6D
BDD92024
BCB33A1F
BD07BF43
BD2AAE59
3C0DEDC5
3D44A177
BC6693CC
BC88FB7A
3D8B7CA1
BD0419D7
3DEBF300
3D01D176
3D1EFC5D
3C8528CA
3C2533F0
3BF12BC0
3E1328FB
BD2A3AE1
3CBA850A
3A581A32
BE0B818E
BE3A173F
BE06AFA0
BC185BEE
BE1F31C9
BDFE73CA
BDB9F51E
BCD38559
BD660515
3B86C499
BD8AB90B
3D17CD38
3CA261DE
3D4A74F2
BC126083
3C57BCA9
3D87AD5A
3D0F8BC0
BD1B3CC9
BD74D174
3D21F1E0
BD482712
BDA92CE6
BB05F005
BD177332
BDE6B5DA
BD4D9439
BDB7FD35
BE37057B
BD825645
BD9A9EF0
BE1F67A2
BDE7DABB
3D855DE8
3D60F796
3CB32DF5
BD094DAB
BC1A513D
3C8E0DD2
3D9600A9
BC42CFD1
BD3F53E8
3E14F6A1
3D766B7C
3D9322BE
3DD4C496
3DB57126
3D04EC61
3D8B16ED
37A3047C
BD243138
3DA4FE73
BC23FC58
BDB7C11A
3D5491AD
3DD96764
BC1CEACF
3D82A1CF
3D8D3DB6
3DF1BB29
BD228945
BDF1954E
BD849E12
BD57A771
BD93E613
3CE379A7
BCE6C10B
BD290D9D
BCC47035
BCA937D3
BDCA1537
BB16DF94
3DA43935
3C38D4A5
3CB1AC58
3DA69056
BD6C3C06
3D030420
BBD1751E
BD76378F
3D1C82E4
BD2569FF
BD901BCC
3BD95212
BCDA6D81
3C92CBBF
BCD1B284
3D47449D
BD977326
BD9B183D
BC948C3C
BDEDDE0C
BE26B980
3DC89978
3E04B8CE
3E211F37
3DF6C57A
3CCE9FBC
3CD81A43
3DBB8F83
3DF66BD6
BCE70DB1
3D90859E
3DF26DE3
3D527FB3
3D8D472C
BC8299BD
3C2A59E8
3D3D1FB7
3D757D5E
BB3319DA
3DB4559F
3D03702D
BD9562C9
BD979433
BD8B8BC9
BD8F528C
BD9FB3B7
BD4A79EB
BB9CFA73
BDD6B09C
BD404081
BDBED5F8
BAA375BB
BCB4136C
BD427BA0
BD4FB3F1
BDADDC32
3C2D60A5
BD659174
BDCF935F
BC9CCDB6
BDF562E7
BE2A0123
BDB23025
3D07878B
BDA00277
BD12CA45
BCDDB77D
BC6E7A5C
BDBAD247
3C029FBF
3C5A67A2
3D179695
3D3F5780
3CB2FE1A
3D01C5D6
3D11D7BD
BC9712B8
BC41CD00
3DAF7608
BD73964F
BD9DE43A
3DFE1E98
3D800D68
3CEEDB1F
BC9CC5F0
BD24FD7F
BD30F4A8
3D2DB870
BD1FDDB1
3D0CC184
3DAC7D2A
BD8FB2BC
BBF640D0
3DC542D0
3C0F14FE
3C3EBB13
3E05315E
3DCAEDE3
BCD5CAF2
3B2F617A
BD991A8C
BDB626B3
BDC2A0AD
BDDB144F
BD88A883
BCB62241
BDCC86AD
BCB63FD5
BDC84585
BD77CB8C
3CFE4E80
3C72734C
BE03C578
BD8D1EAA
BBE28B2A
BD937D9E
BDF0FBFE
BD0AB7F2
BDC3E031
BE215DBA
BDD573F6
BE43B578
BD9C3395
BDEDB87C
BE1FCDC4
BD419367
BD00BBC7
BE237DD9
BE348E44
BCB08575
BC0A0459
BDCE5A9E
BD5716A5
BD23A2AD
BDECF162
BD1D0C8C
BE00C0D7
BC22DEC9
BDB1D905
BDEBAFA3
BE1AB2CC

