BE2BF49C
3DBFEDF8
3E0DA261
3E363BB8
BDAB2662
BBF10340
BE70F9D6
BE9F5E42
BE06898A
BD911EB4
3EE02D8D
BE3D07F0
3C18E0F9
3ED9A017
3EA613A7
3E14B0DF
BDF9FAEE
BD144E23
3D0C3DF1
BF2CEA79
3C061860
3E416E30
BE63342E
BE46FD4F
3E3D9D9B
3EF1648B
3E32E5E4
BE8413AE
3E8B5A10
BE79482C
BEB7A195
3ED98254

