3CBF6880
3D5E92F8
BD7A6204
BC191358
3D54C8DC
3C208760
BDA303AC
3D5AA258
BD7C3D36
3C578988
BA6FF980
BD5200A2
3D4A7318
3D0ADF2E
BD9B6BDA
BD514414
BD666D9C
3A7D1680
3D2781C0
3C843FDC
3D541B4C
3D049C36
BD93B852
BD23F92D
BD05D160
3CC15734
BC024058
3D021ABE
3D9584B6
BD601988
3D4BD650
BC2BC318
BD6EBFB6
BCD547F4
BD7832FA
3D493FBC
BD107676
3D6F7AA8
BD3A8306
BD619842
3D8ED854
3D3A422C
BCAC8EEE
BD9E4CE1
BCA032E0
BC148E98
3CF2CCCC
3D3DDC90
3CE0A3B4
3CB744C0
3D69A574
BD498D74
3D422E28
BC09BB40
BCD0740C
BD946D58
3D4700E0
BD25035B
BD960515
3C428B58
3D4825F0
3D51C870
BD486079
3D280676
3D81552E
BD39D8F2
3CE86A50
3D8022AC
3D537160
BD94922E
BD17880F
BD305A1B
BD0EEA28
3CFD4E9C
3CBAE9D0
3C6C4E80
3D6D7748
3C6B1730
BD1838B2
BD8E5D81
BD9D8F1C
3CAD9E0C
BD24AC43
BDA37312
3D1B4FA4
BD5F7784
3B9735E0
BD9613BE
BCDC0DB0
3D900278
3D2205E4
3D1633E6
BD87C1BA
3D223510
3CE1F980
BD8BA720
BC029D48
3C55C980
3D1FE314
3B7382A0
BDA049CE
3D4AB690
BC9875C6
BD1D54BD
3CB79F88
3D58D224
BD159714
BD9CF128
BC51AA28
3D2501D0
BD236F97
3C8BBFDC
BBA1E3B0
BBBCEDA0
3CAA93A4
BCF15F5C
3B3D2F80
BC8881D0
3D6EE544
BD453990
3D843BD0
BD8C8371
BDA256FF
3D55682C
3D56A198
3D2EAE40
BD4137BF
3D9A7578
3C98DFB0
BD4A8611
BD8B6728
3D5F0494
3D83DE6A
BD90F609
BD06DE1B
3D6771E4
BD0B315C
BD7CB496
3C944DE4
BD29EDF9
BD9A898C
BCAED182
3D851EF6
BD0E77A9
3D4CEC44
BC955F56
3C4D69D8
3D8E49C2
BD00AC78
3D9B95F4
BD5D7C4E
BD5A2DFB
3BE9D430
3CFBF35C
3CEC0C28
3CE9BC2C
BD466C76
BC1C7E40
BDA3A81E
3D81E820
BB9D1D10
BCD86336
3D00595E
3D24FF0C
3BC6DFF0
BD83BED9
3D9E7AD2
BC91091C
3D2CC19E
3AAC54C0
3CF0D414
3CEE0B94
BC5D7478
3CD13C30
3D8F5F0E
BD84CF73
BD951EC9
BD5831DE
BD1E705F
3C64C2C0
BCC2F6D2
3D33715E
BD3D11C5
BD1CDB48
3BD86430
3D61C5F4
3BBAB3F0
BCDF352E
BD227EBE
BD8E4078
BD8DF6DA
BD97968D
BD30E939
BD1791AA
3C374660
BC402938
3D367D00
BD941B03
BBAE3660
BD1E0AD0
3D235E04
3D7EEB68
3D2A3BEC
BD82640C
BC91E33C
3D67A1F4
BD895735
BD6DC23A
BC576CE0
BD0F4E5A
BCCB95AA
3D2CA538
3CF3BF84
BD50B282
B898D800
3D0F3B46
BD972AC9
3D92348A
3D8A82B0
3D051634
3D8E3108
3D341A6C
BC6330A0
BD99816F
BD676F16
3C99934C
3D853AB2
BD1B90AC
3D3EA6CC
BC244228
BB1A5D00
3CEDCFA4
BCCF36B6
BD6128B6
3BA93D10
3A857C00
BD9983CD
3D4282F0
BD73707F
3D5AFFBC
BD4878D3
3D9FEAC4
3D4625D0
B9A6DF00
3BF68EE0
3D85882A
3D5A79D4
BC8551D4
3B579E60
3D49896C
3CF3B67C
BD06A671
3D370772
BD8E2DB7
BD0C5F72
3D3BFC28
BB9657F0
BCAB8684
3D873368
3CEF4984
BD63E4ED
3D90146A
3D01D388
3CDDE9D8
BC866308
3D6665EC
3D8E7564
3B04F640
3D641F3C
3AC17A80
BD31595A
BD027C64
3D7480AC
3BECC470
BD985368
3D4648C0
BD11AA6D
3D9F4346
BD9ED751
3D4C52C8
3D671880
BD8B4B72
BCE7E77C
3DA25506
3D320F78
BD1F828A
3D9837BA
3C051DC8
3D522E7C
3C6E5CA0
3CDF11D8
BCE01BBE
BB92B090
3D9A2AAC
3DA30196
BD8ADD43
BD210DBD
BD907A86
BD8922A4
BDA0CAAC
3D601EC4
3B9D99E0
3D82E91E
BB805950
BD9766A4
3D4B22A0
BD7007EA
3D956682
3D89C4A6
3CF34074
BC168EA8
BD86F6C5
3D49B720
3D9363E2
3D24258C
BCDCEBE6
3D669B64
BD934CB2
3D79A178
BD006D86
BD42D466
BCC465C8
3D92D388
3D2DC55C
BCE2931C
3C123098
3831F800
3BEA30A0
BD606CA8
3CB77A1C
BC3002C8
BB01ED80
3D63340C
BB85D0D0
BD8D1E51
BBF21640
3C916054
BCAA2FE8
BB119B00
BD1F7F4F
BD3394A2
3CE5EB58
BA857840
3D84715C
BD01B6C0
3D54F8F8
3C920810
3D966860
3D1E7D78
BDA2D7AF
BA786F80
BCC90392
3D5E8328
3D6ECB00
BD8E4311
BCED5B2E
3D8BAFC6
BD79D414
BC504C28
BD8999E2
3D36BA90
BD7470D4
3CA4E7DC
BCCE1782
3D3E265C
3D0776C6
BD9DF1F9
BCFF0D20
BD210E24
3D38CD58
3D3E0774
3D67AC1C
BC9B00B0
BD563F86
BD958F0E
3D2B40AC
BCA5CB2A
3D229B2A
BCDC28E4
BD668A5B
BD96C736
BC85D67C
BD46FE17
BD47E43F
BD982791
BCF0DC04
3D85E23E
BD6498C6
3D5848CC
3C93F094
BC049110
BD31B506
3D624DE0
BD522D3E
3B107CA0
BD54B544
3D79B9D8
3B7F6060
3CA3FE04
BD6EBC61
3D9F1EBE
BD842CD0
3D7898E4
BD394684
3D63AE6C
3D849230
3D85598E
3D7E8FF8
3C1FD608
BC834050
BDA22A2A
B9DBA800
BCBA5D28
BD13A532
BC50C0E8
BC9CBE7A
BC4BBBB0
3D33D484
3D4C96E8
3B892BD0
BCB1FEBE
3D2FCBFC
3D8ECF94
BC842220
3D7C7678
BB4FE8E0
BCD0EECE
BD4E5170
3CF08FAC
BD76F1E4
BD8A0C28
3C105BB0
3CFF8F30
3C8DB434
BCF11E74
3D2458A8
3B958140
3ADEC580
BD033D47
3C0358D8
3C3CD450
BCC4A76A
BD9BE7FA
3CD77C74
BD371798
3CFC0474
3D9E9F02
3CBFD784
BD10FF4E
3BC79E40
3CE5CE78
3D2C8068
3D558E7C
3D9E2924
BDA3DB37
BD943C38
BD6E6DE8
3C2FF690
BD9D9D90
B9EB5500
3D7A2A70
BCE4EA32
BD3496E4
BD8FBAB3
3D93AB24
BBBF5860
BBED2040
BD84F482
BD98BE33
BDA18AF0
3D18EA84
3D7291B0
BD203E88
BCADB972
BD1D1B5A
BD0BA8C0
BD142D65
BD164BC5
3D752614
3D8740CC
3D33E3AA
BD66BCE8
3C72C4E8
BD51A912
3D8FAC82
BD579B44
3C1DD048
3D671248
BD694EC7
BCE69C08
3D23EBA8
BD70BDD4
3C1145F8
3AD03500
3DA26E62
BBCDF210
3C437470
3D2C325C
BD29D169
3D8CC852
3D694C90
BCF31AE8
3CD0DCD4
3D5FBD78
3D36358C
BCF77494
3D27AD76
BC2C3358
BD129427
BD1588AD
BD63C382
BD9BD72E
BDA3B563
BD2FD2BA
3D005A82
BD3EBF21
3D6BC244
BD748AAA
BD7F3B96
3D83D83E
BAA540C0
BB1C4060
BC13D318
BC93CC6E
3D01B87A
3C86F0A4
BD3AE79F
3B39E380
3C5AB468
3D6AC384
3BF83960
BCB24B7C
BD55640A
BD59BB1A
BD28765A
3D73B934
3D2A4A90
BD6C5445
3D9D245C
BD94C05E
BD797BD2
BCDAF46C
BC9B2600
BD4D2CAE
3D89CF8A
BC4EBAE8
BD42ECFE
3CFB5E98
3D08E718
3D14F4F6
3B7648A0
3D278B28
BC8B323C
BB8A0350
3D829C9A
BD0245AB
BD91D96A
BD447797
BCC0D724
3D160332
BC92F43C
BD6552EC
3D9EA612
BB83B3E0
BD798521
3B298400
3CFDC910
3DA10286
BD8B232B
BD634CFA
BD4A0B86
BCB15EF4
3D868364
3A83BD40
BD96F676
BC84881C
3D445994
BD751430
BCFDBF12
3D8DD5CC
BD18FDC7
BCB5A0F4
39B2FA00
3D913C8C
BD314148
BD88EBCD
BACB4A40
BC9C18B6
3D96EDC4
BC2688B0
BD8BA0F5
BD9CD02E
BB520A80
3DA2B380
3D155F3C
BB6B8DA0
3D232B40
BD580F54
BD388093
3D90C5E6
BC58EDF0
BD27A685
3D878A24
3C4A8FD8
3D095D82
3C27EE38
BB1B3560
BC74BB90
BD9E2EBB
3A6B8480
BD8783FE
BCD8EA7E
3D45AC34
3D752048
BC25EC20
3CF38DA4
3AC5C040
3D175C16
BD7C9714
3D9BA368
3D87CAF8
BC093020
3D019592
BC535F98
BCD1C0AA
BBA09CA0
3DA1E940
3D7D0AA4
BD7C1739
3CABE380
BCB95A26
BBD48400
BD4B1223
BD109609
3D0D936A
3CC9CC48
BC8860EC
3DA047E8
3DA1653E
3C34EBE8
BB7035A0
3D01E77E
BD7862FF
3D30CC9E
BD2E6BA7
3D936E7E
3C1F8D48
BD6D881D
BD1903A2
BD940141
BC213040
3D57F234
BD982BCF
BBDC32E0
BCB362B4
BBAA4740
3CDC2BF0
BC93F95C
3D45FB4C
3CD94D74
3D325258
BD9E09E4
3CE290C8
BD98D39F
BC381E10
3CFD48D8
BD6E51CE
BD319823
3D893D36
BD5CB9C1
BD349731
BCA605D0
3BEDAF10
BD06F64C
3D94381C
3D3CD810
BD0910CC
3D6CED74
BD884255
BD59C105
BC0B6940
3C7E4FB8
3D7343F0
BA9571C0
3D78E0F8
3C6322C0
3C9C2A40
3D09EF02
3D7BC8C4
BD4977EA
BD6850A2
3D1010CE
3D5E0DBC
BD2AFDC6
BD1ED96C
BCA16CEC
3B90A5E0
BD5EDE82
BCFCECA6
BD250595
BD157533
3D7915C8
BD86AAAA
3DA1D8BC
3CD94308
3C84B208
BC62C2F0
BD836F6F
3D9EE23C
3D1E765A
3D143E0C
BD515563
BD989A43
BCFC77E8
BD4D661C
3D53CAEC
BDA188A1
BD96FDF9
BD4E6CC8
BD3FB5FF
3CBCDF5C
BD086604
BD8345DF
3D1166B6
3B65D480
BC08FC50
3D16D806
3D1BAF48
3DA3BBDA
3C81618C
3D27FD18
3D909CFE
3D0AFDF2
3C088B00
BD98E8C1
BD861B10
BD939460
BCAF68B6
3D8F8176
BAA7E600
3D8E9E2C
BC2F3170
3D1DDD7C
BC795908
3D0334EE
3DA27898
BD7EAD54
BC8D6C78
3D53A170
3C6C8FF8
BC9D8360
3C759A38
BD9559D9
3D377C90
BD410796
BD36A3F4
3D6A5310
3AD5AB00
BD86F75A
BBB732E0
BD81A25F
3C820504
3D55A71C
3D86BA88
BCE8D6C8
3D0115F0
3CB4540C
BBDC84E0
3CE080CC
3B91E350
3BC93070
3D8AF268
BACB63C0
BD4D2BC7
3CB3D570
3D491778
BDA2D51B
3CCAA7EC
BD84E384
BB5A49E0
BDA222D5
3C88FEFC
3D783BF8
3CA14B94
3D498800
3B2EBD60
BD166E9C
3CF08A10
3BF2C2E0
3C427910
3B115B60
3D1CD5D4
3AB1CEC0
3CBECE18
BB95E2D0
3C0BAFF0
3CC9A588
BD43EC62
BCBEA6DC
3CC320A8
BCE20A98
3BBD25C0
3D067700
BD834B07
BC1499E8
3C2C34A0
3D9818D2
3C232940
3C1F5600
3D317186
3D1F8BBA
BC8267A0
BB22E520
BD826B48
3D741C48
BCBC6C2E
3C6DD0B0
BBB501E0
3D0B4C38
3D1F0488
BD1C0E95
BCE88118
3D829840
BD4DF08E
3D0C3F40
3DA19904
BC72F7D8
BC2689F8
BD265597
BB248FE0
BD5CB2CB
BD7453D8
3CE8DD34
3CD37410
BCF94140
BC4A04D0
BD0757F2
3D843E44
3CEA0BF0
BD89CA41
BB4DBCA0
BD951C38
BBB92FC0
BCED356E
BD7D37B0
3B257560
BD16328E
3D9AD44A
BD01ADFC
3D3CCB10
BC0506D8
3CB69E9C
3BE38A80
BB6EE440
3B479340
BC89E580
BD3E201F
BCB91BF8
BC73C190
BBA6D830
BD68F593
BD1EDC7D
3D3493CE
3A54A780
BC1FCB38
BC26E668
3BF3D550
BD78C184
BC5358F0
BD62E68A
BD6328B2
3D82CC58
3D413598
BCED40BE
BC982476
BD34CE9D
BD11EA9D
BD4D2484
BD206D26
3CA6044C
3CE8FE04
BCC1938A
BD3BF996
3D90CE02
3D953E14
3D116662
BD8DD1B9
3BEFEB80
BD481C40
3D4EC35C
3D98D17C
BD1E715B
3C7AFC80
BD921DC9
3CEA18F0
3D4FBA24
BDA1186E
BD7C6958
3C7E0868
BBF71C40

