3CAE3C5C
3D1882D6
3D5D4F2C
3B473AA0
BD1DF704
3D5A7400
BD19528B
BD909EDF
BCD8F9DA
BD0BA3EA
3C11EF80
BCD83C04
3BAA7F70
3C732EB8
3C92C188
BBEF60B0
BCD39D1A
BD887480
3D3AB8EC
3C6CB7A0
BD9083C0
3D849C9C
3D8B45CE
3CDCF320
3D74F45C
BC3D8780
BD2596DF
BCD09864
3D880E20
3C5BD9A8
3CE1E144
3D49146C
BD17E719
3D9FD406
3D9BDE32
BD2EF1F2
BD917852
BCED8D88
BD774DDD
3D7A16D8
3D05C020
BD8E7E33
3D9025E8
BD709472
3C51A810
BD04D7B4
BD8F6BCA
BD8174B2
BB861D50
BC954240
3DA383A6
BD5DC39E
3D9747B0
BD86AB8A
3D7DB504
BB94A870
BCA5F516
BD9213D1
BD9A3322
3D070F50
BD4C3BD0
3CDB52DC
BD3C3423
3B361760
3C719088
BD2B463F
BCB42F3A
3D36644E
BB804DF0
3D349BEC
BD3BBA66
3B9A7400
3D7938A4
BD68EC0C
BC9230FC
BC8DF940
3D739794
BDA20A9F
3D6A986C
3C644708
3D0CE9C0
BD7A0BC9
3D9F199E
3BF0BF50
B97E6400
BD97A991
BCEE1EB8
BCBB652C
3D9F6C98
3D4BB510
3D44D7F0
BD40E3D2
3D69D000
3D55784C
BD05430F
BB3A1960
3D881B32
3D8AEA0C
BD16C7C1
BD30F912
3C0AEA38
BD5505BE
3D2B5958
3CAE1FFC
3D8FA46A
BD155F84
BD83C79D
3CABB5BC
3CABD884
3CDA0490
BCF206B2
3D1C57DC
3CC1EA28
BD83906C
3B1C3340
3C2DDCE8
BD978B04
BD266125
3C059098
BBC75880
BD9A073A
3D5045E0
BD99AC61
BD761FBC
3D47084C
BCE7A55E
3CEB2F10
3C6B5D40
BCF0A3EE
BD53D563
3CD8D19C
BD1E96E8
BCC50A1A
BD88F0D1
3D90D86E
BD69DC31
BD112C5B
3D879584
BC2BC168
3B36E520
BD0A7A4D
BC236308
3D968346
BD000DB9
3D1FABA4
BD54F651
BCD5B06C
BD385731
BC9D1756
3B77E6A0
BDA2A299
BD88DB08
3BCBD500
BD37CF79
3C521F88
3D41919C
BCB57ED0
BD41AC7E
3D891DCE
BD33B184
BD2F5432
BC356938
BCEACAEE
3D3E898C
3CE1F7C8
BDA153CB
BA935480
3D8A9C02
BD1476DF
BD831F36
3D1EF04E
BD8DDA82
BD3436BF
BD03C0D3
3D7A935C
3BC13000
BC88AEF4
3D189CFE
3D807C54
3D1A45EC
3D04EFA8
BCE89D42
3B146A20
3C414828
BD646174
BD5723A7
3D2B8A90
BCC97B0A
BD1B93AE
3D91950E
BD430817
3C0CA4D0
BDA10527
BD919A47
BD53F936
BD6AAD96
BB5707C0
BD943303
BCF80078
BD9D1C98
BCEB06B6
BD894440
BD36D891
3C95D734
BC980A80
3D023DC0
3D8270DE
3D86B7FC
BD524200
BD78F7A2
BDA2C9CE
3D37C418
3D8A04E2
3C83064C
3D847B78
BD9BF6AC
3C762FC8
BD1F0A91
BD217375
BD8EF496
3D2CBDE4
3D3C1C40
BCEFD6EE
BC8FEBEC
3CF0C85C
BD6F31AA
BBD7B570
BC8BA984
BD8806EE
BC988122
3D70C61C
3CC8D230
3D209E64
BD8F024A
BD3E6EA7
3D5B6E0C
3CEF7A6C
BC8B0D0C
BCE02D98
3C8FF68C
BD88FF07
3D919670
BCBE549E
BCD85924
BD83B86E
BD3BF143
3D480EA0
3CAF8D18
3AE5E9C0
BD2B46ED
BC97FAF0
3C8BFD48
3D8EC962
3C91CAEC
3C36FBA0
3CEB8BFC
3CD4F714
3BFDB180
3D40CA54
BA9ACE00
BCB930A2
BD9DFAA8
BD501BDE
3D9C027E
BC71E348
BD92DA0F
3D23CAC2
3BBA6550
3CDA44DC
3D280236
3D67C548
BC925B4E
BD4074DB
3CC33E58
BC7295C8
3D86A42C
BAEC1D00
3D9BE5B8
BC7C65F8
3AC6F8C0
3D7C1598
3D5CFF2C
3CECE194
BC2D42C8
3BE9B4B0
BD47CCC2
3D94C34E
3D483EDC
BBAC36A0
3D8A0B2A
BD94F984
3D1AE592
BCC9FC42
BCA2BE26
BD574391
3CC7AB50
BC0A4F48
3D2BE6EA
3C218560
3D5B6D98
BD7BDA96
BB48FD80
BDA0CFF2
3C680710
BD827107
BD3EE24B
BC2BECA8
3D85983A
BD5D1F9D
3B76E000
3C1E3FB8
BCEEE5FC
3D8897D6
BDA38C2A
3D5BE0D0
BD8A93D1
3C8E9238
3D4288FC
BD006605
3C721770
BD9D8660
BD8577E2
BC60F2A0
BD10AE68
BA3D8D80
3D2B4E74
3D94A160
BD77FFDE
BD8E422F
3D052B5A
3CBEA5B0
BD706204
3D8AD570
3D94CCEC
3DA242AE
3AD11240
3C3C6198
BD52EDD4
BC9ABA14
BB2FB040
BD46573D
3C3F6120
3CC8C524
3D93B9BE
3D02A65A
BD2B457C
BBCF3DA0
BD919373
BD0612A6
3D0C9AB8
BA8A0600
BD18512B
BC824660
BD0D2779
3CD5F24C
3C69F110
3BD16E00
BC987F72
BC4D1F78
3B0FD700
3D2CF27C
BD2A2101
3D82AAEA
BD945B83
BD117C6E
BD32657B
3C272550
BC066138
BC9C7D72
BD6D7446
BD6A8262
3BD915D0
BC451DC0
BD94A216
3D49F984
3D5BF0A8
3D44A3FC
BC935E44
3D9D2F2C
BD00AE89
3DA38700
BD18EDCA
BD2C6FEB
BCA5641A
3D511534
BCDC894A
BD8DDDF0
3D8BBE72
BC73A018
3D87EA6A
3CBB3A14
BD57F924
3D99CDD8
BD3985B3
3C1CD3B0
BBCE71D0
3D7F3AB8
3D75EE18
3B7C0340
BD0E55EC
BD96C739
3D3A8E18
BCAC0452
BD1B5E72
3CA0BF60
BD04E342
BD02E844
3D80915E
3D759DA0
3D9C9AB6
BC4E6760
3CB7B4F4
3CDF0994
BCADDA3A
BC956784
3BBBE930
BB532160
BD97C784
BD75EFFE
BD392F01
3D308AEE
3D02AC08
BD12D525
BCBB535C
3CE076D8
3D179816
3D5B86D4
3D4BDF84
BD20C1C7
BD1428B4
BC6EB960
BD88F99F
BD0ED2B5
3D6CF2C0
3C82C424
3D1EA884
BCD2AF5E
3CB650E8
3CB33CE8
BD3D0512
3BCE4220
3D9D065E
BD0FFC2F
3D95E2A8
3D5B30E8
BD395830
3C938FD0
3D3BD218
BCA02DE6
BD129010
3D1EE5F6
3D89C8EE
BA193980
3D384EFC
3C8580C4
3D0441BE
BD8DB034
BD308775
BCB14196
BCB2EED8
3CC2DC10
3D7C6B8C
BD8EDC2B
3C113800
3D9F95AA
3D33038C
BCDF6514
BCB42A0C
BBE655B0
BC6CE598
3D25DCB2
3DA3B548
3D112A50
3AD95740
3D32817C
3D848C4A
BB280C80
BD0D833E
3D0040D4
3CA803A4
BCD67E58
BBCB3690
3C166AB8
BD939303
3B4EEFC0
BD50FD6E
3CD1CABC
BC3443E0
3D3BBF4C
BD93B934
3D068702
BD5AFAAE
3D8F6CB6
3D4A6FD8
3D6F2AC0
3D23936A
BD81AF85
3B884CE0
BD9E161E
3D759A68
3D653B08
BCBA13B2
BD9BFCB3
BD2EC532
BC87238C
3D5AEE8C
BD6C1E7E
BD811F94
BB9A4210
BCE0BF42
BCC7A05E
3BC63BF0
3C33C828
3D8C47B4
3D95BD92
BC4CB9E0
3D51E5CC
3CE0859C
3D614810
3BC4EBF0
3D590534
BD8A5E3D
BD8A8B0A
3D8C5BE2
3D29CE90
3C8A269C
BD231687
3D94B604
3D2DF298
3CE73D6C
3D1EBE8A
3D27884A
3A5EB800
BD5AD2CE
3C7A6C68
3D8B861E
3D3A1774
39F29500
BB783D40
BD42CA45
3D44EF94
3C708720
BCD9D95A
BD966DC2
3C96FD98
3C5732F8
3CCF8224
BD959D37
3D104DF2
3CE24760
3D4339D8
BCB83CEA
BC010D20
BD7624AC
3D3E021C
3D0EDA74
BD18CC40
BB8F3AA0
BD774E3E
3C87F82C
3D09DA08
BC6B8598
BC7D1228
BD658E70
3BE5BB00
BC82CCD0
BC2FDAB8
3D964F4A
BCC6F884
BC2CA558
BD38384D
3C9687B8
3CF8914C
BC4AFF50
3D071A3E
3D918CC0
BD9214D4
3D6B53EC
3D991D82
3D4F6628
3CA31A80
BD8145B3
3D262852
BD088128
3C7AAF40
BB3FAF40
3BCDF1A0
3A9F72C0
3D84D832
3B1535A0
BD826A19
BD668A5B
3D92A380
BD4F0B9B
BCC01C3C
BBC77FA0
BD9EA912
3C1F8EF8
BD848D09
3D8E53F4
3C681140
3D757EF8
BD54E390
BD7BE685
BD7C8CF2
3D3ADF88
BCE22362
BC931810
BDA29151
BCBD3A26
3CF50870
3D4E8E94
BD9A36F0
BC5807E8
3D949F80
3D4B62AC
3D74FB40
3D957356
BD249A87
3D2055D2
3D831B2A
BD650A63
BDA11286
3D6987A8
BBE789A0
BD1537DC
BDA30487
3D9B2A38
BC88AC94
BD29AD5D
BCFF400A
3D9CDD9C
3DA3FA96
BBFCECF0
BD88C31F
3D98CEA0
3D4AFF14
BC957690
3AB66D00
BD74DD92
3D7F3630
3D0DB5CA
BD94D128
BD0A3336
3D5B13BC
3D81C2F0
BCB23998
3C817F3C
BD016D6F
BD5FB437
BC1FD810
BCD3D4BE
BD8C173E
BC53C9D8
3C91A2EC
3D87A946
3D982DFA
BD639A02
3D4EAFD0
3D6B8828
3D8824FA
3CFB2D04
3D0F4712
BD8544AC
BD57608E
BD2E51A8
BD6CFBFC
3CB1F310
BD4BE364
3D5190B4
BD22B8AC
3D938F30
BC4A1D20
BD78CE6E
3D130DCA
BC49F568
3D588D88
3D0CF16A
3D251C9C
BD855454
3D2E0252
3CDA1A30
BD2C3B81
BD9B1AA8
BD36A8F3
BD64A69E
BD8D4105
BD3936F8
BD9D8154
BD909304
BD82EE2D
3BA64DB0
3C108408
BD91C39F
BD9B9326
3D8DAC7C
BD49D0EF
3D4608B0
3D125C1C
3D9DA822
BD623081
BDA44FCA
3D3A95F0
BC15D5B8
BCE2AF70
BD3C2455
BD6AC5CC
3D325EBE
3BBE95E0
3CBB2724
BD643898
3D70311C
3CC00070
3CFC11B0
BD9E4033
3B9F6340
BD2BB478
BD50AF70
BB9FCA90
3C8F8A10
3D30340E
BD26F997
3CBEF0EC
BD9D2B3F
BD82C7D8
BC6F2548
BC06B9D0
BD832926
3D2330F8
BD89F0C9
BCF0E47C
3BD449C0
3D3CBBD0
BD80780B
BC5FCAF0
BCD8A6D0
3D7AFA88
BD670657
BBA17B80
3B2EC320
BD948B71
3D44616C
BD76798A
3AF30440
BD84F905
3CB45140
3D402BD8
3D4FF200
BD74C4DB
BD9CAF8B
BBD136F0
BD8C456E
BD241E67
BC16D640
BD44EF34
3D3672F2
BC3CD640
BD6BA30C
BD80CBA6
BD6CFC15
BC97681A
BD9A5604
3CAF6B90
3CE7B100
BCAF8ECA
39F27E00
3C292170
3D4A663C
3D62C0F4
BD8EFC64
BD8DC929
BD1FD6C4
3D31CEB2
BD37FDF3
BB9FEE10
3D926324
BD868BED
3D8BB7F6
3CA13728
BD6525EE
BD0560A0
BD93BC67
3C815644
3D9D79E6
BCAAF486
3D82B900
BD89EF06
3C83D168
3D3538E8
3C3CA9F8
3D85201E
3D828422
3D5D14FC
BD321EC6
BC0D23C0
3C9E0278
BC48C2D0
BD14CAE6
3D7E9C50
BD921684
BC21A5A8
3CDCF938
BC9FFE52
BD34944E
3D9214BA
BC623070
BD0A9D58
BD3BC89A
3D82CDD6
3D40F234
3D520B00
BC924740
BCBCBAEE
3BC34EE0
3D9B79D6
3D8726D0
3D3F263C
BD9D6739
BD8308D8
3D6DE9C4
BD0ED3EF
BD94EC2A
BD7D8D6C
BCC2F7B4
BD3B901D
BBA58A90
3CA39C70
BD7A1D7A
BD731900
BD125B3A
BD576510
BD1A45E1
BCFE74E2
BBFE11A0
3C3A14D0
3D838D10
BD803A86
3D53AE74
BDA41C51
3CFA47B4
3C1B5AE8
BD09C2B4
3D5904C0
BC785D98
3D8F9CA2
BB1CD640
BC87AC14
BD9C3BAF
BD4ACD98
BCE51DF2
3D93D596
BD644A24
3C111210
3CCB6D24
BCEFAFD0
3CF6B5F8
BBCD7230
3D4FB0B0
BD0C4EA8
BD8EEDA8
3D5A31B0
BD49A626
3CD54A5C
BD2DAB8C
3BEF9430
3CF42560
3D61996C
BD48F588
3CAD89FC
BCF0841E
3D6E4A80
3D63C29C
BD8CAC62
3D8C8106
3D11E1DA
BC27C880
3CA7E2DC
3D695978
3D3602A8
BB7C4800
BBD5F010
3C43B420
3D0941E2
BC599DA8
BBE5C170
BD6E74B6
3D960E4C
BC6079A0
BCA3AAA4
BDA282A2
3D6208FC
BC93698A
BBCB3790
3D857572
BD41B70B
3D48A6BC
BD07238D
BD28D0D1
BC184498
3D5C0EC0

