3D6A2BFC
BD85E4CB
BC57BFD8
BAAAA8C0
3DA07B70
3D3C924C
BC82F390
BD68EC20
BD9AA2EF
3C3558A0
BD0AD87A
3C32B610
BCE8A2A2
3D59E894
3D9E5A28
3D63DD40
BDA3FE14
3CE9B8D0
BC9815C6
BD43091D
BD8B5064
3D3218D6
3D999710
3AD39800
BD0F488E
BD9983D2
3D983AE0
3D73F89C
3CE18098
3D9E1148
BD891080
3D003538
BD403B8C
3C444BC8
3D8A360A
3C9B7FE8
BD4608A6
BD92ABF6
3D6FC11C
BD27219C
3D698518
3CFCF2A0
3C3EF200
BD884480
BD0F4928
3CDF69E4
BD7F12F2
BD487FB9
BDA10A94
3D728BEC
3BD31CE0
3C7C8DF0
BD94A5D9
BD9FA3B5
3D420364
3D305FCC
BD423061
BD5611DA
BDA2AA69
BD69B73E
BCF3E216
3DA39EE2
3D9E0324
3C62A5B8
BCB92B0E
3D35C8C0
3AFA7180
BD3CFC68
3C83DFC8
3D888C68
BCD48EF8
BCD3F3A2
3C492428
3D1E1050
BCEA95E6
BC92A9B2
3AD9C000
3B991560
3D3546D8
3D0BE434
BD85AD0D
BD62917D
3D97F494
3DA37310
BBA34890
BCC7B43A
BBEEECA0
BD66EDE8
BCDF5E38
BC61A808
3CF6A60C
BDA40903
BD696FBC
3D4B03E4
3CE397EC
3CFDFF40
BD9CF3C1
BD4AC78F
BD96C45A
BC8AE4B0
3CB6CAE8
3CBFE3FC
BD93B394
BD893A4A
3D3C4B14
3D29B582
3D60F814
BCAF9C4E
BC653708
3D4C2104
BDA0D97F
3CB5CB3C
BD741168
3D909ACE
3B3C79A0
BCF1168C
3D68E08C
BD378498
39004C00
BD15F7D8
BC3C2128
3BA32C20
3C0F4E18
BD2B69AB
BBC98340
BCC67D26
BD5D09CA
3B3B8F40
3D08ED2C
BD065BE7
3D108E22
3BA48460
3D2DD124
395BF800
BCAB7360
BD9CA855
BC55E190
BC2BB010
3D44D5A0
BDA23C2D
BD9168D0
BD9D833A
3D18C8F6
BDA00BBB
3D64AE74
BBBDA670
BD98B042
3CD269B8
3CEA315C
BD2220F2
3D8F5436
3CED2F80
3D074D56
3B8988B0
3C4CF860
BD52212A
3CA06E34
3D0619B6
3D829D34
3BA56BA0
3D1C6556
BD7DAA30
BBF7CC40
BC451888
BD90F131
BD5906F9
3D77C838
3D185308
BCD4DCD8
BC8C43A4
3D90A3AA
3B939BD0
3D293DF4
BC178378
3D3DEAAC
3B91DA80
3D6F495C
BD9B8CC5
BD2EC88B
BD8B259B
BD8B13A2
BD82896B
B911C000
3D864EF2
3D98CADC
3D4FC1A0
BD5E5960
3AAA74C0
3D2CB47C
3C964E70
BCC04E6C
3D9A8A90
3C4E8378
BD3804DF
BD4ED2B3
BC939C9C
3D8A3B66
3C8CEBA8
BD1F055A
3D611514
3C2EF9C0
BD98DD26
BD1434F5
3D173E52
3CFBA134
BD360847
3D6C8540
BD8245E2
BD728D6E
BCD0D536
BD142320
3D4FBEA8
BACB1440
BCA8EF86
3C3BF770
3CB400BC
BD430054
3CC697F4
BD957CD2
BD62CA65
BD2F0E35
BD659528
3D1DFA96
BD0E1F05
3D25D02E
BC8EFA54
BD8C33E3
3CE05F94
3D755124
3D2ED314
BD62060F
3C83607C
BC882338
BD0B6E32
BBE51CF0
3C675648
BD370BAD
3C6C1AE8
3D3CB6D4
BD368CD3
BBC72240
3C86B2F0
3D58EDB8
3D47F0D8
BA0F1D80
BCFECFF2
3D1031C8
3D0814EC
BD9C18B1
3D90E076
BD5D6C48
3D538EA8
BC52ADE0
BD252C37
3D7FEE20
BD3194AB
3D8CD2FC
3BC7CB90
3BD93970
3D6A4130
3D06D360
3D9AE7AA
BD277F4E
3D187138
3D1ADF8E
3D52E6F8
BD83EF29
BBA2C970
3D794D5C
3C4121F8
BD219863
3A09EB80
3C64BDA0
3CAE95B0
3D91A86A
BD93E35E
3D6D7E5C
BC60B608
BC828058
BD5EC363
BABB4E40
3D92BC36
3D327DD6
3C8D90DC
3D9AA2F2
3D9A4DAA
BD0F2402
3D36D690
BC6EDB38
3D16FAD8
BD8A92F9
3D9EFE26
BD9F8B06
3D40DEC8
3D83C6C2
3D7D8888
BC2E01D0
3D96C62E
3D94725A
BD648230
BC324D20
BD86F5F0
BD1D26B9
3CCD85CC
3D68BCAC
BD211414
3B4B6620
BD980CC2
BCDD65C8
BC874B38
3CD55854
BD7E91B5
3D2B4A60
BBE05460
3D046370
BD297A79
BD29EB6D
3C02E368
3CC33514
BD8D7AC5
BCE11684
BD6BFDBC
BCDF08F8
3C525258
BC4A9498
BD10CA59
BC8A939C
3C1D5468
3DA0469A
BBC0EBA0
BD8104B0
BD5F9319
BD095485
BD04A2B0
3CB459CC
BD845DF2
3D4FBC9C
BDA2364F
BC5861D8
3D6180E8
BCB5A792
BBB4A550
BC343398
BD6DB708
3CC9B810
3CF2804C
BD7BD8EC
3D112D0E
BD0C9FB2
3D15BE5A
BCD1E6E6
BCB82F7A
3C1E6060
BD80AE1A
3D966B26
3D93145C
BD355D8E
3C7EE108
BCF44AA4
3C858E84
BCEDBFEA
3D9AC752
BD9DA8AD
3C928728
3D9D6584
3D66E200
3D5B36BC
3C525F90
BC71AFB0
BD83EDD1
BD866763
BD4A4F58
3D143D2E
BC946C9E
BD744096
3D8437BA
3D3D1D80
3D133018
BB2B4D40
BDA40F7D
3B912DD0
3D91AC98
BCC1CD1C
BCBEC0DA
BC16DE68
3C056F28
BD0AA261
BBAC5CB0
3D2E72DA
3D9B91F4
BD20D67F
BD27F445
BCF27102
BC31CDB8
3BC33C40
3C9A292C
BD0D626D
BD93B4F9
3D94A6A0
3D6919E8
3D38AE50
BD603852
3D771B88
3D703EBC
3D90EDA2
BCB7891C
BD82030E
39BE1700
3CDA8680
BB283C40
3D8D3D36
BD4DE2EA
3B9A9410
BCDE1EC4
BC370448
3D9BE00E
3CADB648
BD44BADE
BCAAC2DC
BA63F580
3DA060FE
3D62618C
BD57BB8A
3AE564C0
BD29EE8E
BD920C56
3CFEDE1C
BD211ED4
3D459624
3CFBAB44
BDA04B80
BD7C9C7E
3D51AB8C
BCC74E20
3D85342C
3D70BAA4
3D85B49C
3C85A800
BB9F99F0
BC404718
3D889970
3C1F73D8
3D832D04
BD8E7A6E
BC9372EE
3D8DA5B2
BD635736
3D38ABC4
3C279888
3D0C3506
BC1BE550
BD0008D9
3CB33FC4
3C3C8CE8
BDA31014
BDA145EA
3CEB80FC
3C10C9B0
3D0CFF14
BBC246E0
BCD76480
BD127EFE
3CF705F8
BB8F9170
3B1CFF00
BD7B9AAD
BD8AEA19
BD724A6A
BCEFD012
3D812B1C
3D977290
BC9A8CCA
3D2DC854
BDA35C8B
BD57FD2C
3D4C2FD0
BC405760
3C401340
BD8792C2
3B894460
BDA00A8F
3D9C78E4
BC213E38
3CABD8CC
BC425D48
BD231CF8
BD63EF22
3C020CF0
3CCC6BD0
3D6349D0
3C555568
3D06C57E
3D8620DC
3C397C20
3D9EEB6C
BD94313C
BC1B5E60
BCD91152
3CEA2320
3C488960
3B982BE0
3BC17E00
BCB7028C
3D710B24
3D450FCC
3C4FA170
3C11A910
BC770F10
3CA13ABC
BD50BD95
BCE92422
3C338D98
3D3C6680
BCD089D4
3CA495F0
3C51D648
3C8A147C
BCAB154E
3CF792F4
BD636224
BCF21DCE
BD7A2D3E
BD76A098
BD2708A8
3D9BE90A
3D9382D2
BD6F03DA
3D0E1FF2
3D69E60C
BD8BFCC7
BD03FD52
3D8D4766
3D2A8E7C
BC943AEA
BD786064
3D55287C
3D849BB8
3D326E10
BD4199E0
BCBE0480
BB02A7C0
BCF686E0
BC052070
BD8C6DCA
3D9FDB48
BD8EC811
B9A27200
3C4338E8
BB890DF0
3CE63EA4
3D10F7E6
3B1C5820
BC78B558
BCE569A6
3CB94D90
3D5CDE34
3C6AE120
3D1CBCB6
3D971054
BD58E890
3CB0F264
BD8C4C6E
3D421788
BD9C65EB
BD215E65
BD7D3D0C
3C290840
BCA3DBE8
BD54EDDA
3D23EFFC
BC0558C0
3D55F5A0
3D8ED75C
BD17D209
3C01C0B0
3D174988
BD003D2E
BC8E0214
3BC043A0
BCF8B226
BD67215C
BCF58308
BC70CBA8
3D1E52D8
BC729310
3C118478
3D76E9F8
BC3A62D0
3D8EC5A4
BD9F1E90
BD83184F
3D3C004C
3CD34F3C
3CA6F31C
BD9315E8
BD6AAF4B
BD91EAFA
3D210E76
BC8637FC
BD3CE3D0
BD7AD964
BD949AF0
BABD76C0
BD0765FC
3C2250E0
3C72DA40
3C434140
3CF29EF0
BC81323C
BC885C6C
BD31675B
3D97FE62
BD8F1FC1
3C3036E8
BD62C328
3D0A10C0
BCEBB3E6
3BA87260
3C1C4BE0
BD13135E
3CBA8FC8
3CD8FB60
BBFD0950
BD7BDA58
3CB05C64
3CF9B5E8
BCFA4422
3D7D2254
3C12C060
BCF1B6FA
3C25FA30
3D5CF7D0
BCD9C25E
BC704270
BD670C4C
BC215A88
3B083900
3D9D0A9A
BC989478
3D711C48
3C8AD220
BCCF77FC
3C5A28C8
BD20D4B1
3D8972F2
3D338D16
3D56F230
BD9C7A63
BC446D68
3C8911D8
3D641924
3B845DD0
3BB71B00
BD214D72
BD8F5918
3C446788
3D266FB4
BDA01603
3C12E2F0
3DA33298
3D459C3C
BCBA6020
BD7E4EE9
3D475F3C
BCB6268C
3C2DE008
3D70D730
BD89CC92
3D27C0AE
3D973DBA
BCB77C6E
BBD3C060
BD978B91
3CE01F30
3B7F10C0
3D5F72B8
BD89532F
3D7985FC
3C97A690
3B097DC0
3D384FBC
3D8E9C50
3CA8FCC4
3CA4C0B4
BC4FD1B8
3D35860E
3D70C124
3D8A8FBE
3D567968
BD06CD42
BCEC6016
3C92E02C
3D36DB94
3D7A2E44
3D95E080
BD9B6EDF
3DA1459A
BD82DFFE
BD82E6CB
3C913BA8
BD4F38AE
BD079712
3D91968C
3D0DF9BC
BD29C699
BD995B85
BD9C8BC2
3D876634
BD9566D9
BD106DA3
BB021CC0
BC369218
BBB221D0
3D827634
BD75EB58
BD2A33D2
BD1DB797
3D631A64
BD12EE7A
3B4FC020
3D450F28
3D00A860
BDA39F88
3D8DDDDE
BBB0DB90
BD9207E4
3D3B1B1C
BCFF4560
BD82077A
3D17A56C
3D8B2FFA
3C16FBF0
BD6EF587
BD4C545D
3CC5CA08
BD6AFFCA
3D9817FA
3BC32410
3BACB190
3C750E88
3D223C72
BD7119E6
BC683CF8
BD119788
3D9F277E
BBDEE5E0
3D69D88C
3BFE7FB0
3CFD81D0
BD1237BE
3C59FDC8
3D04D474
3CD9F89C
3D30B170
BD39C074
3CF023CC
3D5E3284
B9639600
3DA1B1A4
3C83BEF4
BDA139CF
3D8E9676
3D6AD420
BD16CC7D
BD0D3BE5
3D6C5E48
3D10B22E
BD01838F
3D83E740
3C5EF730
BD47EC17
BB9D9560
3D58C164
BD22F833
BD7592CD
3D88B0B2
BCA56C16
3D5E807C
3D4D12A0
BCAD9B86
3D977BE4
3CC5FBB0
BCD06250
BDA1C24A
BCFEDBE8
BA21DF00
BD4A5826
BD87C886
3CBDC9BC
3D8E0DE2
3D188B86
3D10A384
3D56C944
BAEA62C0
BD7B2876
BBAEDD70
BD97F0E0
BCA37FCC
3D06EA24
BD9925F2
3CAAEE30
BC2D6760
3D36B6CE
3D89CCF6
BC2AF2B8
BD0EF545
3C867714
BD0A3657
3D7AD810
BD56FE10
BDA168B0
BBC020A0
BCE11396
3B000460
3CE8F7C4
BD7D84D6
3D1E7A3E
3BAEA570
BD48A16C
BCEF9996
3D74A1F8
3B39EB20
BD20D4DA
3D93AF42
BD54147E
3BB8B0D0
BD982D31
3D06032E
BD0927B0
BCDD899A
BD0B6243
BD354EB1
3D9A2E88
3D73FDAC
3D79C18C
3DA20474
BD41BF59
3BC3FE20
3C089108
BD81B260
BBF50870
3D997580
BBAE2600
BD2A1A0B
BD14505C
BD6F7D2A
BD8638F1
BD983904
3D97A8A4
BD15E746
BD69EFA6
3CFCE550
3D92E27C
BD9A5321
3D3D2284
BC8FA204
BC9EA224
BD96AF8D
BD0A661A
BD6D54D2
3C8CCE88
3AE28000
BC916E22
BD747007
BC81EFD8
3C780138
BD998ECB
3B95B8A0
3C61E990
BD0D9D9F
3D7DAF34
BD05B373
BD7D5C38
3CADB14C
BDA1177F
BD683200
BD0F5CD6
39F76D00
BD868B8E
3D0553A6
BD246368
3D749318
BD31580D
BD4D39BD
3C69EA38
3D7EFBA0
BD9DA238
3D8B2358
BCC18A98
BD3B3DC6
3B190D60
BD29CD85
BD10CF39
BD053849
3D712C84
3C73FFE8
3D9CF21C
3D1A2328
3D44A8CC
BD87BAAC

