BE669C8D
BDF44B74
BE1064DD
BE4E137D
BDEDE5FC
BDAFC552
BE5FCB8C
BDD70CC4
BE09CAD1
BE04C3CF
BDAA2FEA
BD1ED386
BDEF907A
3B13C8F5
BD595AB2
BE05AFD5
BD5FCDDF
BDC9BCC9
BD20E3CD
BD273AB9
3B9FE818
BE2B8B26
BD7C0B5E
BDCB0253
BDF8DDD5
3C6B2053
BD86C907
BDEC5C41
BB748942
BDB08274
BDEAF481
BD2ED416
BDBD5876
BE577D1C
BDA53EF2
BE180B77
BD8C2FA4
BE0D4043
BD838079
BE260DB7
BD7AD3CC
BE0325EC
BE1D61CA
BD52F12D
BDFAF382
BE343516
3B273067
BDAFCB0E
BD8D7336
BDB7A34F
BD8F6C7B
BE2194E3
BDE7A0A7
BD097ED5
BE1DA563
BD95AB61
BD4CAD71
BD5A0EB3
BD9A3FE9
BDCCCAC2
BDF9B9C0
BDD80297
BD9E8F28
BE3190A1
BB7FA6B3
BD87674B
BDEB2123
BC9CF381
BE12C5E1
BC8B9FDB
BD4333E7
BC917B67
BB60D9AB
3CB01E9E
3D221388
BDBBCF07
BC9A7150
BCBBCFD5
3C3EDEFE
3D52378B
BDC226FE
BDD2B082
BD646D25
3BA48A97
BDF00948
3C4A512E
3D5656C5
BE0CB9E8
BCC0C19C
BDE2520D
BDB9296A
BCC754C6
BDCECB4B
BDBE8CA2
BCDA895C
BD80A02E
BD3C6E93
BDF7826A
BDAC8884
BDEFC2B2
BDC21D94
BB0E9F78
BDEEC233
BD06D78C
BE00D751
BD72E4B6
BD7AE1E9
BDDEAFE1
BDBB1A8C
BCDBE76D
BC7D236A
BE1008FE
BD95A597
BE19339C
BD3DE4F0
BD3DD9AF
BE13A087
BDC71558
BC7D3BF8
BE1ABDBB
BDA5848F
BCC38511
BE09A602
BDBAF116
BBA14E9D
BC172F92
BE1CE24B
BDA81D2A
BD3254D9
BDA1C638
BC96284C
3D00D5A2
BD56CC0F
3CF7EA2A
3D8D5DCA
BDA5C2C7
3ADCADCC
BD1635DF
BDE5C37A
BD355C2C
3D646FF6
BDFEF154
3C77C14B
BC286D96
BD010F94
3D519776
3D9167DD
BDFC3708
3C21864C
BC8B40FC
BDF7B41D
BC515489
BD9291B4
BDF6C04C
BC737C8D
BD988FCF
BDE07A4C
BDC5DFAA
BE022809
BD8F0D44
3B7BF7FA
BDFB7B81
BE06A6DB
BD655BF6
BDBF4157
BCF7E303
BD6D77AC
BDA3EECD
BDB19CCD
BD83725B
BD9793BD
BE13B8F9
BB0BAE27
BC96BE0B
BDA160FC
BBBBCAA3
BDB8AACE
BC962427
3D0E527C
BDE91B9D
BDBA5F19
BD2B5F13
BCC9D265
BD06DC37
BD72E341
BD8FF014
BC81EAA6
3D820223
BDE70AC3
BD2B1CC1
3D6F8A69
3CCDBF4D
BC916C91
BD1B8500
BC8EB821
BD4D9D2D
BC9DF674
3DD6DEA0
BBA80C37
3D8C8EEC
BCF5ABBB
BD24DD1C
3C144066
3DBE41A3
BDB2363F
3D220802
3C831EAC
BE0F19B6
BDE09B80
BD4B6D80
BE6E6D62
BD8C4AF7
BDE8EC88
BE358387
BDB9ABA3
BE290BE6
BE019CD1
BD02BA89
BDA88B22
BD3E4A68
BDA3D160
BC0556DD
BDF70A29
3CA46D29
BD028CFF
3C6AD940
B9E31094
BD8D0794
BD649FBF
BCEA300D
3CC64F53
BDAEF342
3CCD2D5E
BCB31160
BC3F4065
BB866168
BDD1392C
BD421C20
3B3F4F16
BDF90122
BD17F208
BD0822E5
BDAF5FDA
BD6C4D6D
BDA61D84
BDE13968
3C5F7840
3C55172C
3D361C5B
3C578C08
3DF658A2
3DBFAA0B
3CBEF063
3C77FD8D
3CCA5DE6
BD3161F7
3D9F499A
3CA3C504
BBA12BED
BCF52C67
BC8189BB
BD96369F
BCCC0C59
3DD1E2DE
3CCFD71E
BD0342BA
3D8B734A
BE355A08
3C42C533
BDE8ABC9
BDD368D0
BDC5915E
BE067618
BE231233
BCE9CA61
BD4A7BDC
BD1C04AB
BDA7375A
BDC0587A
BC66D631
BD45606C
3B10D19A
BD989D33
3D022384
BD93ADE9
BC07CD7B
BCA9DDDC
BC5FA91D
BC96287D
BA75704D
BD5DDB71
BD3A7161
3C761418
BDA9ADDF
3CADE55B
BC9CECFD
BDA6F09F
BD75DF4B
3D26691F
3D6B0C9E
BCBA4809
BCA40196
BC6A3443
BE04ED7C
3A5CC99E
BDBF6A0C
BD8414A2
3DE78B3A
3DE7060C
3DAD36D4
3D1909B4
3D765508
3DC44187
3DA5BC3E
3D9582B6
39566F98
3E069A76
3E074AB9
BCD9BD92
3DA7AF5C
3D24F0CE
3CB2116B
3D9306A3
3D5C35B2
BCAD510D
3D21254B
3D5D4DC0
BCDB5B59
BBAF3245
3D3038E2
BD20F9D5
BD91BBD7
3D3771BD
BD2DA369
3CB0B00F
3D6ADB03
BB83130D
3C70462F
3CA3F9B9
BD341F8D
3D4B5613
BCAB43E6
3CA806AE
BD2052AB
BD5AA29F
3DA0E0AF
BD1866E8
BD7BF0DC
3CE5B887
3CCBCA88
BD35D18A
3D2BB1E1
3C66A869
B6789880
3DC0EEF7
3D9A0FED
3ADCB1FD
3DF2E58A
3DD83B8E
BD86E8C8
BD47440E
BBA887D8
BDD5BBFA
3D181A51
3D9095A4
BCAE68FA
3DD59229
3D9E8C2B
3D938BC0
BBB661C4
3D9071F7
3DB873D0
3DAB00F7
3DFDC742
3E1060F4
3E08D4F2
3D31DDE6
3DC3D3E2
3DAC1844
BB7FF05B
3C6B38A7
BDA375D6
3BFFBE32
3DD6AFA6
BD2A23E3
BC19E72E
3D57CCED
BD258E3E
BCDD3EED
3D12DA7A
3BA2BC17
3DBB8CD0
BBD2DCDB
BD8E142F
BD349322
3D6AEA14
3CDA8DF9
3C7F229C
3C8AD354
BD331CD3
BCBFDD3F
3DAAB6C7
BC7EC6F3
3DC93264
3DC55E43
3D5E7A85
3CA83F87
3CED769D
3D2C857A
3D9B8954
BCDA49F9
3CF9132C
3DBFEC6C
3D6E5949
3A30CFFF
3DC9E9D3
3D833360
3D94EE39
3B403B38
BBA211FA
BD6514C9
3DC0A1CB
BC8D1C2F
3D432106
3CC0D47E
BDBB8CEC
3DD195E5
3DB94ECF
3C7B6752
BCDAB583
3DD5BA2F
3D618174
3D56DD9A
3DC24D29
3D6C2572
BC27441F
3CC95CB8
3E1265D2
BD833561
BAFC8802
BB623B33
BD239CE5
BD7EE3F7
BC74A9D6
BDADB4BA
3C2445A3
3D153557
3C9BBA27
BD48B77F
3DB47299
3D83E206
3DC56D54
3D91F265
3D193404
3D2DD943
3E02D930
3DCC6F35
3E074087
3D82FFC5
3D110168
3D9FB969
3D373697
3C37A070
3D9E068E
3DCB9439
3CACD947
3DC694E9
3DA3212B
3E2B991A
3E0C59FE
3CC84FFA
3DF3FC97
3D9BA9D0
3DE1F9ED
3CF25352
3D9CD5A3
BD2E60F3
3DDD2D93
3D1D0B95
3D50EABA
3D1BF3DA
3D912AA4
BD7F3BFB
BB2DD8A7
BD01EE6B
3DA8D9BF
3D8FC75A
3D9E4DA0
3D991B30
3DB0BD8F
3DA0CD3D
3DAF1863
3D51CDB9
3E0B83E7
3D85DB61
3DFAA6D0
3E1E696C
3DB9DF2E
3BEBF99C
3C96DDE9
3E17CD56
3D3A6AAA
3D0FB67A
3E04D155
3CE83E0A
3DB2A4BE
3D87C1A1
BCB47677
BBFC558E
3D62AA3F
3DB264C8
3CF4E38B
3D47ADD9
3DC9138E
3DBDC37F
3E25289C
3DD88F90
3DD3050C
3DB771A7
3D9D309A
3DF9A269
3DB7739C
3DE13DFE
3D1EBE31
3D895210
3DE149AB
BB4D489B
3CCF5EB1
3D6B14C6
3E205DA4
3DEA7D38
3D86128A
3E027554
3E033DD0
3E15B77F
3DC6CE0D
BC80232D
3D636F06
3DFF4AB8
3DA6E175
BD931E4C
BD802F64
B903AF38
3D31F461
3DD16CB8
BC1DF160
3DB23DB6
3DF26935
3D5E1AC1
BCF2527F
3DE12FA1
3DBCF5AC
3D0EABB2
BCEB2D42
3D0275AB
3C88FC5B
BBC3C828
3D660560
3DEFCEFA
BD0255AA
3DBFE053
3DD89423
3DAA1F9D
3E598712
3E020C35
3E7960AC
3E5DD941
3E117B0A
3E1A6263
3DF81A7D
3DBE421B
3E3BA371
3DB0F1C6
3C0DEF64
3E00B52F
3DB7E15D
3CDBC1A1
3DCCF21B
3DC7B489
3E240129
3DAAFB24
3E11C6D1
3DD1D39A
3B46AB6B
3D8977DA
3DB3DAC6
3D38086E
3D73AC43
3D8B8D7D
3C9E1DCF
BCB7B0F8
3E3E2467
3C8BCED8
3C88C760
3DBC79B9
3DDAAD5F
BCDCEA8D
3E1C94F4
3DC6C0FE
3B5F4BBF
BD5314FA
3D2C6A16
BD9F6351
BC961A4B
3D2D1D7A
3D7F0EE2
3CB85A40
3CE6B8C4
3D8C3752
3DEE86DE
3A0965A0
3CE990D9
3D551A61
3DAC36B1
BD8C4C38
3D4FBCCA
3A1A2914
3D541DFE
3E20BCAA
3DBFB0A9
3E133158
3E3B06A6
3D869933
3D9AF881
3CF70553
3D9EC6B9
38F9A70A
3E361679
3BF481AF
3E02A1A3
3CF8A6B6
BC0D859D
3DFF4824
3C1BF3D1
3C8C4A5F
3DB10CD8
3E0C8ECF
3E01C961
3DA9F03E
3DADFC34
3CF29505
3BC1C759
3DFE662F
3D81CA88
3D7100AF
3E0BC6EC
39CA3B53
BC806EB0
3E1CDF86
3D85566D
3D665D62
3E3008DB
3DA18314
3C88F660
3DA2E8B1
3C901792
BD15B093
3DF0D1E8
3DAE1D9D
BD10110D
BD44E21E
BC9973C1
BDD23FCE
BDC3BDDC
3C46A061
BDC2B9AB
3DAB550A
3C4917F7
3B341031
3CC163E2
BD8F3CD6
3C1B8358
3E04F493
3D2CDB69
BD34CD80
3E1C0946
3D513E06
3DB3FD55
3DEBCA47
BD37CD3F
3DDA0A26
3E0F4173
3DDBF6E4
3E0747C5
3E533CFE
3E317C91
3E23C05D
3E29C273
BC24AD38
3D9C9F0C
3C3622C0
BC8F69CB
3D23A5A1
3D6CA451
BCAF034C
3C499336
3D89D484
BDA59464
BD3BAD61
3E0E172B
BC5E9225
3DB337A3
B952982E
BD380FAD
3D1C952A
BC59ED5C
BCEFE126
3B404857
3DE3B96B
BC9D9D71
BD47DB4F
3D158996
3DB7054C
BD3C65A9
3E24D8BA
3C7F84C9
BB77F0D5
3D3E1E24
3D1F28D4
3D92F829
BD95E1B6
BE210B3C
BE0E45BA
BBC5F229
BD308871
BD9DF34D
BD7E3C56
BCB1A7AD
BC81D0B8
3E0CB8AE
3DED4D3F
BCFD0E50
3D8BCE55
3DC37D3D
3D1ADBEF
3DFDC732
3D2D888B
3E00B918
BAA21550
3D14DAEB
3D8EDF2A
3DBF58B0
3C851D10
3E1B174D
3E0AF339
3DEC1EAB
3DACE8D7
3E2DBC3C
3B986203
3DC5D4C4
BB6C1362
BDA146B4
3C92E3F3
BCA5C5E1
BC270207
BD164C8C
3D8F38F8
3D25BB4E
BCBE4442
3DED8197
3CFEEA57
3C9D6FC2
3D51E94F
3D27D939
BCDA5AC4
3DDEF9A2
BD02DA5D
3C797362
3DC5F2D6
BC863C04
BD436551
3D96BD69
3D5325BB
BD45AC1C
BAAB5708
3C9959C0
3D33E14C
3E25DA52
3C368894
3BED84C3
BE2178B3
BDBB4766
BE202EEA
3C5C1C4F
BC4A0C2E
3BC63C16
3B9001CE
BD39D15A
BC00D1D0
3D82836C
BCA2BE16
3BF4B936
3D55D743
BDA22C5E
3D85958F
3D9E6C91
BD9D10CE
BB9F67D4
3D74F73F
BE072B8D
BD01F100
BCC47D39
BCAA0521
3E17DA90
3CAEDE90
BD052797
3D26C745
3C24363E
3DB28447
BB9D8452
3E134C9C
BC9CDDDE
3D1B73A8
3C8DA50F
3DA164CC
3D42EEB1
3CBAE6EB
BD441E5E
BB979049
3DD0422F
BC9C521A
BD36DF9F
3DBA2EBC
BD890F89
3D92D576
BB211F78
BC1FFD67
BCD96A74
3D5154A6
3CDFAB53
3D5A1CDD
BC97A3EA
BD998A13
3B867E20
3B9D44B3
3B702A7B
3D9CD1F3
3D8D3565
BBF64E0F
3D60D747
BD1BD547
BE551C03
BE24D302
BE1FC69D
BDA21558
BCCCF19D
BDABE40D
BD24B223
3D86F773
BD9713D2
BE0EBCB1
BDA65745
BB5CC2ED
BD9751E8
3BA15545
3C1BE5ED
BE2708F1
BB385873
BDBA4EFC
BE1A2E71
BDB25F9E
BDBCC58D
BE37C9F7
BD8BF661
3DAFCB6A
3C7F7A7A
3D93DBA5
3D725488
BB42232B
3D40A047
B8D86AAC
BDE469E0
3DB8CC04
BDCEB528
BE049A98
BC1CE2C0
BD7E4055
BDECCB31
3CE2A748
BD215A4D
3D110193
3D187CD1
3D885760
BDB0E08D
3D416E5C
3D9AFE84
BC0B6F51
BD6166F0
BD270CC7
BDE25ECF
BCD69070
3CCE9DAD
BDBB36C5
3D8A27CD
3DEF4837
3CB071D3
BDB79B9F
3E0963A5
BDDA7291
3D1D1EC0

