3D5CE75E
3DD171E0
3D8A7787
BC55564B
3C1F0DA7
BD809FEA
3E0BD2F7
3B457B80
3D753BAE
3DF89A47
3C52B943
3CD2A31B
38B188DC
BD5B7ADC
BDED05D3
BD97A79B
BD811023
BE233F0A
BD450C71
BB512A15
BDBC8B3F
3DAE84D9
3C518CC9
3D4FE749
BD0926A1
BCFAEBB0
3CF760C5
BB1C538A
3C4232AC
3D7E0B00
3D28047F
3D73209A
3D96677C
BD069FE1
3D8EE941
BD4756AF
3C4E7797
BDB4D5DC
BD467816
3D1374CE
3C0C41B0
3D4344E0
BD16E22B
3CB53AB0
3D77319B
3CA2643C
BCD13FFD
3DC2C5B0
3D9FFDF9
BB93D01A
3D25D2F7
3D8D3C4D
3D90CFC6
3D01C4F3
3D9EE96C
3D98E4C4
3C2CAB93
3DE827A2
3CF66D50
3C93811A
3DFC0C71
3D194DBB
3DA7146A
3DFBFF30
3DD7159C
3DD95B76
3DDEDA4B
BBA2582E
3D84C076
3E040749
3DC0A443
BCCA70FA
3C532699
3DA48382
3CB73F87
BDFD2E4A
BC954977
BC666479
BB537A3E
BCFA29E2
BD64B6D7
BD410ADA
BD08967A
3CEAEB4F
BD219207
BCFE2218
BDCE1FB1
BDC7C23E
BD8A37F3
3CAF38CC
BD43B7B9
BD97AE01
BBB5C854
3C804BB6
BC6BB00D
BD9F27E3
3C546C9E
3D5180F1
3D316A0F
BD88432B
BDD418DE
BBFFB71F
3C2B1A42
BDC0B4C3
3D125A4D
3D7E98D8
3D0DDEE1
3C699F62
3D4F5AD4
3D827183
BD64DCB1
3D7F4CFE
3DCB24B3
3D19B0D4
3BF105E0
3DF793D4
3DE6430E
3DEB03B5
BBC6BAB5
3D5A2A20
3E114880
3DDDC77C
3DF6717A
3DC9263E
3E083C59
BBBF7996
3E15F041
3D28881C
3D517132
3D9F12E7
3D3704FF
3DA92F21
3C72943A
BCE7B040
3B1B8D03
BD0F5C24
3CBA3301
BDA951BF
3D0B4C6C
3C9077A7
BCB58D31
BD76857E
BB416E2B
3CCA2C14
3D276CAB
3D0D3240
3D6254A8
3D07D8A2
3CF85D25
BD1F6937
BDC31881
3D3403AF
BD469D50
3CD2AD2F
BD82EF5C
BD94427F
BD9C3E89
BDD7C280
3CD6587D
3C740C25
BDB018AF
BD898040
3CE3E15D
3CDD33A2
3D50002F
3CBA4402
3D338054
3D5280AC
3C3A6FF4
3D913264
BD947CE8
BD03F26D
3D8DA316
3D076638
3B98A234
BCFE41AD
BBB157F5
3DBF6249
3D0501C4
3C2E30AC
3DECC377
3E18BC54
3DF02088
3CB75F3D
3D8BD16C
3DD27035
3B75650D
3DEAB01D
3C541BB5
3DFF9CD4
3D88A75D
3D8542ED
3D4DD372
3C846C8B
BC61C50A
3D241F31
3D3A45E9
BD2720D7
BCD9A0AD
BB0A0AC8
BCAD422E
3B8A99EA
BD98A8F5
BD128754
BCE7A8F7
3D8A6155
BDAA5B55
BCA78C13
BD342E11
BD01E286
BDC932A6
BDEC8EEC
BE0EEFAB
BDE0826E
BDAE402A
BD640E59
BD7DBB47
BC3AE56E
BD93D729
BE0EDC11
BD08223F
3C5612BE
3CB1A47C
3CCDBF0F
3D639183
BC3CCDE3
BD69B473
BD156266
3BF2A6C8
BD8EBC50
3C6FD2EE
BD865051
BC29975C
BD67CB39
3DB87DE7
BC424B98
3D9DFC2C
3D6267FE
3CC44A16
3DDACE7F
3DAEDA48
3E117B2C
3D8571D3
3CDA141E
3D8A5D55
3C7F11C9
3DB9D346
BC91986C
BC784E05
3DA8B037
BC4788EA
3AD6982E
3D9C3105
3D55F0E6
3CD85B22
BBE0E6BE
3D1015E6
BC2E3907
BD851EB0
3D387E95
BDB01795
BD95F9AE
BCC1812C
BD2CE732
3D5F212E
BCBE72CE
BCB669BA
BD8B5F38
BD81D3D9
BDF1F1B9
BE230C04
BD260040
BDB4ABC3
BD132244
3C0551F1
BCFC5B6E
BDF985CA
3CAC42A2
BDA9CD50
3D7E378B
3C508020
BB8CEB49
BD89C9E4
3D802338
BCA512DC
3A3153C4
3D359157
BD1891C8
BD05D6A6
BC9435D6
3C605209
3D332326
3C2BA2C8
3CCA51C5
BB68FB42
BCF33064
3D1DDE02
3E28520C
3DEE3A04
3E1B8185
3DC802BD
3D0BCDFC
3D8B5787
3D9AB78F
3D514FCA
BA087C30
3DEBB19D
3D4F1391
3CD5B9F8
3D485A20
3D6AD17D
BD892EF6
3D4FEB92
3DD96F64
BD0FF424
BCA8F44A
3DA6E3F6
BD65FF42
3A36D084
3D745B1E
3DD0B0F6
3DF80247
3DA9C0A1
3DF07B33
3E279A45
3D9FBEC1
3D437BCF
BD4C02E7
BB9C556A
3D1F598F
BDC8A4C1
BD2160C6
3D11C8BC
BDDA9E1A
3DCA6CF3
BCB2EDB3
BD895DC6
3D9F2A4B
BDC718EB
3D1BB3F2
BBB5C06E
3D603CB7
BD8958D0
BDF1F625
BD1B67E4
BD8529D8
BE001B62
BD6884ED
BD3DBFB0
BD2109EB
BD2352B4
3DBA7DDA
3D2CCF32
3C2394E6
BD07335C
BCC36B16
3D451DAA
3D74FA49
3DD9A69D
3DE69BE5
3D54C601
BCCB4231
3BCD8247
3D3EB2C4
BCF0B1AB
BD26B3E9
3D78A618
BC12BCCF
BD7F07C8
BD06AEBE
3A71DA21
BD5B56C5
3D618FA8
3DA8E516
3D92705E
BC02D12B
BCC46DCD
BCCA4A61
BDE570AE
3D8F8F5B
3C4445B9
BD402E1A
3DD25126
3DA5B69C
3CE2A184
3DE3EB1C
3E0DFA22
3CF9A205
3D0FFF21
3D1B8E34
BD887AD4
3D1467F9
BD275BB2
BD526716
3C4E3BED
3C271D91
BC2A0FF5
BD566E4D
BD59BCBA
BC860B22
BCFEE3CC
BCD79B64
BD80299B
BD8D1243
BD4B37DA
3D3C8AC6
BD8BA123
BD8EAFF4
BD04B4BD
BD56C2F6
BD869E0A
BD02E994
BD502175
BDA98E7A
BD228010
3CE3BC2F
BD41C5A8
3D8127C2
BD81583F
BC157B4A
3D93BB1D
3D83063F
BC51AB04
3D28DB5C
BD1657BA
BCF3DD75
BAD0A9A9
3D65A4D7
3D99F893
3DB31604
3E081E97
3AABEC99
BCBB3BD5
3DADD628
3DFD9869
BD493A68
BBB15050
3CCC864B
BDE3455A
3BD0BD5C
3D6D7022
BDA75966
3C8FD13A
3D49524C
BD2EE733
BBC855BB
3DA53DE2
3D8256DC
3D81E4A6
3D9A6751
3D07585E
3D6B4837
3B8D98F5
3CDA956B
3DA65145
BA396952
BD73E9A0
BD4F6495
BDBE40AA
BD39A31E
BC28DC09
BD8FFD01
3B1EFFB3
3C38C673
BD9496E6
BC914BBF
3CD6AEF0
BD14410C
BDB3EA4C
BD86DC34
BD3060D2
BDFD42D8
BDE2E489
BDDF1FB5
BE10D20E
BCA8215F
BE0B069F
3D3588A3
BD862C1D
3D20D62F
3D002D75
3D59487C
BD86D292
3CC681E4
3D130120
BD129D74
3D67EB98
BBCFC178
BCA0DA32
BC9DF650
3DB06F9A
3DCC154C
3DFB3578
3E04706B
3D70DC22
BDA78ACA
3DD78F18
BD875EE4
BE69A1F1
BD9436DE
BE705B4B
BDB806CF
3D5B49F7
BD969ABF
3CA0BC35
3D20C485
3DB1A868
BBE880A1
3CC3C518
3B4B9139
BE2EC986
3D08D4B5
BE133D1D
BDD4A20B
3CFBCA98
3C92A977
BCC4898D
BC2822A0
BE021E37
BCD149A7
BD1DED22
BD64058D
3D4653D0
BCE356B1
3D50EDB9
BC2F6D35
BD178872
BD99D750
38D0CBBC
BD98ECFC
BD6B8229
3D0FDE1B
3CE74C07
3C556474
BD4C1930
BD3462EB
BD2DDBE7
394D9154
BD6236AC
BCF515E5
BC978A88
3CE878FC
BCEB0DC7
3D9FCAE2
BD06D5A1
3C688F1C
3C5EC310
3D22C41E
3CCF29A9
BC888A57
3E247658
3DB3077F
BAA5E5B8
3DC9ED62
3DE4743C
3DC08006
3E0581E8
3D551C4D
BC5EEBCB
BD8897B1
3D170A11
BC336DBA
3E0001C0
3CE62CA8
3B9C122C
3DC0CEF6
3DE59FF0
BD8588C5
3D4CF665
3D9B3FC9
BE0B520A
BBBA2F96
3CBC5C26
BC25581C
3D69D4FB
3C8F92A1
BD37732C
3D25FBB8
BC104EAF
3D965893
3DC1D0E7
3DA9B636
3D91AEA5
BC128AD0
BCC714AF
BD6EC26E
BD3B928B
3C76AA9B
3D05D3AC
3DA90E22
3D0A5E18
3DDA77E9
3CD54F21
BD09FFD4
BDA1D5C0
BD873807
3D22D309
3BFE81DD
BB5E59D7
3C6FCFD8
3E13CAF2
BC20DFB3
BD87534F
3CCEE8AB
3DEF8C77
3DA626BD
3DEAFA26
3E086E5D
BCBE0C96
3DAB4F3C
3DAAC68B
BC842109
BCAFA7B9
3E196C0B
BC843F1C
3D40FA7F
3D567752
3C385228
BD73858C
BCAC335F
BD8EE71F
3CC20CAD
3DE4D21B
BD37180D
BD6813DB
3CC53228
BD662133
BDB75FBB
3DA261B3
BD8BF82B
BD2A26E5
3B88B8A1
3C8C427F
BD69F8E2
BCC42689
BC9956B9
3DA896D6
3DCCF8C2
BC46725C
BDB815E0
3C81B910
BDB278C5
3D665927
3DB4DE06
3DAB3E19
3DCA8094
BCD2DEA7
3D31B387
3C6E0F52
3C88ACEC
BD0AB130
3D870B56
3D0C1319
3D5BE8B5
BDD41E94
BDA0D131
BDB4C6AE
BDC80ABD
BCFDEDF7
BDD00B07
3E4FEB1A
3E1FD10F
3E0268BD
3E0EEC61
3E1B9035
3D18AF0A
3E0C4A98
3E1D0BA0
3DCFE42A
3CBADF78
3D3D6110
3DEC3EDD
3D311D08
3E1D0AF6
3C027EDB
BD362027
3D84FDEC
3D59D318
BD9C5157
BC0C1344
3D164034
BC870D35
3D1CBAAA
3C30586F
3C6E967D
3DB4FE47
3D94894B
3C422B8E
3E340DFA
3E0B7CE8
3D7605E0
BC8DFD9B
3C249148
3C8EA2D0
3B4C7BA2
BD5CC5E1
BE0A34B4
BE0FD378
3C7825A3
BC14C7DC
BC1F3B35
BD8C8026
BD760AFD
BD9866C9
3D26F8BB
BD2688B7
BD0E4E7C
3CD23F57
3D97AF19
BD152411
3D5EB34C
BCC83410
3C8EB355
BA2BC635
BD7CA3F5
3D31D80C
BD0E6EFE
BD1440BA
BDE31942
3D1A146B
3E1FC1DF
BA883045
3C647FF0
3E176C67
3E1940F7
3DC91199
3E17484F
3DA3CE76
3BCA473E
BD43B1C2
3D969D6B
BD04B5BE
BBC56984
3DDA5663
3BCE099A
BD8A82B5
3DAE7386
3C596722
BD386656
3D9C1AA5
3DD04FCE
BD9A6BFF
3DBC2CF3
3D5D95B3
BD79B665
3D731657
3D0FA160
BD01F076
3DD388D9
3D182E21
BDD7C4B0
BC3D37FE
3D9C8F40
BD589BF6
3CD13311
3DA3C5E7
BDB4A94E
BD86C42F
BD5CB477
BD8D1B53
BB1271D4
BD70D811
BD8EE92C
3CA7D04F
3C3B42BD
BDC4DFB6
3CA2DAD0
3CF3E789
3D7785BB
BD562257
BB7FF862
BD976FA3
BD6B9D0F
3D0F9296
BD0924B9
BD80E40A
BC169153
BD907966
B94964E0
BDAE28CD
3CEEB508
BCFBCA55
BDB88694
3D72A4C7
3D7C12E7
3D29EAD4
3C11781F
3CA6D9A0
BCB1A5E2
3D3D2DB2
3DBB5DD5
BC0C554C
3D5F526B
BB1392A3
BDA70141
BCCC602B
3B416583
3C6FA1A9
BD9AD111
3D336ACE
3DA7D900
BD635F34
BC536C0F
3DCD92FA
BDB171DE
3CE12EF8
3B9DAD4B
3C62B512
BD0770A9
BD544073
BD5B5A66
3DAA74D6
3BD3FFAF
BC9104B8
BCD4BF8F
BC928C76
BD254AE7
BC09B570
BD835632
3C8BCABF
BD608405
3D397244
BB6E24A5
BD11F205
BD85C6F4
BC624B99
BE01CCB0
BB5F6E9E
BD60D297
BD828AFD
BCEC9FA1
BBE374C3
3C9714FD
BD869050
BC95D8CC
BD18B449
BCFA4B79
3DC7E26F
BD9ACBD2
3D99937C
3E53F691
3D51E174
3D3F67DF
3E1D0EC9
3DD95BEA
3DC276F2
3E139B94
3E387BBD
3E31A2A5
3DAB4A11
3DF0611D
3E0AC319
BBBB4C2D
BCD3AD01
3DCB55CA
BDADC2DF
3D595AE0
3CBBEEFA
3CCA2372
BC3069CF
3D87EFB6
BDC2B496
BC2BC02F
3C8BE27A
BDB11FB6
3D68F6A0
BDB00503
BD9775FB
BBFD02A0
BCF675D4
3C3DF45F
3D4B424C
BD308457
BD722BF8
BE0BE5C0
BDF5F9E3
BE014801
BD0E4D3B
BC9B52CF
BE14B230
BDFC4ECE
BDE1826C
BDDAC695
3CCCF013
BD62A319
3D0AB6E1
BD1C6759
3DB66C06
BE046186
BC6B3BC1
BD253FB7
3D53D400
3D0C0778
3CD57635
BCC6FF0B
BD87D515
3BE8B109
3D51128D
BCCEDA07
3C2B86B4

