BD421F30
3B95D0D0
BC975C5A
3D116030
BC279750
3CBD2B58
3D6904A0
3C3C3CB0
3DA0AE8C
BD7F1876
3D427860
3CBD1834
BD7CA7D4
BD3F5B11
BD56DAEC
3C275E80
3DA05098
BD780078
3D73100C
BCE10678
3C96EA0C
3C565B60
3D517A70
3D8D3692
BD43A867
BD5421A2
3D0943BA
BC8C99F0
3D51629C
BD92782C
BD4AE66E
3C8598A0
BCEA73D6
3D875668
BD89178C
BD3F0388
3D833A66
3CFACAD0
BD79CFDE
BD3FF8F9
3B79F680
3D0C846A
BB7BC320
BD7DF128
BB0FBB80
3D661B2C
BD18CB11
BD9FD279
3D62E310
3CB03BD0
3D3A6114
3D13B7D0
3CBE34D8
3D38A808
BD8EC430
3D3F8A98
3C96FC58
BD4E2EE0
3B1C0A80
BAAF6B80
3D5610FC
3D1F209C
3BE99420
3D80A940
BD179AD0
3C9231E8
BD668812
3B8ECC60
BD8A8BF4
BCB31384
3D5365F0
3C639F08
3D410CD8
3D667F4C
BD70832D
3D8BC29E
BD79E9D3
BD599D70
BD8BFFC9
BCFC1D70
BDA34F46
BC920982
3C7CA088
BD876506
3D4A66DC
3D493E30
BBE6FA80
3D23DEBC
3D549704
BD0B2548
3BFC5D70
3D868794
3B2164A0
3CB099B0
BD213CE6
BBAEE170
BD8B79A4
BCE13270
3CCDD9F8
BCB2F0B0
BD8B2AA1
3B87CD80
3AFB59C0
BD8B61F4
3D8AB406
3CE44C34
BD822F6A
BCE75AA0
BD93999F
BCA402B4
3D6814F0
3D99CCAA
3D5514E8
BC2A7058
3D314FA0
3D07BE6C
BD37C8DA
3D99E902
3D7FAA7C
3D5654A4
BD31B002
BD769484
3CBB43D4
BD34EE87
3D472BF0
3D82E8E6
3CCF281C
BD0DB306
BC5E4E88
BD83A879
3D5F8298
3D771A1C
3D353BD0
BD1F4B04
3D7C61B8
3D832334
BD3FDCB0
3CDC420C
BCFD3EC6
3D5A37E8
BCC5AFA0
3D7BF8D0
BD5CABAC
3C9F5A7C
BD6E2E7C
39429C00
BD847BFC
BD6BF3A5
BD1388AC
BC851078
3C8CD764
BD670134
BD4336E9
BC9414AE
BC73D6D0
BCF87E66
BC44D040
3C069400
3C291EB8
3AFEB4C0
BCCE1D16
BD212905
3D67E8D0
BCB412AA
3D01D3C6
3DA03EF6
3C399918
3D8FBBF6
3D8C6020
3D9DEDD0
3C9A34E4
BBF6FFB0
BD6A758B
3D08E77A
3D932456
3C612110
BD87B4B0
BC876730
3D322224
BCC0D27E
BD6B3260
BC0D7518
BC930F08
BAD21840
BD195042
3D9D107A
BD3BE89D
BBC7EF50
BDA0961B
3D5DB7F0
BD4CC21B
BD934BC3
3D099B2A
BD2036CF
BD473417
BD574DD1
BD3B4518
BA522C00
BC646890
3D889E4A
3CA8CFD4
3D47874C
BD24FF9B
BC0F68F8
3D91602C
BD4ABED5
BD33356F
3D52238C
BC8842AC
3CCDEB58
BD870AA8
BD1C52E7
3D25DEEC
BC642238
BC914D3C
3C6E5298
BD211063
3D96BF6E
BCC1C96A
BCA14686
BBE0C340
3D34006E
BD848649
BD450AF2
3D2F3846
3D95A1B6
BD9EA343
3D072A16
BD8EF636
BCD523EE
BC367B68
3CDB9318
3D904AD0
3C907308
BC9E3676
BD893FB2
BD617FBA
3D829864
3C282460
BD548BBE
BB0917C0
BD35AF5B
3CFAF88C
3D087126
BB1C15C0
3D0DE7B8
BC2444A8
BCCBEE7C
3D206C2A
3D875DB6
BD611F3E
BD29E48C
3A263E80
BD184C37
3D68B704
3D44DC50
3D8737C4
3C0987A8
3D48A6D8
3D2A1784
BD2047FF
3C99FAEC
BD130904
3D82CD12
BD76C360
BD5F087E
BD78697F
3D195924
3D3DFC7C
3CC33084
3D6F14DC
BD841C9A
3D1A8B3A
BCAB9006
BD800D9A
3D95EE36
3CBDB9CC
BC1F39A8
BD1FE9EC
BD312D34
BCF88AEA
3D330D42
3D5F15C4
BC2A1F50
3D4F75A0
BD9F54CB
3D03711C
BD1B0CED
BD8487A3
3D90D620
BC26E010
3D607700
BD99B743
3D61280C
3C3BF708
BDA40C1C
BD199869
BD9AB8E1
BD95A346
3C463050
BC81173C
BC602B28
3C85D1AC
BCD6D8F0
BD847949
3CF7DD5C
BC905A5C
BD3DB13C
BD95C314
BBFD73C0
BC772F80
BC6C2850
BBB296D0
3D3497A8
3D544360
3D341CEA
3D841C64
BA0DE980
BBEB5F10
BC24AFB0
3D6AE52C
BCEF257C
BB6F0980
BD9CF9C3
BCC5C688
3DA2F142
BD90C5C4
3CE17B2C
3D282DCC
3D9F8F26
3D32C57C
3B6F7660
BCB9466A
3BE407A0
BA945E40
BD80599D
3D857C3C
BD2679E0
BC96FE28
BD37A6E0
BD721DD2
3D82A68E
BD96AAC2
BD33205F
3CC00588
BD24A9A2
3D10E0D0
BCE97E8E
3C1E2540
3D0D50FE
BC63EB18
BC746B00
BC0E3010
3D9D423A
BCC1C994
BD2EC670
3D8EB01E
3B74FA20
3D50BD44
BD795A8B
3BC48160
3D0743C4
BB290A60
3C02EAA0
BC254FD8
BAE88E40
3CC7638C
3D13D8CE
BC93794E
3DA13FD8
BD925331
3CC479EC
3B9616D0
BD8BC3AE
3D97392E
3C4E7168
BD890A2B
BD8AD526
BC163F50
BC965A6E
3D37647C
BD7A01B2
3DA1E16C
BC724AD8
3DA0797A
BCBDD1EA
BD87AA51
BD2E388A
BD12EB59
3C3CBFF0
BC8330A8
BCB7D738
BC20E190
3D8E1C36
3D4DA29C
BC860FF0
3D5DB0F0
3BBED240
3C82FCE0
3CF0F5DC
BD366D64
3D07E19C
BD992BA1
3C86F440
BD85A7FC
BC011E88
3D83C200
3BFCCBE0
BD4BFBAA
3D11FB68
3DA198E8
3B6203A0
BC9F96BC
BC0910D8
3D7CCF24
3DA2F730
3D303882
BC3148B0
BC909434
3D061F30
BD051F65
BCFC25FC
BCB0C46A
3D7739DC
BCD61892
3C85057C
BC6B7160
3C903FC4
3CFD1640
3D9242AC
3D01DBAE
3D3CACAC
3D1C6382
3BB81E00
3CEC7650
3D3BEAB8
3D112C5C
BD7DB2F4
BA43E000
BD31130C
BD18EDDE
3C161810
BD76211A
BCC26A54
3D5AA868
BCDDE326
3BD603D0
BC844E60
BD8D85DF
BCDBB6AC
3D24CE94
3D8FC104
3DA3F998
3D3784A8
BD948BF1
3D6F6F30
3D51BC08
BCD15F04
BC74C770
3CD9B33C
BC0DB200
BD836C9B
BC1124B0
3D1080D6
BD078C19
BD60272C
BC2792D0
BB219C60
BD151C42
3D1B122E
BD970803
3D49E95C
3D618ADC
BD3678ED
BD8C5992
3AF82E80
BD7330F8
3D892AF2
BD04EE73
3D31FFC4
BD82E0CC
3D2A1462
BC428288
3D8EB9C2
BB4EC800
BD9095A7
BD18B3CC
3C9260D8
BB33E840
3D9FC0B4
3BDCB580
BD922905
3D987B62
3C9C6A08
3D2264D8
BCD43612
3CF10A78
3CFDFD40
38BAF400
BD0912A0
BD9B21FA
3D857E8E
BD655F8F
BCA98692
BD3D325D
BD8872A0
3A823B80
3D884DE2
BD9FC965
3D8BB394
3D63DFC4
BC242E30
3C84C008
BC124588
3BEBEB50
3C9457D8
3D22D2B0
BD4B424C
BCE4DAB6
3D89127A
BCB1E530
BD4ABB67
BD8E9288
3A32B200
BD5BF95E
BD2D9DC4
3C044D68
BCBD9B78
3CDFDFF8
3D8D9D1A
3C2E7690
BB26D800
3C7EACE0
BD2EE44E
BD2BA792
3CD7BBB8
3D18AD9A
3B10A320
BC9B7D6A
BD95A507
BA9CC880
BD9E0DD0
3D30E982
BD796CE0
BD285253
BD51D07D
3D541F78
3CA5A638
3D798224
BCE86354
3B1A6C20
3D7F4DC8
BD069656
3C804F38
BD81F380
BD087FE5
3D7FFF60
BC1688A8
BC4AE768
3D5DE86C
BDA00FD0
3C2F31E8
BD3B4C3C
BD297E82
BD886978
3CC17FAC
BD811792
BD6F3B50
3A2AEC00
BD400BBA
B9E0B100
3D5C8714
BD367532
BD2C846B
3C6814D8
BD97E4E4
BD3DF935
3DA30DD0
3D08B7CC
BD4B66C4
BD76CA94
3D902C8C
3D242B14
3D49F350
BC812AF0
BD80FF50
BD1BD7B3
3BC5B890
BD8D5547
BD414DC6
BD33E9E7
BD89E391
3D800912
3D11410E
BD8CE530
3D3AEF94
BD078413
BBBCF670
3D7BCC28
BD37E278
3C17CF08
BD5058A5
3D511CDC
BCF29180
3D4FBFC0
BD688D07
BB2395A0
3A8E6A80
3CB2BA4C
BD27B1F9
BD18B7BB
BD9DB394
3D0D6134
BD437253
BD548A61
BD27D388
BD98621E
3C999BF4
BCCFF06C
BCB31FD4
BD47277E
3CD558B0
3D55CEE8
BD159F1F
BCF69E26
3BC5A1F0
3D757FEC
BD421FB5
BC544E60
BBD02390
BD6579C1
3C8BD0C8
3D31570C
3D08B344
3D47A630
3D377180
3D8D4890
3D261040
3D025BE0
BC661050
BC938288
BDA3F855
3C8DC504
3D85B730
3D8926A0
3D6E8F98
3D6C91F4
3D109E62
3B1834C0
3D168102
3D79D2C0
BCAAD4C0
BD436809
3D068BDE
BD38F0CD
BCD1829A
BD3FD9B3
BC12D9A0
3B337280
BD75F362
3D960DD8
3AA40A00
3D4F87AC
3CCC5FFC
3CB978EC
3D983F42
3D0E5988
BCC4F130
3CF21240
3D261DC4
BCCC101A
3DA17D0E
BD940A40
3B1A7000
3D91CC06
3D45718C
3D213F72
BD8028BE
3D9DF646
BC378320
BD37BC13
3CC8FAB4
BD438154
BD4D9156
BD19EEAA
BC75E9F8
BC64DC70
3D1CD496
3CD6735C
3D265F48
BD0715B0
3D46730C
3D09FD88
BCA26BB4
393FCE00
BD2A8F11
BCFB5CCC
3CAA45D0
BD71DC64
3D02F79C
3D9AA03C
BD4CCA88
BCB280C2
BCE91718
BB671660
3C0F8750
BD5364C7
BD4E7F5A
BC89F75C
BD096003
BD9E5D70
3C81C18C
3C438560
3CB75C80
3D188126
B9CAD100
3B98AB20
3D94FF92
3D1E8226
BD5B91BA
BC74C558
3D81E0BC
BC864824
3CA5C530
3DA0A40E
BD4FF326
3D4612F4
3D773838
3D93D88E
BD4B6063
3C1ACCD0
BD9B415E
BD1EC03F
3BF4E450
3D414DE0
BCAF0FD0
BD5EDBAE
3D1AA2C0
BD9C5777
3C849054
3D895586
3D2FB3F0
3CA38290
3D7AA014
BD483A3D
3D82BDB6
BD01F479
3C8A76BC
BCB6FD18
BD618AE0
BCF24C6C
3D99C412
3D598A84
3CA64B04
BD154B18
BD5C43D4
BC1D4888
BD5A85F0
BD803A1C
3CBB5C94
3D9CF2AC
3CC38BD0
BD5E3750
BD1E30F2
BAE11180
BD17799E
BCA00C5C
3DA30182
BC8E11A4
BCC74336
3D87623E
3DA2AEBA
BD3C9ECF
BB922C30
3B4C41A0
3D4BDBCC
3D8EEB0C
3B9709C0
3C2F9EF8
3D85AB20
BDA1A7B6
BCD68C26
BD8EED3C
3D81968C
BD582BCF
BD838F47
3CB9EFB8
BD95D608
BD5C5F4A
3D301E06
3CE539E8
3D6B443C
BB0783A0
BD609177
3CBE18A4
BD7779F4
BD989D12
BD254D8E
BD2E811D
3D8399FE
3D872922
BD669276
3CB9BD70
3D577A98
3DA30F30
BD2CC2D8
3D73C274
3CE72B74
3D27AA08
3D6C5C8C
3D0340D4
3D04F6FA
BD484747
BD29B5EE
BDA1AC3F
BBBB6870
BD976225
BD41640A
BCB9B5C8
3CF34A28
BD3EC9D7
3CF51E4C
BCE0BDA8
3D0F4E5A
BC0C3D28
3CB59328
3D50AD64
BC71EAD0
3D6FC810
3CF12CE4
3C55B3E8
3C83C504
3C79EE88
BD8A2F29
BC3AF9E8
BD40A9CF
BD367441
3CE27FA8
3B858C70
BDA08D36
3D56D280
BCB3D9A8
BD3FB8E7
BBB29FA0
BDA0538B
BCE17378
BD9A433B
3AAAC580
3C487980
3D7A91A8
3C3AAB80
BD916002
3D121CC4
3D811B04
3D9DDDCA
BD39BFCA
BCBA0BFE
BC82B898
BC0A5EF0
BBD0AC50
BDA3C4DC
BD995644
BD92DDCA
3D5431B4
3D6AFB98
BABF0580
3CF401D4
3C9CF180
3D426A74
BBF34BF0
3CDF7844
BCC82E44
BCE0D246
3D8C568C
BD24D9E0
3D3B2074
BD808BDD
BD2470D3
3B93FBF0
BBD71DC0
3CE72D0C
3D49E7E0
3D26FAE6
3D426200
3C83A5B8
3D1FDED0
3D6F5D18
BB81D080
BC309F00
BBF60250
BD83C273
BD2EB083
3D95DED2
3D322DD6
BD68660E
BD9B6D94
BDA1A890
BCC88802
3C8CAF48
3D86DBAE

