BD9DFA95
3D4AE5DA
BD54A48C
BDA13339
3D07AE0B
3C3EAC72
3D817BD0
3CBB383A
BBF1B184
BD12F795
3D290700
BD1FFF81
3D9669C9
BD467F56
3CBA88A0
3B6365B0
BD3644BB
3CCDC325
3D26C847
3C9BEC7D
BC027CA3
3CBEE34A
BD1C2A45
BD715457
BD125B36
3C792263
BCEC178D
3CD8A458
3D92F775
BD5C3661
BD9873A7
3D35B345
BDA0DC60
BCDE88CC
BD1A2B53
BD6F6980
BC558B56
3D7C7C90
BC6B49F2
BCBCA9CB
3D55FF06
BD4C5B2B
3C0F69FF
3D650F62
3D8E8388
BCAAD323
BD450892
BA010182
BD5E0718
BD19D47F
3B0B78B2
3D1F8AC3
3C3ED804
BD0D2B14
3C949D87
BABABB2C
3D5C8758
3D76B253
BD605373
3CB4F8BF
BCC07F53
BD601379
BD8CF832
BBF568A4
3D80AD2D
BC72AEDC
3C9E2962
BD14D82E
BCD89C05
BD0F4E58
3D979703
BC4619B5
3A7AC193
3D85DF61
3D086D94
BB8A6490
BCD1932C
3D0131AB
BCD22F4A
BCF820C7
3CF793BD
BD55790E
3D915977
BD53ECF1
BB912A49
3D0467F9
3C359053
3D02A123
BCEFA975
3CEA6492
BDA50FB3
BC09A2D2
BD1778D8
3D941A13
3CE9C823
BD4ADEC3
3D58F205
3D762669
BD4AB1A8
3D91EF6C
BD66820E
3D46DA37
BC60E8F3
3D01A244
3BB6138F
BD3DB2BE
BD7B9713
3C1B05FC
3D8CB891
BC9D323C
3CA5FDCC
3D44A27B
BC79459D
3CC98C5D
BD3BADA2
BD602CF0
BCC0AD8B
BC0D2486
BD84F77A
BD2E484D
BD834CA5
BD6B83D0
3CF2C958
BD8F41AA
3C913FEE
BC07AF05
3ABD84A6
BD65A944
BCFE37CA
BC915864
BCEC0F5A
BBC2D053
BD83AF5B
BC2548F3
BD0323E5
3D37C484
3D6C8235
3D84A1D7
3D121159
B9090F96
BB55C37F
BDA9ECC3
BCF0FA74
BD58E56B
3C0E0894
BDA88E6B
3D3B6340
3CA62BDC
BC820E89
3D48B4AB
3D707671
3D5CD37B
BD97EE87
3C366A65
3D4919C9
3D519F8B
BDAAB1FD
BD825FCF
BDA69E70
3D0DDA57
3D5D3B2B
BD127F98
3C1957BC
BCB900B6
3D6BB1C5
3C6CD2F9
3D61DE78
BD1062E4
3D6AE958
BC9E909D
3D8A0427
3D8E33D8
BBE1D99F
3D33C2C2
BC8D1675
3D5E8488
BCBD6768
3D8700B3
BD128E83
BD2EB120
BBC407A0
3C67914D
3B086A0B
BC9E1766
BD0B811A
BD9CDB33
3D8B243C
3D90BA53
BC51DB09
3CAB9898
BD70543F
BD95E18A
BC53F6EC
BCDA0386
3D5ABFAF
BD9A1BD6
3C1BC74C
3D6CC973
BC123280
BD8DF680
BC0433FA
BCE23E64
3C88CE22
3D336F7E
BD237496
3C568A8D
3D85A0C5
3D316FB4
3CC3C01E
3D375B20
3D916E4A
3D375413
BD7EBB1A
BD4109C1
BD56886B
BD492E08
3D07A96E
3B6A1538
3B95854A
3D32F6CF
3D84C485
BDACF114
BCACE3BC
3D112DD4
3CE7868E
3D736BF9
BCE1646F
BB4EF96D
BD2305D2
BD187CFC
3D3264AF
BD9C9C67
BC70AA70
BCCB8A73
3C7388D5
BB98D32D
BD39A268
3C049DC0
BB5617CD
BD85E68A
BD849E0D
BDA543BD
BCD65C11
BC6A94A7
BCF2AA6B
3CFB1D1B
BD99CCE7
BC77747E
3D80EA5D
3A032643
BD79AE66
BD7DEAF6
3C80B425
3D803A8B
BD9C7779
3D103554
BAD7E327
BD3435BC
BC896BCF
BC4C9AB3
BD34EA14
3D60DA3C
3C44037F
BCB12257
BCFFDE5C
3CD064AB
BD8059F5
39952551
3D88BD91
BD50E8CD
BD28450D
BD97A011
3CDA695B
BBB36396
3D85425F
BC86A774
3CD500AD
3D3C723E
BD877494
3D655221
BC9724C3
3D717D58
BD161369
BD4BF7D2
3C48A13C
BDAFEA01
BD4EC8DD
BCA566FF
3D8AA318
3D2CA48C
3D905B9A
3D064C0C
3C1C58EA
3D724B31
3D51266F
BCCC081D
3D18C850
3D322B97
BD5714FD
3D02927E
BC87376B
BD722D5D
BCFF310F
BD63EECA
3D8BDEA1
BD626DF3
BD582D22
BDA6B678
3BCBC6C8
BC6EDBED
3D0F8844
BD84E7E5
BC289063
BD522060
BDA35513
BD712E88
BC37D4DA
BD7D20C1
3D5DCA13
BBFEC170
BD2D583E
3BC62C27
BC2DB13C
BD9F4F60
3D1F7583
BD652F23
BD95D099
BD917A52
BCECB362
3CC4CB0C
3CD52BB7
3D876408
3CB8B0BC
BD141728
BDAA8F78
3D64C6A6
3D5AC82A
3D82A519
BD967CE4
3D7D2927
BDA112F5
BCF09D2E
3D053212
3CE8C2EE
3D784812
3C8BCFE3
BD959F2E
3D1FD2E9
3D3C477B
BD2EA151
BD42ED7E
BDA3FDC9
BD686302
BD8A50CE
3D8CDE0A
BD3BBB29
3C8E2BB0
BD919979
3B4DD594
3BA974C8
BCD853C6
3D0AA4CA
3D66D46C
3C96933A
BD23A022
BD04A223
BD2D727C
BD731DAD
BC3375ED
3C678317
3C22D0C5
BDA358DE
BD34A8FF
3D8FD50B
BD51D458
3D4EB00F
BCFC26C3
BCA63CA1
BD48B21D
BDA26463
3D808904
BDA30F93
BD0DD576
3CFE55DF
3D6D38A8
BC1C1030
BCA82580
BD847AE8
BD78B6D3
BD1CCBD1
3C9D5D19
3CA8D96B
3B5BD129
3D0388B8
3CF4A00C
BC76934B
3B0FF6C9
BB831FCA
3D4955D3
BDA83AD1
3D114C35
BDAD7E5B
3D34A1B7
3CE3B549
3976378C
BD184DCF
3C09B6B4
BD954613
BD9DB8DE
BDAE930B
BD6189A6
BD6D5E34
3C8FF97B
BD921929
BC456403
3D94B48C
3D7A199E
3D60080D
BD24B9F8
BD7A4D89
BD4DEB87
BCD42D71
3D9296B5
3D19E869
3CB3B294
BD8272F9
BDAB59DB
3D18CD88
BDAC035C
BD46C651
3D6B1275
BCFB9FAB
BDB01CF2
BB53E4E3
BC29EAAF
3D87C70F
3D8F7A8A
3D2A9B19
BD1C0B52
3D5DA1ED
BD875891
BC2719CF
3D5097A7
3D25A5AB
3C7B7EB3
BD077111
3D610DB5
BCE81C7D
BD856A42
3D33DA46
3CF20982
BD04F19B
3C14DC6A
BD4E6954
3D2CB9D5
BD244084
3D0E7FBC
BC5B97FC
BCC4F4E1
3C5D136C
BD869F60
3CFE98B5
3CE0B90B
BCBE2F60
3D126614
3CA53752
3C457A57
BBA4EEF6
3D72F10B
3D7D47C6
3D6CC274
BD95A5E4
BD8FB71A
3D23EDFB
BCF27821
3D886AD7
3D57ED5A
BD54534B
BC6DF47B
3BAB855B
BB7D3970
3CBAE0F1
BD4F16B0
BCBA8068
BCBDA117
BDADE28E
BCF81A5E
BDA1955A
BD8285D5
3C3055D4
BD4CCA82
3BA99F5A
BD2C37FB
3D306E51
3D1AE81C
BD024DB0
BD5F2020
BCBE7334
3D8A14F4
BD8DD96E
39913051
BD6FC50D
3BD1F667
3D834264
3D6C6183
BCA36F51
3D71C765
3D918A9D
3CE7E8A3
BD87FF33
BD7D74B4
3D8D5237
3C90C2DB
3B23FF0D
BD076CEB
BD1770AF
3CCFCC63
3D1C0FA0
BCCB9C90
BD0AEE31
BD99D654
3CEA68BC
3CAEA879
3C8713E4
BDA25757
BBA9DCFF
BD8E082C
3D3EBA2D
3D83F1A5
3CFA13D2
BCE8D780
BD80F54C
3D740A0D
BC71B9DA
3AF3798C
BCB62B10
BD2526C7
3CCFCEC1
BC34BB6D
3D7927A5
3D4F8B33
BCC14DAE
BCEEAB89
3CA0B651
3D84804F
BD9EA9FB
3D4BF048
BD0AF3AD
BD5C6512
3D905573
BD4535CD
3D1CB8A4
3D37848D
BD6062B3
BD936EE4
3D3C4847
3C6E8080
BDA8E53A
3D731BDD
BD48AB89
BD8F98A0
3C650A96
BC1F674B
BDAB89D0
3D27AA1A
BD7B1384
3D978258
BD550CE6
3C076F8C
BCEDFBFE
BD96D724
3D835316
BBD131AA
3D00618C
BDADB207
BD24907F
3CF73E18
BD851FA9
BD54129D
3D114765
3D046D96
BD89FC2A
3D747697
3C481623
3A030918
3CDBE2AF
BC2694A2
3B7423E3
3D89317B
3CBD6BDC
BD081C6E
3D8548AF
BD157C6E
3D16C272
3C584EFA
3D5DCE07
BCE1DCA2
BB8CE737
3C893241
3D8CECE2
BD909F85
BD9D480E
BCD9CFA0
BDA0FA5A
BCF993C5
BC84C9EF
BCFD6732
BD35405C
3D90CA9C
3D7E7038
3CA1A4B6
BD53C378
BD067A70
3D832AB1
BC22489D
BD9A203F
BD47DE88
BC7AC50A
BD188DD6
BD4B838E
BD619814
BD9BE888
BD23E380
BC8B7153
BD93F4D6
BD0990B3
3D66C31D
3D5BB6B3
BB3C9676
3BD894DA
BD48890D
BD8B85C1
BD25DD49
BD634770
3D3AB0F6
3BBB3045
BCC7DDFC
3D79990C
BDA58A5A
BC9792A0
BDAC0744
BD72B565
3D301ACD
BD74EA10
BCEA55E9
BCA8AA4B
BC4700D5
3D0C0343
BCD66177
3D5A47A1
BD94EB3D
BD9D38A1
3D75D7E0
3BDA2C7B
BDA0C851
BD046AED
3D874491
BD472BCF
3D69851E
BD80835F
BD65FF49
3D75BF31
3BB0C045
BD9469AF
3A9558E2
3D6A928F
BC90980C
BDA71048
BDA64BE5
3D70EC41
BC8E5B41
BC810365
BDAE968B
BD7CA238
3D4400A1
3D39B18D
3D89DFEC
BDAA6A6D
3D11F487
3D755996
BD50264B
BD8C251A
BDA81CF2
BD4FC122
BCA9730A
3D191DAA
3CA1FA37
BD8C32C4
BD2A2E11
BC7F7C0F
3C1AFF8A
3D6FFFC8
3C244611
BC2D4412
B8B8E344
3D85173E
BDAF38FF
BC832846
BCD60445
3C52AFA2
BCD4DE69
BD9DE71C
3D469EA0
3D275F82
BC7E32AF
3CD221B9
BDA7788D
BD92002B
3D8ECDDB
3D8446E5
BD96BA4A
BD1DB24F
BC5C1A85
BDA704FF
BD1AF7C4
3D0C61F5
BD9122FC
BC75C05D
3A20818F
3C479CEE
BD9E9706
3CC3C39C
BC08CB8C
3D4E6DDD
3C526FA2
3D2795EF
BCCB8477
3D831AB2
BD00ECAC
3A78987C
3D7FC91C
BD900A52
3C78C459
3D3DAB81
3CF0F85C
3D773B52
3BC7AA95
3D398E63
BDA91C41
BD87290B
3D4C3EAA
3D2F4C03
3D556B9C
BB62E678
3D6F2DEB
BD3EA732
3D916FDD
3D4900EA
BD0DF892
3D4031D2
BDA4D51D
BD8DA852
BD37EC7D
BDA248DD
BC19060B
BD6F686E
3D317A9D
3853BD87
3D778AAE
3D9691AE
BCB14EE1
3C2A8871
BC0C3302
3CDC9F66
BD365784
3C406577
3D839A7C
3D31AAF5
3C262B2D
BAAEC543
3AB32DEE
3C6B924A
BD9BDD78
BD21E1FA
BC0A9C3B
BD287E1C
3B9215CD
3D586D76
3D8D11A9
3D58997D
BC80DF54
BD4B4B7A
BCD43510
BD7341BD
3D0A874E
BD1FD1D0
3D2B64F2
BCC58DAC
BCDEDA6E
BC5FA37F
3D7632D3
BCCC444A
BD3E34CC
BD078BA6
BD93A369
BC4C1800
BD2C9059
3CBAB82F
BD314E7E
3D8C1ECD
BD63DCCA
3D361652
BC820326
BD9FB09F
BD7D9B57
3C540FE6
3BA25A1E
3D644B2E
BD9C6217
3D7A9991
3D727C05
BC0D2C62
BD9F7D63
3C614DBC
BCA05F06
BD5E3732
BCD9A1FF
3D263D38
3D52AEE0
BD1BB27B
BCFF9F6D
BB5BE7DD
B9405D1F
3D3B6C8D
BD8DC1A9
3BF8B101
3C88437E
3C60753D
3D948F59
3CADFF30
BD9CFEFD
BC062FFF
BCC85781
3C3930F8
3D7B9125
3C5C3E3B
BD17ACA3
3CCC064B
BD8A0E71
BCABA5C2
3C16EB2F
3D065AD7
BDAAAE56
3D4743FF
BD40C9C4
BD4E1D68
3CFDCC1D
BD499A17
3C313722
3D0EBFAF
3CF45DDB
BDA55AA6
BD3A166D
BC6C4562
3D444096
3D3E016C
3D6B0F84
3D3E40D7
BC2C1675
BB8AFF5C
BD133791
BD14AB74
BD47E043
BD89614F
BBEE2E95
BD0B030B
3D4AE1D2
3CBEA9C6
BB8556FF
BC1CD339
3D7C6F0A
3D13F5EB
BD7F46AA
BD16F782
3C51DD84
3D8B83BD
BD88A1F6
BDAB28EA
BD046BA4
3D27B6C2
3C99B8EA
BCA5A095
BBAC7B44
3D383B3E
3B9AA208
3B203922
BDA95D34
3D8CA4E3
BD6994AE
BD72BD2B
3C6C020A
BCCCA88D
BD293EB0
BD3DC610
BC64E7F8
BCD8199B
BDA38E63
BCFBAD9F
BD3FB631
BD17DC10

