BE67CE89
BD94C024
BD6FF570
3E13D956
3D80E72A
BE67BE06
BE2A3103
BDC9A0CA
BE10F419
3E3C8838
BE6CC57A
BEA40742
3E182879
3E8830DF
BE887762
3E8D67A0
BE367B69
3D39464E
BE477AF9
3D85EDBE
3AB39A00
BE87394C
BE950F91
BE5E51C8
3E8B7594
BE887EAD
3DFEFD70
BE305A93
BD85CFFC
BE2A7BC1
BE1780E7
3E21A14B

