3D83B478
3E80E5BC
BEA86739
BEA7893F
3E33D518
3E5727DC
BE134447
3D880DD4
3EA44BCB
BD1663B0
BE0D5BBE
3E13BBB0
BDB7279A
BE20DB78
3F27B178
BE9C9FE4
3E5357DC
3DF75471
3E881217
BF8FEFC0
3D003288
3E340EE8
BE1064F0
3C612CE0
3D46406B
BE357585
BE93CE3A
BE4A8BAB
BAB57400
BE4410A5
3DED02F8
BE26A8B2

