BCF43824
BCB2E148
BD8897B9
3CC6BE38
3C2F3A80
BD7602C5
3D9E85A6
3D461B6C
BD041F43
BC7F74D8
3D725FBC
BD536580
3D1C0CF4
BCBF4802
3D48E304
3D29A79C
BD2958A3
3D0B5F64
BCAEC024
BD2DCCDD
BD840A0F
BD8AF11C
3B92C5C0
3D511E34
BD40EB67
3CF5E7F8
BD29CF67
BD406C40
BBD30D70
BCD9DEA6
3D1B4440
BCA18406
BD0149A1
BC2B57C0
BD80E0C0
BC499C58
BD17F1CA
3C09BF80
3D98BE68
BD922866
BD10A5C3
3B382DC0
BB85A980
BC4BEA38
BD414602
BD37C5C4
3D01C28C
3D7DD4F4
3CF08B04
3D9B4A96
3D31C4B6
3D58A1F8
3CACE4D4
BD912907
3D20D2D8
3D742A80
BD648786
3DA32A9C
3D0F1946
3CF8548C
BD8533C1
3D35D644
3CB90F80
3D421598
BD5A3FFE
BCF7A2D6
3BD49670
3C7A6A00
BC724768
BC8FCA9C
BD8226BA
BD5E12DE
BD4543CA
3D4C5D08
3BE57580
BCE6CB20
3D5AFA94
3D188136
3D3492F6
BB1E53E0
3D773A9C
3AA51A40
3CAD33DC
BBFCE840
BCF16BF6
BC321BB8
BD35EF10
3DA09324
3D786188
BCCCE07A
BD226789
BD9E10A9
3D5BB8CC
3C036388
3D8B796E
3CB65AFC
BC9A5CCE
BD8CED8E
BD67150B
3D223EAC
3D6255AC
3CC7F220
BCA064BE
3D655718
BD74174E
3B9D8150
BCBBEE6A
3D471EE8
3D610FB8
BD73EBAE
3D56AE34
3D99EEA0
3D5BCFB0
BC2C2880
BCE492BC
BD86CC67
BD9C880C
BC3A18D8
BC9566B8
3C8E9558
BD9D1A02
BCB10956
3D390B38
BD924B35
BCA4ED6E
3CE19284
BDA3A688
BD902531
3D5E8EDC
3D07EDAE
3D38F55C
3BCB0710
BD1B0F3B
3B1AABA0
BCFC6190
BD8BBA9D
BD2C03B4
3D8C95DE
3D1A2682
BCB378E4
BA2B5900
3D5F51B4
BC3B89C0
3D22FED2
BD62C1BB
BBAB7A90
BD46CDA1
3CE3AA88
BAEE0AC0
BD4A3B16
BD24534D
BD9C330A
3BB37CC0
3D8AE9C4
3D221BEE
BD1332CD
3D5BF340
3B917090
BD15FD85
3D9C9520
BD7F6EE0
BD9CEE66
3D4EE42C
3D0CAD66
3BCF23F0
BD673600
BD038814
3D9BBA2A
3AB64B00
BCFC5CC0
3DA3F34C
3BB64490
3CBEBC7C
3D811BD4
BCA3E0D8
3C7ECC08
BBC09C10
BD61B438
BCCE470C
3D5751E0
BC774740
BD0F6F11
3D6A6FAC
3CFF3468
BBCE3340
3D3BC47C
BB1B89C0
BC0B7478
3CB5F08C
BD9D7323
BD25DF67
3D8ADC16
3CEFD070
BD5B35B2
BD355CAC
BC9D9FA8
3D660300
BD9D1131
BBC86020
39337200
BD5DBD5C
3C5337F8
BD3B64CF
3D608F5C
3CE95940
BB9EF900
3D5096A0
BD21DFAD
3C6E0940
BD905F58
3DA060FE
3CC58AEC
BC1D8F88
3D7143F0
BD9FC8B9
3CB66F28
3D7A46AC
BD992BC3
BCD40BDE
3D5CFF7C
3D2BC6D2
3C3443E0
3D965D90
BD43487B
3D63104C
3D86E404
BD710ECE
3A344B80
BD5AE03E
3B4BF4A0
BC400EC0
BD984E5C
3B10D3A0
3CFFA168
3CD1B304
3C6694F0
3D0F4976
3D1EEC5C
3B1191A0
3D72601C
BCE1481A
BD532FF1
BD51B32A
3D4DB6D0
3D400660
BCAEFBC2
BC043BD8
BD79A021
BD42E603
BD718906
3D9B725C
3D27429C
3C8333B4
3C38FFD8
3D9F7AE0
3C5FE5A8
3C0E4B40
BD3D591E
3C79A8B8
BD8575D9
BD84E22F
BC97EBE4
BD15478B
3D6EA16C
3B7C45C0
BD8CE3EA
3D1607B0
3D0C523A
BCC9C6D2
BD084DA5
3C355190
BD75C86B
BD824538
BD58D70E
3CBF5824
3C8C57F0
BC852234
BD14EDDC
BD880BD5
BCE30722
3C9A5280
BCF3230C
BD906107
BD95C6C2
3C8CF55C
3D4E6840
BD02823A
BD036BC6
BD1A4BF0
BCD70EB2
3D0F289E
3C2AC298
BD1CAE92
BD469577
BC9A728C
BD1DCA2F
BD119818
BCEC9E3A
3D963874
3D937A8C
3D0135FE
BD97D8AA
3D861292
BD4B92DB
BD6150FC
BD1CEE33
BB885690
BD314F49
3D48CF90
BCAE3F0A
BCDE47EC
BCD0B182
BCF5509C
3D82653E
BD50B8C4
3C8B519C
BD904B2D
BD2718F2
BD729843
BD1DF0E1
BC8096C0
3CB18A7C
3B945C60
3D0D6162
3C93D09C
3C470438
3D842234
BC552E78
3D4B8A20
3D8A421C
3D816060
BD812A75
3D285114
3D41D93C
3D1818E2
3D84C2AA
3D0563F0
3D1BAFA4
3BB4D120
BD54170A
3D9F7922
3AE67840
3AFC5740
3D61F27C
3D3EE90C
3D722D8C
BD4AAEAA
3D3DB688
BD208BF0
3BB9DC40
3B831980
3D1E3328
BCEF5338
BD9AFC04
3CC1B734
BB01CB80
3D9B4BAC
BD0C8240
BCC3AF48
BC75E138
BD8B0D4B
BD9B5BD1
3CA0FD44
3BEA6350
BCB69B40
BC2EB4E8
3CF98694
BD823440
BD2AE0FD
BCDC66AC
BC67AB18
BD67946B
BD95646B
BBF6AE50
3CCA1580
3D941184
3BEC9830
3D3B0D10
3CD11CF0
3CE66F58
3AF8D240
3D63455C
BD3E2600
BD7940EE
BB885EE0
3CC46DF8
BD7B3CC8
BD696846
BD5DB7E6
BCFDB77C
BBBA08E0
BCEF426A
BCC37D42
3D7E4694
BD154E91
BD94D552
3D7FE098
3BFD2DA0
BD939AD0
3D8DC9E4
BD408B3E
BD8F23B0
BC41E1F8
3D23C178
BD076B67
3D62C1C0
BBE24720
BCA0BB46
BD9E7ECE
BD00D33E
3D948B9A
3CE4AB40
3D84B5D8
BD0F025E
BD1C30E2
3D316C08
3D813446
BB4DD420
BD8A38C2
3D4BFC7C
BD2335A9
BCCAA2CA
3C6FCC58
BC918A74
3D13C1EC
3D0D7250
3D73B504
BD6F6C37
3C9A1DA8
3C4ED8C0
3C20AD90
BBFC3C40
BD0E9D12
BC5C5F18
BDA36414
3C1F38B0
BC4B0248
BD6B7858
BD70A556
BD81080E
3D4E2A80
3D42FBB0
3C8B8E64
BD565851
3CD9D52C
BD50B4E6
3D8162AE
BC4EBB78
3D3AF964
BD98B8AA
3CF86EA0
BD546D88
3D461A4C
BD6931BB
BDA08B4E
3C56EE48
BD0BB6AC
3BFFDD90
BC1A8270
BD3C9082
3D5CB090
BB10AE60
3B068760
BCD55AEE
3AE01200
BD6F8E3C
BC3216B8
BD18F2BE
3D8549D2
3D5B9034
3D020424
BD659685
BD4406C2
3D6C09A0
BD35F072
BCEE971C
3C91BC3C
BD62AA34
3D840282
BD42516F
BBB55240
3D6CA958
BCF58414
BC986DFE
BD8AA175
3C8926A0
3D10493A
3D2C2C8A
BD94D6B1
3D3D6F28
BDA3983D
BC931E90
3D9B31BE
BD1F2DE9
3D9D86A2
3BCA47D0
3D668BA4
3B7BBA60
BD357792
BD8C47FA
3C7A86D0
BD8B9F46
BD7A5AE0
BD013AD9
3C90566C
3996EF00
BC8569A8
3C1E3778
BD9CD644
BD40EA3D
BD3F7A0F
BAE25280
BBDC9A40
BD045CD2
BD49C79B
3D0C42E2
3D6AFDB0
BD94E6D7
BD6A3F06
BD6A090B
3CC55BD4
3D2D2474
3D71D1A4
BD9D8EB8
3D94EBDE
BD60DB38
BD32141A
BD8BEE3C
BD5A3E82
BD707593
3D297B7A
BDA07B28
3D6AFCDC
3D5F0AAC
BCC67ABE
BD81C5FC
BD370053
BD92BB30
BD9BB430
BC9E7534
BD8824F5
BD8B2A4C
BD92C00D
BD54C5B2
3D08A7F4
BD2372C2
BD99D844
3C20F3C0
BD98B892
3D458F70
BD07EB37
3D1B37A6
BACF7CC0
3AFEB800
3DA2A4C2
3D768E28
BD7CB94C
3D2BA904
3D106E70
3D97E4A8
BBD9B790
3AFCFA80
BCA17404
3D093D64
BD63934E
3D298CD4
3979FA00
3CFD5DC8
3C811470
BD406233
3B0CF200
3D36CD42
3D0B0804
3D884E94
BD6C5560
3D9E19CC
BCCA074C
BD9CCF87
3CE2BE48
3D04A16C
BD65E604
3D8A7202
3D990ED6
3B2D7880
3D09773E
BD1B4ED6
3CBE4FA4
3D0DF282
BD467496
BD2FB197
BD863F40
BD2B4998
3CA81E98
3D832020
BC2D4F60
3D35DCF2
BD05B4A7
B97F0800
BCEC2326
3C4C89D0
BCDD47B0
3CC3ADC4
3D516F30
3A42CB00
3B8FB7A0
BCD5F444
3D0377A0
3D5B7488
BD03B2D3
B86CA000
3D3C74C4
BD89C03E
BD98DDF9
BD6E37D4
BD3EBF88
BC5A1E58
BD43AB03
3D69B94C
BD4E3186
BD8D9C4E
3D00ED6C
3D2BFB94
3D66AC70
3CEDCD50
BD817602
BD7669B6
BC9BDD2E
BD719A70
3D015808
3C16C408
3D4A4360
3D35F836
BCC84622
BC941A6C
3D35B5F0
BCA66694
3CBD29C8
BD92DE0D
3CBDEEA4
BD80F6EA
3D8506EA
BC25E0D0
3CA1B540
3C014108
3D6FAC94
BD174922
3BAF35E0
BD9D2FA9
3D0A3062
3D8A5A22
3C809864
BD88153D
3A246200
3D88F552
3CAEDD80
BC139178
3C4984E8
3D0E32E6
3CA68D74
BD70A66B
3BBB70A0
BD0D14FB
BD5F7482
3CDE453C
BD0CC4AF
3D80E4D6
3CB066BC
3CEF98B4
BCA13C74
BD434023
BB7B11E0
BD9873EC
BD9156A9
3C9F9994
BD1FEC5E
3C496400
BD71596C
BB529380
3D3ED440
3B430E40
BD206596
3D263024
3BE7BDD0
BD994565
B842E800
3D658420
BD8BE5E6
3D00C606
3D7CB980
BD79287F
BD9A293C
3C80D8B4
3DA22BBE
3D3B5948
3D74F508
3C0A7BD0
BC6F0868
3D3A8E28
3D235E5C
BD64D00A
3CA1A25C
3D28A7B8
3D0608FA
3D8CD3BA
3D65659C
BD881AE6
BC448A20
BCF1CFF8
BD0F9A89
3D38A590
3D20F900
BD35985E
3D791A14
3CD86234
3D36B93C
BC342208
BC9DA3E0
BD1F8B62
BC802E64
3C631C10
BD93D141
3C31C428
BC0EA140
BD28E6BE
BD12FC0F
BCBDC484
BD5E819D
BD983D1F
3D8142E8
BDA39AA6
3D8D8246
3D8F12CC
BD8C5E67
BC8FA730
BDA2925A
BD0E6C45
3D34ED76
3D2EB04A
3CD67F30
BDA24146
BD0859BE
3D7465FC
3D18662C
3CD1F240
BD9BF97D
3C374BF0
BD74A2C2
3D4168E0
BBE0BB90
3D2290BC
3CAB6C70
BCA25A42
BCE9E034
BD4C1E8C
3D9E55BA
BD706AF6
BB9A1150
3D38C288
BBEA83E0
BC58C7E8
BD8C23C5
3D1B7546
3D8F955A
BD375EFB
3D90CE08
BD0C66D4
BD6E3998
3CBF3384
BD905776
BC79C170
BDA19D9A
3D264544
BD11BC0A
3D3EBE64
3D06B582
BD8F3109
BD0B0496
BCD0EF72
3CA32F84
BB2F7440
3D2552D0
BA205780
BD624F50
BCD61F78
BD297E2F
BD993D4B
3D07CC3A
3D8403D2
3BD62110
3BD71760
3D007596
3D6C01B8
3D5F770C
BCE03A30
3BF82BA0
3D4B8ACC
BBBABE80
BD979563
BD07B292
BD17131D
3D178BB0
BD42D48A
BD84D992
3CA41848
BC939F24
3D31852E
3B8E8E70
3D4CD9D0
3D0F0D48
BC8F383C
BD8BB1D3
3D8510D4
3D51AE10
3D583AA8
BD88CEC9
3D70E3EC
BD40793F
3D7B8D5C
3CD384F4
3D7F3BC8
3D55B64C
3D9F829A
3D893ECE
BCACC368
3C2DEAC8
391DB400
BBEF0340
3D845CB4
BCFA4B3C
3D671718
BD84FDD1
BD816334
3D1CA552
3CE24184
3D2134B6
3D8AE9DA
3D920CEA
3D09F650
3C75B260
BD9B8E81
3C657F68
BD1A1A69
3D9A02FA
BD9FBB4B
3C9C9E38
BD63D77C
3D6B0DB0
BD59BD54
3C0639E8
BD57A158
3D9A52F2
BC4E2410
BC855FC8
3A7EA100
3D9761C2
3D0D357A
BD09B192
BD6CCA98
3B39C080
BD75826F
BD32075D
3C2002F8
BD4E5CDA
BD554D92
BD42802C
3B367660
3D0A91FE
BCB513D2
B8C20C00
BD7E50B2
3BCD3BA0
BD2447FC
BC00A6C0
BD1EE024
3B7ACA00
3D5CDA9C
BCE77476
3C676BD0
3DA15D18
3D837E20
3D82101C
BD49C6A0
BC6C9440
3CF51D4C
3D8F406A
3C88A9C8
BD9164D5
3D261AFA
3D380C54
3D88697A
BC79D4D8
3D9FDDC4
BCCD1582
3D340DCE
3D49467C
BCA5880C
3D32F49A
3D3C2FB8
39CE4700
3D8BE4BC

