BD897C16
3D98D47C
BC2CCBF0
3D2B2A10
BD05E436
BD7F9CB6
3C914050
BD622AF2
3D417CE0
BD56BE9E
BDA01873
BCA13B7E
BD9A9B5C
BC8D0028
BD8B14EA
3D17E0F0
3D954B96
BD963AD2
BBF08CC0
BD9D6526
BD74254E
BD849F1E
BC59AD38
3D1FE32E
3A4BE100
3CF31114
BDA27978
BCF85ED4
BD7F18EC
3D3FCD10
3C5BBA60
3D9CA22C
BD7C1E52
BD9F970C
BD99E9BB
3D61BF44
BC874D70
BD17AB3E
BD1BE06D
3C54F640
BD1DADE7
3B7DA100
BC79D878
BD281F9E
BD21BD89
3D92A09A
BD76D12D
3D24ED7E
B92F4600
3D6152CC
BD825E8B
3D1A2CEE
3BA7F9B0
BD424E25
3C911360
3C9928B4
BD6BCCB6
3D9E3900
3C4BB5D8
BD85FC27
BD6EFC3F
3D3547DE
3D9C9160
BC90F560
BD0509F8
BD5675A4
3D86F356
BC103298
3D9273F8
BD834060
BD2107CD
3C9F74EC
BBDCA500
BD615648
BD49F763
BDA39F43
3D93D1C6
3C9D6DB8
BD70E606
3BD5E430
3D9BBF80
3D21B30C
3D42B880
3CA559AC
3CBA3D6C
BC512C80
3CAEF580
BCC9E14E
BCC63E0C
BD194F89
BD11B926
3C28BD78
3CD81A28
BD834B3A
3CD46ECC
BD6F708C
BCCE34CC
3D2317B2
BC823740
BCAB54B0
BD6A9551
3D3FEDC8
3D0DF706
BCBAAADC
3CE7FB44
3D922E84
BD9E0C2E
BD054A61
3C7E2A18
BD7645F8
BD550A9E
3D24224C
3D952698
BD500B28
3D30103A
BD6D03DE
BC1128F0
3D07AA96
3D8C089A
3D451F14
BD973881
3CEA3014
BD397FDD
BB858820
3C2A1288
BD8ACED9
BCFADC60
3CF916F8
BD669994
BD87D40A
3D5B7038
BC639568
BC3FE908
BC8DB5D0
3BCBFE10
3D36180A
3D4CB584
3D8CA5DC
BCFF5C5C
3D0AD6E4
BD54CDA3
3C33E5A0
3D8E8098
BD9DC749
3C833E60
BD375FA0
3D4836B4
3D6AF260
BBF93ED0
BD120824
BD15A350
3D934E42
3C182848
BC028748
3D8EABEC
BAE70D00
3C6FD4B0
3C217570
3C6F3328
BD825B67
BCC070E2
3D3719C8
BD477A0E
3D8474C4
3D624A18
3D090C10
BD59933F
3D865540
BB4B7E80
3C2E5B08
3DA152C2
3D5801C0
BD1439EF
3D8F3326
BC634500
BB92EAA0
3D1340DC
3D1D2868
BD09CA0B
BD28C595
BD3CF1DB
3D7789F4
3D7C6FCC
3D94E858
BA759780
BCF5A810
BCA2D068
3D5C5F18
3D546094
BD10A505
BD1834A0
3CBFEF6C
3D64F740
BD7EE2D3
BD87ED6C
BD58D516
3D6C32B0
3D85E9B8
3CCD4200
BD748A86
BD8D75C9
3D476DAC
BD49690C
BB9E75E0
BC93E218
BC3E4328
3C6A6138
BD2EAE30
3CBE6EB0
3CAA41CC
BCB07A32
BD7F4BFE
BCF5CA2A
3D9D5F6A
BC6C64F8
3D1595E4
3C869904
3C6088C8
BCD76DD0
3D9E6252
BD4F6ED6
BD7354FA
BD162F72
3D3F779C
3D1F3C7E
3D3179D4
3D10BC34
BD3F4659
BC6CB360
BD5C10F6
BCC65902
BD3DDDCF
BC4474A0
BDA06BDD
BD3BB26A
3D002094
BD444A0F
3CADA330
3CC53C18
BC47C4B8
BD9F6C48
3D613588
3CDD70F8
BD736B42
3BDE4470
3D0992B8
BBFCCD80
3C050CF0
BD2E84D8
3CD45740
3CF434E4
3BE5F190
3D5CDEB8
BD90E0C9
3D9FB592
BCBF35CC
BC7277B8
BCE06A9C
3D52F258
3C517760
BD601365
3D88AF9A
3CB470B4
3D9CFF4A
BD40D460
3B4823A0
BD4A2C4E
BAB7A300
BD822881
3CC6ACE4
BD758EF8
BD8AAB72
3D364C4C
3D96FFA8
BC6DD260
3DA3D0A2
3D477F44
BC26F700
3D262DCC
3D9B126C
3CDCBD88
BCDC72FC
BD34E2F9
BCC20F38
3D4DF38C
BD89EBA4
3D3EF400
BD2A5C47
3D74AC24
BD2D8F44
3D56A1BC
3D1E4966
BD221895
BD686857
BD8DECDD
3B641F20
BD16E5DC
3D06086C
BD6B4124
3D942140
3C8605FC
BCBA1288
BD6E0576
BD33D6AA
3D1D86A0
BD514006
3D354D78
3D9F2ED0
3D936F22
BD3C7578
3D881F02
3D0BDC76
BD986177
3D9DE642
BCA21862
BD144E31
BCF5EFE0
3CC0DEA4
BD3EF692
3C925574
BD2A9BED
BD3AEBA2
3D3BE3A0
3C8E03B8
3DA284D8
BD9533F2
3DA38CB0
3C4A7ED8
BD8CEC33
BD2CC295
3D8922D2
BD012745
3D5C5C58
3AA7B340
BD17FFC0
BD1C2608
3D130400
3D9B546A
3D9F81DC
BCD9EDBC
BD880A3A
3D918482
BD06A0D3
3D82E180
BD815572
3D3AFB60
BD839CA8
BCB8A24A
BD24C129
BCEC989C
BD3AA42F
3DA01B0A
3C1CB548
BD65035E
3B2AEE40
BDA30BEB
BC750430
3C576908
BD8F1319
3CFB8DD0
BD65490D
BD1DEB1A
BBE42A50
B830B000
BD978133
3CB3898C
BD1919EB
3D453FA4
3C8EDB84
3D7FB358
3C48BFF0
3B86E400
BCD51856
3D823C32
3C4008E8
3DA41032
3D33921A
BA10D480
BD7A085A
BD3AEF8B
BD965E8B
3B22E3C0
BCCBB11A
BD8E5AF8
3D305AD4
3D4AC760
BD2C775D
3DA094AA
BC9454F4
3D91B3DA
3D56A6F4
3AEA1000
BD8AFB9C
BD72C742
BD3C81D8
BD90B666
BDA2BD1E
BD650977
BD96E53D
BCAC159E
BD906EA4
BD273E84
3D94523A
BD828B28
3D4F8B78
3A309C00
3D241B2C
3C7090D8
BD93A13C
BCDD0D3E
3D6EE690
BD019119
3D57B034
3CC1EE40
BDA2390F
BC463E20
3D009ABC
3D87FDC2
3BBC6F50
BD917861
3CF70E34
BD831571
BC1D52A0
3D20FCC0
3D6C84FC
3B811F00
BD40057D
3AB727C0
3CE51164
3D7E1150
3D695C4C
3D04D21C
3D8AF7F0
3D827930
3D7BE584
3D5CC498
BD7282D2
BC4F79E0
3B87E3D0
3CC02F20
BBC57E50
BD377FF0
3D75F0B4
BD66F51C
BD97DF37
BD050935
3CA6F4B8
BCA8C754
3D6A78F4
BD821EA2
3D646DB4
3C66B278
BCFB1798
3D82CFE2
3D911EBA
3D73B110
BD1B17B2
3D4D4560
3BA3E3C0
3C474658
3D655334
BD935567
3C7F3A18
BD507013
3D94CDF4
BD6133FC
BD068319
BD379AB3
3CDB2130
BD595298
BD970881
BCDA3F9C
BC508320
3D02F4CE
3C5940D0
BD8194E6
3D734F8C
BCE94074
BB367700
3CA55898
3CEA30D8
BD109829
BD092A13
3B0D7A60
3D761118
BD8E625E
3B728BE0
3D4D86DC
3D303374
BD94FE8D
3D10F0D8
BCD84ECA
BCC16BF0
BD7F533C
BD75BB90
3C3BA010
3D1DA398
3D8E5B7E
BD0CC10D
BD92B494
BC09EBB8
3D53FB28
BD54E999
BD1985A2
BD82A09C
3D07E45C
3A802C80
BD58489D
3D8E7030
BD12667B
BD4433EA
BD4D1F94
3C1B5EB0
3CBE2198
BC7DDC20
3C2A8E40
BD025024
3D27B58C
3DA0F50A
3D9F4B70
3D0443C4
BC0F15C0
3D94FA04
3BAB6700
3D9E52B0
BC86267C
3D4562E8
BD5EAC0A
BCD9AC2E
BD29ADC4
3B9C5750
BC7E18D8
BC92377C
3CEB5CCC
3D93AF3C
3CD93D4C
3D888F94
3D620FA0
3C064E98
3D5DBDE0
3D815450
3D4232C8
BD2F1D93
3CEDD914
3CC25054
BD7D3DE4
BD2069D6
BD67C3CC
3CE30560
3D27FF66
BC3D5920
BD92DB5D
BD085DEF
3D39657C
BD7B4774
3CD56974
BC716EC8
BD35639D
3D6E3750
BD34AA20
BD0F7731
BBE12810
3B56A960
BC548450
BD840F44
3C11BB88
BCFAB288
BD0CA80A
BD63BCB0
BD3B0D7E
BCEAC5AE
3C71EEC0
BD86176F
BD0B0915
3C0DFD58
BC934AB0
3D96746E
BD32D194
3D189A3E
3CA2CBF4
BC768230
BD3894CB
BD6FCA5F
3D045ECE
BCB787D2
3D90C0E2
3C3ECB68
BA6A6500
3CB8E0E0
BD97A304
3D156ACE
BD654BA4
3D6F4398
3C9ACD40
BCE48E48
3D2888B4
3B7362E0
BC9D778A
BDA1CE86
BD6D84B9
3D57D90C
3CA69C40
BCE70F0C
BD777A03
3D884936
BD4213B2
3D19E086
3D0396AE
BD366315
BCBD2128
BC0E3EA8
BD99C176
BD67205B
39A96800
3CD653B4
BD9FB81D
BD8808CB
3CAD2844
3D4069EC
BD20CEE5
BDA2D28F
BCD06332
BD5B9E1A
3D83F1EA
BD876792
3D71B690
BCECFBAA
3D038990
3D1ACCBC
BCE309FC
3CA0552C
BD0785D7
BC81EB24
3BC862B0
3D86C230
3C4E2758
3D521098
BD6C3E77
3D029D3A
BCCE9398
BBA73E90
3D0E92D8
BD77AED9
BD39A7CD
BD20BE01
BD326E07
BD471610
BDA20553
3D93B548
3D79483C
3D727B90
BD52DFC9
3BE9FD70
BD535E60
3CC3CF88
BD1C33F9
BD2B7B95
3D400C7C
3C95CA40
3D7500D4
BD3B88A2
BCC9D410
BD164170
BC79AEE8
BD14ED8A
3D18D3BC
BD2F1852
BC893D20
3D6479F0
BD9A0A9B
3D799014
3D5B6B98
BD6F89B9
3B0A69C0
BCF708F0
3C6ACBB0
3CA050B8
BD9313E6
3CBB74BC
3D4E0ADC
3D6DFA7C
3CF07D38
3D960950
3D6C41E4
BCF3077C
3D39B08C
BD55F3E6
BC8C0D20
3CA68C9C
3D5643D4
3D5C8364
BD6C57FB
BD38169A
3C5D4618
BC408380
3C0D4E08
BDA4299B
BBD5DD20
3D89D6C2
BD5E6627
BCE8A47A
3D994418
BD45ADA9
3D22D5E0
BCFBCCA4
BC56B680
3D7B3B3C
BCA0B19C
3D926204
BC4D9688
3CB550CC
3D4F5C48
BBF0C230
BD8B4EEA
BD715F95
BD34B61A
3D81B688
3C89DBF4
BCCE3FE8
3B808380
3C4899E8
3D0E1714
BAC8A580
BB876960
BD8E0412
3D06A0DE
3D07A698
BDA0C7D0
3BE4D590
BD8F3A98
3CAF9DCC
3D54BB00
3D0DED7E
BD91102A
BD0E7ED2
3D867FD6
BD6B7BE0
BD3A460C
3D727F40
3D6127FC
BC0A8F68
BD96EA4B
3D857336
3D20ED3E
3D4E5CBC
BC8F8E00
BC902150
BD824A24
3D564984
3D20A416
3C885114
3C8A7FCC
3D846340
3D90866C
BD841E14
BDA20A64
BCDAF410
3D35E162
3D867C9A
BD9FCA82
BD4DB8A6
BBCFE340
3CDFFE94
3D84F17A
BC4DA668
BD539DB4
BD8C00B3
3CD562F4
3CEE44B4
BD9832D2
BD86B4B2
3C211E38
3D9C058E
3D58BC4C
3D630544
3C7C48D8
BD17F936
BD9D5EE1
3D1A7A22
BC5DE908
BD4E3383
3D5608C4
3D94DE74
3CBEC884
BD8CB254
3D8B7636
3D5F4EF4
3D6C4140
BD4985DA
3D4D69E8
3C434D70
3D444828
3D360394
3CC81FBC
BD8FE1B2
3D0859F6
BD780456
3A597A80
BD2CDD9A
3D628A00
3D93713E
3D889510
3CD74A8C
BD5DF126
3D0C41F6
BD2E09A0
BCC2087C
3CD96A08
BCDD1E7E
3C84A414
BC8E1E50
3C0D3350
3D88C4A8
BD363F7F
3C8280C8
3D4B49EC
BD8DA531
BD253827
BD64400E
BDA41D5A
3AB2BE00
BD2F6970
BD265612
BD35F65D
BD396BC9
3CB359E0
BAAFBE80
BD7E8B87
3D8F3408
3A355A80
3D7C4A8C
3D8AFC60
3C3D7588
3D8FC4E6
3C9662FC
BD6F9F16
BCDA2876
3D8433EA
3D46FD74
BD5D5234
3B626240
BD258DFC
3D23A3EC
BDA0FE10
3D6A84C4
3BBDE840
3C2B1050
3D66B7E0
BCB15A60
3D9CFF6C
BD31E1AD
BC06E598
3D898932
BD26EA20
BBCA7BA0
BDA1F128
BDA0FDEA
3C95FEB0
BD91454F
BD584B8B
BD98CC26
BD4D3792
BD328541
BCB9E150
3C277D40
3CAD1C24
3C861B24
BC5F4A28
3CC8CB00
BBFE8030
3B582900
3D961062
BD56F648
3D12C6A4
BD9A18FF
3D7AB2F0
BC78F138
BD613D69
BCE83180
BC112BD0
3D98C494
BD059974
BD57A95E
3AFE8880
3D0BA3A2
3CDBDEC0
BD8C9795
3D3AD80C
BD82E5C2
3D718C60
3D90211C
BD7544E4
BD2BD549
BD097810
BC3CB400
BB053620
3D3B1BF4
BBFF98E0
3D1D61E6
3C11FC80

